<unk>	0
<s>	0
</s>	0
▁	-3.10252
.	-3.48971
이	-4.34968
..	-4.4041
▁영화	-4.57734
...	-4.64536
가	-4.65296
의	-4.65809
도	-4.74752
는	-4.77704
,	-4.92728
을	-4.94783
에	-5.01942
고	-5.05733
다	-5.13248
지	-5.16788
은	-5.17308
?	-5.32788
한	-5.41039
를	-5.47425
만	-5.54124
▁너무	-5.55478
!	-5.6198
로	-5.64024
▁정말	-5.68807
▁이	-5.69072
게	-5.69915
나	-5.7628
영화	-5.83239
▁진짜	-5.90161
과	-5.92445
~	-5.93439
기	-5.99149
리	-6.01728
어	-6.02934
인	-6.05135
라	-6.06733
하고	-6.09697
으로	-6.17214
아	-6.18033
서	-6.19719
점	-6.19819
네	-6.22275
에서	-6.23805
▁잘	-6.26931
들	-6.2741
▁안	-6.27544
▁그	-6.28071
와	-6.30148
요	-6.34095
▁다	-6.38474
해	-6.39224
▁1	-6.39605
하는	-6.40106
▁왜	-6.40661
....	-6.4158
자	-6.43187
!!	-6.43423
▁수	-6.4361
네요	-6.43792
▁더	-6.43796
▁아	-6.45824
▁이런	-6.45915
거	-6.46305
스	-6.51455
면	-6.53337
음	-6.5487
수	-6.57665
▁그냥	-6.58121
▁본	-6.60009
대	-6.60093
니	-6.60554
▁드라마	-6.63792
하	-6.64647
시	-6.68752
지만	-6.6919
▁보고	-6.71326
▁10	-6.72363
▁내	-6.74169
사	-6.74225
야	-6.74935
일	-6.75714
함	-6.75907
▁연기	-6.76144
하다	-6.76518
하게	-6.77642
▁평점	-6.79072
▁한	-6.82602
▁영화를	-6.82682
▁좀	-6.8325
이다	-6.84576
여	-6.84642
주	-6.86475
미	-6.86668
데	-6.89261
진	-6.90386
우	-6.90849
▁참	-6.92964
임	-6.93334
할	-6.93635
구	-6.93965
던	-6.9408
▁못	-6.94501
정	-6.95187
보다	-6.95973
까지	-6.96189
들이	-6.96251
듯	-6.9699
신	-6.97154
▁최고	-6.9753
냐	-6.97777
▁없는	-6.97794
성	-6.97837
드	-6.98024
▁봤는데	-6.98208
▁스토리	-6.99153
▁이거	-6.99585
▁쓰레기	-6.99776
▁나	-7.00063
는데	-7.00758
▁최고의	-7.01037
안	-7.01064
▁없다	-7.0144
해서	-7.01518
▁영화는	-7.02025
▁ᄏᄏ	-7.02771
▁영화가	-7.03948
▁내가	-7.05089
▁완전	-7.05454
보	-7.05709
▁이건	-7.05739
▁개	-7.07374
▁있는	-7.08179
상	-7.082
장	-7.08361
적	-7.08773
▁보는	-7.09981
▁좋은	-7.10141
중	-7.10437
▁것	-7.10893
ᄏᄏ	-7.11027
▁2	-7.11093
전	-7.12014
▁다시	-7.1208
!!!	-7.13459
▁이렇게	-7.14665
랑	-7.15112
건	-7.15201
마	-7.15902
^^	-7.16742
치	-7.16899
부	-7.17453
▁이게	-7.18577
▁난	-7.18788
트	-7.20007
▁3	-7.20556
려	-7.20953
보고	-7.22107
▁보	-7.22225
개	-7.22709
▁말	-7.23509
화	-7.2455
▁뭐	-7.24709
ᄏ	-7.26537
▁오	-7.2676
그	-7.26821
분	-7.26823
~~	-7.27593
1	-7.27645
히	-7.27819
물	-7.28034
원	-7.2857
▁작품	-7.29118
;;	-7.2915
▁저	-7.29157
비	-7.29159
질	-7.29348
▁지	-7.301
어요	-7.30392
세	-7.3071
때	-7.31116
▁평점이	-7.31286
오	-7.31688
▁재밌게	-7.32109
년	-7.32181
▁넘	-7.32479
▁많이	-7.32649
러	-7.33352
▁감동	-7.33698
라고	-7.35125
인데	-7.35195
▁전	-7.35728
내	-7.35936
▁역시	-7.3602
▁하	-7.36502
제	-7.36568
▁재미	-7.37174
▁그리고	-7.37709
급	-7.38775
것	-7.38831
소	-7.39249
▁또	-7.39943
입니다	-7.40113
▁생각	-7.40291
했다	-7.407
▁무	-7.40995
습니다	-7.41267
▁볼	-7.41727
적인	-7.42154
▁별로	-7.43858
걸	-7.44353
2	-7.45073
▁주	-7.45447
▁꼭	-7.45476
??	-7.45726
▁하는	-7.45938
▁마지막	-7.46469
무	-7.4759
▁감독	-7.47885
씨	-7.48162
진짜	-7.48191
하지	-7.48239
감	-7.48677
▁시간	-7.48681
부터	-7.49153
말	-7.49245
용	-7.49257
같은	-7.49887
▁하나	-7.50649
'	-7.50829
▁액션	-7.51177
▁이야기	-7.5281
유	-7.53228
군	-7.53608
▁없고	-7.53627
▁가장	-7.5423
본	-7.5427
영	-7.54334
남	-7.54352
▁김	-7.55222
라는	-7.55293
▁비	-7.55316
더	-7.55588
▁아니	-7.55592
없는	-7.55708
)	-7.55773
▁무슨	-7.55922
된	-7.56047
식	-7.56239
디	-7.56334
▁지금	-7.56661
▁별	-7.57175
▁정	-7.57186
▁ᄏᄏᄏ	-7.57205
▁명작	-7.57619
작	-7.57894
란	-7.57976
▁다른	-7.58643
동	-7.59789
호	-7.59965
▁아깝다	-7.60005
▁미	-7.60019
좀	-7.60033
조	-7.60369
▁보면	-7.61376
이나	-7.6138
▁기대	-7.61705
선	-7.618
▁한국	-7.62644
▁대	-7.62816
루	-7.63071
▁유	-7.63354
드라마	-7.63515
너무	-7.64274
▁만든	-7.64435
편	-7.64623
ᅲᅲ	-7.64827
▁조	-7.64839
줄	-7.64993
▁마	-7.65064
▁사랑	-7.65404
심	-7.65834
▁할	-7.66147
▁느낌	-7.66275
긴	-7.66516
▁처음	-7.66714
에게	-7.66849
;	-7.67171
▁사	-7.67663
ᄏᄏᄏ	-7.67714
간	-7.67882
▁배우	-7.68023
연	-7.68482
▁중	-7.68672
당	-7.68832
모	-7.69229
크	-7.69979
위	-7.70133
▁일	-7.7141
린	-7.71667
처럼	-7.72007
래	-7.72161
울	-7.72227
으면	-7.72658
있는	-7.73273
한다	-7.73528
▁연출	-7.73942
난	-7.74045
정말	-7.74115
프	-7.74166
3	-7.74597
르	-7.75375
판	-7.7541
명	-7.7553
▁일본	-7.75557
▁자	-7.75741
들의	-7.75969
▁내용	-7.76024
▁어	-7.76347
▁두	-7.76444
운	-7.76702
ᅲ	-7.76849
▁남	-7.76942
살	-7.77401
▁신	-7.77447
두	-7.77569
▁기	-7.77618
▁ᅲᅲ	-7.77983
인지	-7.7821
▁말이	-7.78395
바	-7.78482
▁짱	-7.786
경	-7.78626
타	-7.78862
레	-7.79022
준	-7.79081
▁끝까지	-7.79179
▁때	-7.79883
희	-7.79967
▁영화다	-7.80624
워	-7.81177
▁거	-7.81183
▁ᄏ	-7.81502
▁돈	-7.81736
▁있다	-7.8189
연기	-7.81978
▁좋다	-7.8265
▁같은	-7.82709
며	-7.82857
▁사람	-7.83166
o	-7.83381
었다	-7.83499
▁'	-7.83586
(	-7.83665
단	-7.84177
죠	-7.84338
합니다	-7.84379
▁여자	-7.84481
▁솔직히	-7.84538
되는	-7.84777
생	-7.85048
▁전혀	-7.85406
노	-7.85502
▁ᅳᅳ	-7.85785
발	-7.85862
▁알	-7.8671
면서	-7.8703
든	-7.87826
했던	-7.87847
▁같다	-7.88148
▁제	-7.88594
재	-7.8869
▁봤다	-7.89194
▁애	-7.89295
▁해	-7.89454
저	-7.89475
▁하지만	-7.89537
▁구	-7.89545
▁뭔가	-7.89562
▁모두	-7.90025
▁아니라	-7.90036
인가	-7.90157
티	-7.90204
차	-7.90437
▁와	-7.90858
하지만	-7.90902
길	-7.9121
ᅳᅳ	-7.91232
국	-7.91295
구나	-7.91385
이랑	-7.91481
▁후	-7.91641
방	-7.91843
▁좋아	-7.92188
민	-7.9224
▁부	-7.92617
파	-7.92804
하나	-7.93956
▁아주	-7.94126
▁봐도	-7.94131
▁대한	-7.94223
때문에	-7.94415
▁최악	-7.94511
▁인생	-7.94643
류	-7.94857
▁그런	-7.95404
▁많은	-7.9572
시간	-7.95962
날	-7.96033
▁이영화	-7.96061
▁ᄒᄒ	-7.96758
들은	-7.96764
-	-7.9688
▁주인공	-7.97218
잘	-7.97331
없이	-7.97396
▁재미있게	-7.9758
되	-7.97747
터	-7.97796
하면	-7.97939
▁대박	-7.98043
박	-7.98247
▁어떻게	-7.98385
번	-7.98622
▁재밌다	-7.99009
이라	-7.99032
▁한번	-7.99349
▁모	-7.99378
▁우	-7.99639
▁이걸	-7.99748
,,	-7.99771
▁만들어	-7.99817
▁강	-7.9986
▁소	-8.00105
지는	-8.00222
▁내내	-8.00708
▁줄	-8.00958
봤는데	-8.01377
▁이해	-8.01386
▁실망	-8.01522
▁장면	-8.01882
▁되	-8.0202
후	-8.02332
보는	-8.02376
▁내용이	-8.02794
▁계속	-8.0306
애	-8.03164
▁코미디	-8.03196
현	-8.0322
▁최악의	-8.0351
▁않고	-8.03522
한테	-8.03567
▁아닌	-8.03869
▁나오는	-8.04415
e	-8.04594
▁모든	-8.04981
▁불	-8.05112
▁배우들	-8.05328
▁4	-8.05428
회	-8.05664
▁남자	-8.05688
엔	-8.05869
ᄒᄒ	-8.0686
▁반전	-8.06957
관	-8.07017
스토리	-8.07119
▁반	-8.07774
▁바	-8.07787
피	-8.07892
보면	-8.0793
▁그래도	-8.08262
▁보기	-8.08354
다가	-8.08632
체	-8.08654
▁장	-8.08678
하네	-8.08946
▁아니다	-8.09666
적으로	-8.09778
이라는	-8.09965
▁딱	-8.10167
없다	-8.10228
▁제대로	-8.10375
못	-8.10547
▁박	-8.10651
▁공	-8.11034
▁우리	-8.11276
▁공포	-8.11588
▁시	-8.11671
실	-8.11912
님	-8.12085
지도	-8.12302
배	-8.12366
림	-8.1253
니까	-8.12928
▁만드는	-8.12928
▁이상	-8.13052
▁7	-8.13068
▁기억	-8.13151
10	-8.13508
으	-8.1361
어서	-8.13835
▁정도	-8.13844
토	-8.14053
▁없	-8.14149
▁듯	-8.14201
▁굿	-8.14237
▁아름다운	-8.14241
▁재미없다	-8.14422
▁5	-8.14428
▁제일	-8.14503
버	-8.14538
▁않은	-8.14748
즈	-8.1475
키	-8.14783
▁연기가	-8.15085
까	-8.15731
생각	-8.15929
▁속	-8.1607
하네요	-8.16106
▁하고	-8.16134
▁개봉	-8.16219
석	-8.16222
카	-8.16743
매	-8.16789
겠다	-8.16849
▁근데	-8.16885
▁감독이	-8.16937
태	-8.17071
공	-8.17418
▁끝	-8.17498
산	-8.17636
▁음악	-8.17747
▁피	-8.17799
▁추천	-8.17838
▁전개	-8.17896
▁욕	-8.1792
점도	-8.17941
▁9	-8.18044
려고	-8.18105
▁요즘	-8.1814
▁않는	-8.18637
창	-8.18641
▁연기도	-8.18654
겨	-8.18813
4	-8.18845
▁눈	-8.19184
▁조금	-8.19387
▁이제	-8.19434
달	-8.19537
▁싶다	-8.19651
▁수준	-8.19717
망	-8.19735
점이	-8.1991
▁스릴러	-8.20219
▁건	-8.20247
참	-8.20329
▁노	-8.20627
ᄒ	-8.21721
정도	-8.21805
형	-8.21918
이란	-8.21937
반	-8.22136
없	-8.22192
년대	-8.22311
케	-8.22322
등	-8.22334
d	-8.22351
▁아니고	-8.22401
▁애니	-8.22458
하기	-8.2247
▁8	-8.22482
▁절대	-8.22543
▁파	-8.23585
▁배	-8.2359
▁심	-8.2364
▁막장	-8.23951
들을	-8.24497
▁걸	-8.25079
라도	-8.25206
▁OO	-8.25371
▁스토리가	-8.25414
~~~	-8.25449
역	-8.25529
▁남는	-8.25543
♥	-8.25653
쳐	-8.25844
▁나는	-8.25847
▁보다가	-8.2585
다니	-8.26261
!!!!	-8.26871
▁만들	-8.26989
사람	-8.27168
짱	-8.27264
▁대사	-8.27534
▁보다	-8.27621
▁내용도	-8.27875
것도	-8.27902
이라고	-8.27915
▁영상	-8.27918
▁0	-8.28091
▁나름	-8.28235
볼	-8.28307
▁미국	-8.28522
▁표현	-8.28866
▁공감	-8.28952
▁가족	-8.29203
▁때문에	-8.29203
▁시간이	-8.2921
따	-8.29354
해요	-8.29424
▁영화라고	-8.29427
예	-8.29506
▁재	-8.29529
였다	-8.29588
▁캐릭터	-8.29749
▁뻔한	-8.29917
""	-8.30138
문	-8.30159
t	-8.30188
▁망	-8.30255
▁아까운	-8.30334
이고	-8.30351
▁울	-8.30472
왜	-8.30529
릴	-8.30662
▁재미도	-8.30855
▁여운이	-8.30863
▁영화의	-8.31023
▁나오	-8.31048
▁아직도	-8.31061
종	-8.31161
는거	-8.31252
▁여	-8.31266
▁엄청	-8.31283
속	-8.31436
▁차라리	-8.31943
력	-8.32085
ᅳ	-8.32141
양	-8.32145
▁발	-8.32225
승	-8.3239
던데	-8.32527
뿐	-8.32605
▁스	-8.32924
▁될	-8.32998
▁동	-8.33117
집	-8.33145
인듯	-8.33208
7	-8.3326
▁사람들	-8.33371
▁결말	-8.33546
▁초	-8.33583
져	-8.336
▁주는	-8.33711
격	-8.33794
코	-8.33828
▁영화입니다	-8.33834
▁걍	-8.34219
▁좋았다	-8.34418
▁특히	-8.34526
했는데	-8.34686
▁눈물	-8.34741
▁성	-8.34809
배우	-8.34952
극	-8.35063
▁스토리도	-8.3508
했	-8.35451
▁인간	-8.35571
;;;	-8.35913
▁진심	-8.36146
▁감독의	-8.36169
▁원작	-8.36516
장면	-8.36644
▁되는	-8.36705
▁세	-8.36785
▁멋진	-8.3693
▁날	-8.36961
▁나도	-8.3708
/	-8.37112
▁몇	-8.3713
먹	-8.37288
▁나온	-8.37369
▁오랜만에	-8.37399
▁사실	-8.37542
건지	-8.37607
▁도대체	-8.37648
점은	-8.37703
a	-8.37719
평점	-8.37732
해도	-8.37813
능	-8.38263
▁원	-8.38284
i	-8.38514
학	-8.3862
▁공포영화	-8.38719
▁우리나라	-8.38946
ᅮᅮ	-8.38988
▁마지막에	-8.39491
▁이해가	-8.39688
▁머	-8.3974
통	-8.39783
▁보면서	-8.39922
▁시나리오	-8.39989
꺼	-8.40091
색	-8.40111
환	-8.4014
움	-8.4039
5	-8.40453
▁봤던	-8.40634
직	-8.40814
▁B	-8.40841
???	-8.40895
밖에	-8.41116
병	-8.41273
▁현실	-8.413
짐	-8.41383
▁막	-8.41462
▁20	-8.41676
s	-8.41904
금	-8.41928
▁시리즈	-8.42046
만큼	-8.42175
▁재밌	-8.42571
▁없음	-8.42589
교	-8.4271
었는데	-8.42863
ᄏᄏᄏᄏ	-8.42901
▁시작	-8.42922
업	-8.43056
▁ᄏᄏᄏᄏ	-8.43121
▁소재	-8.43272
씬	-8.43408
▁재밋	-8.43445
▁알바	-8.43476
는게	-8.43514
▁연	-8.43523
죽	-8.43622
▁기분	-8.4366
있다	-8.43762
▁좋고	-8.43967
▁제목	-8.44066
▁연기력	-8.44106
더라	-8.44211
리는	-8.44221
▁좋아하는	-8.44289
▁진	-8.44475
대로	-8.44531
▁허	-8.44611
▁매	-8.44644
▁재밌어요	-8.44701
포	-8.44841
▁영	-8.44918
계	-8.44927
▁어떤	-8.45058
최고	-8.45109
▁봤습니다	-8.45124
이런	-8.4524
갈	-8.45254
입	-8.45322
담	-8.45374
▁들	-8.45431
▁뭘	-8.45556
▁가슴	-8.45703
▁함께	-8.45825
끼	-8.45837
탄	-8.45959
녀	-8.46066
않	-8.46084
넘	-8.464
절	-8.464
▁생각이	-8.46601
사랑	-8.46742
▁그저	-8.4683
론	-8.46856
▁지루하고	-8.46894
▁수작	-8.47002
▁쓰	-8.4707
▁필요	-8.47322
▁사람이	-8.47339
▁긴장감	-8.47495
었던	-8.47538
잡	-8.47598
▁재미가	-8.47727
▁OOO	-8.47781
하면서	-8.48152
봐도	-8.48255
▁배우들의	-8.48373
▁ᅲ	-8.48593
강	-8.48642
▁지루함	-8.48909
▁재밌는	-8.48916
▁싶은	-8.49166
▁웃	-8.4928
▁지루한	-8.49429
는지	-8.49452
▁맞	-8.49497
▁괜찮은	-8.49595
▁못한	-8.49732
중에	-8.49803
잇	-8.49889
▁졸작	-8.49942
▁영화에	-8.50026
▁오늘	-8.50039
▁개인적으로	-8.50216
▁노래	-8.50239
그냥	-8.5024
설	-8.50603
▁얼마나	-8.50634
▁있	-8.50779
▁없이	-8.50783
▁된	-8.50819
감동	-8.50925
▁한국영화	-8.50991
▁큰	-8.51117
스트	-8.51119
▁살	-8.51233
았	-8.51304
투	-8.51326
▁뭔	-8.51336
▁예	-8.51615
▁안되는	-8.51697
▁6	-8.51969
구만	-8.52099
불	-8.52207
,,,	-8.52631
재미	-8.52669
김	-8.52716
른	-8.52884
▁캐스팅	-8.52971
테	-8.53029
락	-8.53149
▁졸	-8.53216
초	-8.53223
▁몰입도	-8.5329
▁보는내내	-8.53465
▁아무리	-8.53604
▁보세요	-8.53679
▁애니메이션	-8.53689
보단	-8.53773
▁후회	-8.53813
▁기억에	-8.53831
▁"	-8.54397
하며	-8.54399
▁^^	-8.54401
났	-8.54525
▁최고다	-8.54583
알	-8.54851
봄	-8.54869
▁차	-8.54957
▁정신	-8.55512
잼	-8.55523
▁그렇게	-8.55842
머	-8.55846
주는	-8.55864
▁코믹	-8.55867
▁화	-8.55967
▁엔딩	-8.56265
재밌	-8.56284
▁행복	-8.56511
~!	-8.57172
▁영화로	-8.57197
거야	-8.57204
하는데	-8.57361
했음	-8.57618
▁아이	-8.57858
작품	-8.57928
6	-8.58048
▁최	-8.58308
친	-8.58576
감독	-8.58638
아니	-8.59029
있	-8.59362
기도	-8.59471
▁연기는	-8.5949
▁느낌이	-8.59651
▁만화	-8.59658
름	-8.59772
행	-8.59823
▁매력	-8.60057
▁매우	-8.60071
기에	-8.60078
근	-8.60459
▁위	-8.60499
▁베	-8.60627
▁더빙	-8.60628
다고	-8.60646
▁결국	-8.60759
▁단	-8.60852
악	-8.61132
▁죽	-8.61177
▁토	-8.61204
점을	-8.61247
▁유치	-8.61342
▁전쟁	-8.61453
았다	-8.61512
▁억지	-8.6165
침	-8.61663
슨	-8.61672
기는	-8.61969
▁평	-8.6198
이야	-8.62107
▁입	-8.62146
글	-8.62451
▁선	-8.62916
▁호	-8.63127
척	-8.63132
었	-8.63282
▁엄마	-8.6355
▁""	-8.63956
블	-8.63969
뭐	-8.63985
▁총	-8.64013
▁모르겠다	-8.64134
메	-8.64325
▁예술	-8.64442
난다	-8.6463
▁제발	-8.64634
▁설정	-8.64694
버린	-8.64891
▁타	-8.64959
영화는	-8.65296
▁지루하다	-8.65395
▁것이	-8.65428
▁아무	-8.65504
▁물	-8.65537
▁웃기	-8.65557
께	-8.65565
▁봐야	-8.65567
액션	-8.65755
▁있고	-8.65796
▁분위기	-8.65804
만한	-8.65924
▁애들	-8.65983
▁봤어요	-8.66269
8	-8.66441
▁길	-8.66519
▁상	-8.6653
별	-8.66545
열	-8.66727
온	-8.66889
▁별점	-8.67028
될	-8.67054
증	-8.67057
너	-8.67142
▁않는다	-8.67212
그리고	-8.67212
ᅮ	-8.67232
이지만	-8.6735
▁좋아요	-8.67471
결	-8.67521
적이	-8.67623
▁위한	-8.67712
▁강추	-8.67761
된다	-8.67771
새	-8.67826
▁마음이	-8.67889
▁그만	-8.67967
이었다	-8.68218
점대	-8.68283
▁백	-8.68329
▁중국	-8.68381
군요	-8.6842
▁보지	-8.68619
을까	-8.68655
D	-8.68855
▁않	-8.68921
▁극장에서	-8.68924
▁같이	-8.69246
이네요	-8.69371
▁들어	-8.69421
돈	-8.69491
천	-8.69536
▁준	-8.69605
▁글	-8.69647
▁하나도	-8.69693
해라	-8.69762
▁너무나	-8.6997
훈	-8.70014
▁작가	-8.70021
나는	-8.70071
소리	-8.70085
순	-8.70147
ᄋ	-8.70287
이상	-8.70464
백	-8.70573
봐	-8.70685
▁점수	-8.70712
▁내용은	-8.70829
니다	-8.70964
해야	-8.71125
▁존	-8.71278
▁잠	-8.71381
▁스릴	-8.71409
언	-8.71444
▁보게	-8.71537
▁걸작	-8.71619
▁존나	-8.71761
▁위해	-8.71811
▁찾	-8.71865
내용	-8.71976
뻔	-8.72036
이네	-8.72047
▁출연	-8.72263
짜	-8.72297
▁문제	-8.72315
▁똥	-8.72422
에도	-8.72458
기를	-8.72473
▁약	-8.72598
인줄	-8.72711
▁외	-8.72917
레이	-8.7305
▁훨씬	-8.73069
▁자기	-8.73256
범	-8.73279
▁알고	-8.73338
▁한다	-8.73344
▁없어	-8.73399
▁누가	-8.73616
▁있었	-8.73617
거지	-8.73637
건가	-8.7373
▁있을	-8.73792
▁보여주는	-8.7423
수준	-8.74262
▁대체	-8.74343
▁적	-8.74378
수가	-8.74471
칠	-8.74531
평	-8.74669
▁높	-8.74703
슬	-8.74744
▁이딴	-8.74849
느	-8.74877
▁주연	-8.74939
권	-8.75024
▁따라	-8.75087
▁경	-8.75136
록	-8.75145
▁열	-8.75153
▁어느	-8.75189
▁너	-8.75252
▁실	-8.7526
>	-8.75359
듯한	-8.75535
▁모습	-8.7554
▁감동이	-8.75567
▁의미	-8.75579
▁배경	-8.75614
보니	-8.75639
쓰레기	-8.75694
▁미친	-8.75765
▁연기를	-8.75832
쓰	-8.75923
▁결말이	-8.75982
▁그나마	-8.76139
▁치	-8.76162
▁발연기	-8.76212
▁재밌음	-8.76308
▁잡	-8.76378
▁변	-8.76621
h	-8.76652
▁그래서	-8.77029
▁좋	-8.77209
▁찾아	-8.7721
▁극	-8.77233
▁눈물이	-8.77286
▁없었다	-8.77394
베	-8.77455
치고	-8.77845
▁천	-8.7793
▁허접	-8.77991
▁안되	-8.78121
▁간	-8.7824
▁꽤	-8.78301
▁여주인공	-8.78629
다는	-8.7869
놈	-8.78752
▁잼	-8.78843
▁로맨스	-8.78874
▁마음	-8.78884
▁재밌고	-8.78941
▁어설픈	-8.78955
▁많	-8.79049
▁재미있	-8.79061
여자	-8.79093
▁가슴이	-8.79186
▁갈수록	-8.79235
왕	-8.79355
▁기억이	-8.7939
▁영상미	-8.79455
막	-8.79456
나요	-8.79509
▁얼굴	-8.79569
▁지루	-8.79629
이지	-8.79668
돌	-8.79768
클	-8.7989
▁메	-8.79895
+	-8.80032
렸	-8.80053
9	-8.80216
짓	-8.80321
▁밖에	-8.80324
▁추	-8.8037
▁웃음	-8.80505
출	-8.80658
▁영화네요	-8.80789
브	-8.80815
플	-8.80887
▁카	-8.80899
허	-8.80983
였음	-8.80984
▁다큐	-8.81001
좋아	-8.81014
맨	-8.81041
향	-8.81272
완전	-8.81275
▁구성	-8.81388
년이	-8.81399
g	-8.81401
▁당	-8.81429
표	-8.81519
라서	-8.81583
나오는	-8.81652
▁주고	-8.81677
▁감동도	-8.8172
이거	-8.81922
었음	-8.81956
였	-8.82108
▁집중	-8.822
▁않다	-8.8225
▁명	-8.8227
▁장난	-8.82535
▁딸	-8.82605
▁같	-8.82622
▁자체	-8.8278
▁ᅮᅮ	-8.82805
▁CG	-8.82853
▁인	-8.82955
▁ᄒ	-8.83453
영화를	-8.83569
법	-8.83622
▁뿐	-8.841
할수	-8.84276
겠	-8.84462
▁아쉽다	-8.84674
놓고	-8.84759
▁영화중	-8.84797
▁얘기	-8.84934
▁다들	-8.8504
▁맘에	-8.85218
▁-	-8.85627
▁영화관에서	-8.85773
"	-8.85914
▁성룡	-8.85969
술	-8.85982
땜에	-8.85989
있고	-8.86038
외	-8.86063
완	-8.86076
▁감	-8.86242
▁상황	-8.86459
▁찍	-8.86486
약	-8.8663
▁노잼	-8.86704
존	-8.86743
y	-8.86756
▁약간	-8.86796
▁올	-8.86835
또	-8.87011
▁손	-8.87143
▁볼만한	-8.87181
▁그러	-8.87363
▁대해	-8.87571
다시	-8.87761
▁담	-8.87808
빈	-8.87809
졌	-8.87895
▁생각보다	-8.87901
▁감동적인	-8.88054
라면	-8.88169
▁전부	-8.88184
느낌	-8.88336
는건	-8.88341
l	-8.88346
▁시즌	-8.88355
▁생	-8.88376
▁관객	-8.88461
추	-8.88528
웃	-8.88657
복	-8.88664
럽	-8.88866
▁30	-8.8891
쉬	-8.89072
이건	-8.89105
▁잔잔한	-8.89129
▁있을까	-8.89173
▁힘	-8.8926
▁악	-8.89312
▁같아요	-8.89595
좋	-8.8969
▁재미없	-8.89793
을때	-8.89813
▁시대	-8.90135
▁그대로	-8.90139
▁진정한	-8.90155
션	-8.90177
이야기	-8.90215
편이	-8.90242
▁쓰레기영화	-8.90275
치는	-8.90362
▁간만에	-8.90643
덕	-8.9069
배우들	-8.90767
할때	-8.90783
기만	-8.90798
커	-8.90834
▁당시	-8.90842
었어요	-8.90904
것이	-8.90917
▁바로	-8.9105
▁아님	-8.91133
▁갈	-8.91183
▁영화였다	-8.91248
각	-8.91256
▁생각을	-8.91289
기가	-8.91302
▁것을	-8.91309
없고	-8.91409
▁나이	-8.91429
했지만	-8.91532
▁평가	-8.91549
▁같은데	-8.91601
빠	-8.91618
▁재미있는	-8.91711
아서	-8.91756
구요	-8.91817
▁오래	-8.9185
낸	-8.91913
▁재미있다	-8.92122
혀	-8.92222
▁뒤	-8.92307
어야	-8.92411
으나	-8.92518
재밋	-8.92641
청	-8.92679
▁잼있	-8.92922
n	-8.93112
▁상당히	-8.93117
▁역사	-8.93119
▁사람들이	-8.93188
▁좋은데	-8.9334
▁재미없음	-8.93429
▁여기	-8.93526
▁배우들이	-8.93528
철	-8.93898
린다	-8.93932
이라도	-8.94116
왔	-8.94253
에선	-8.94258
▁중간에	-8.94333
스러운	-8.94539
▁것도	-8.94608
목	-8.9476
▁감동을	-8.94807
했어요	-8.9488
더니	-8.94946
영화가	-8.95009
▁정도로	-8.95037
▁감성	-8.95088
▁높은	-8.95205
주의	-8.95253
퍼	-8.95306
▁다음	-8.95347
▁판타지	-8.95362
ᄉ	-8.95364
들어	-8.95671
▁재미는	-8.95723
눈	-8.95769
처	-8.96088
▁빠져	-8.96178
▁않았	-8.96226
▁네이버	-8.96278
▁나올	-8.96463
b	-8.96472
▁암	-8.96504
▁준다	-8.96581
▁거의	-8.96608
▁코	-8.96625
▁주제	-8.96712
▁몰	-8.9675
들에게	-8.9678
리고	-8.96822
▁옛날	-8.96842
▁나와서	-8.96846
검	-8.96897
▁훌륭한	-8.96917
됨	-8.96947
▁혼자	-8.97015
에는	-8.97045
▁뭐야	-8.9706
남자	-8.97088
다면	-8.9713
▁이름	-8.97169
진다	-8.97209
▁굉장히	-8.97284
▁친구	-8.97395
▁있지만	-8.97523
▁괜찮	-8.97667
▁스토리는	-8.97684
괴	-8.97748
▁산	-8.97925
익	-8.9806
튼	-8.98172
▁언제	-8.98203
▁먹	-8.98219
싶	-8.98416
▁역	-8.98422
▁나왔	-8.98473
같이	-8.98692
만들	-8.98696
시키	-8.98823
0	-8.98843
념	-8.98844
▁갑자기	-8.9901
▁했는데	-8.9909
아닌	-8.99116
▁싶	-8.9913
▁재미없는	-8.99298
▁비교	-8.99558
▁장면이	-8.99574
으니	-8.99625
▁봤지만	-8.99633
▁영화인데	-8.99702
세요	-8.99874
라니	-8.99943
충	-8.99944
▁소리	-9.00093
▁머리	-9.00115
~!!	-9.00161
▁꿈	-9.00297
▁종	-9.00507
▁장르	-9.00605
▁분	-9.00625
▁새	-9.00632
들도	-9.00641
숙	-9.00827
혜	-9.00827
▁봐서	-9.00852
나오	-9.00872
▁감정	-9.00932
보다는	-9.00951
돼	-9.00964
찍	-9.00996
▁야	-9.0101
▁팬	-9.01024
c	-9.01075
겠지	-9.01251
▁아이들	-9.01395
▁포	-9.01397
모르	-9.01416
견	-9.01549
▁살아	-9.01694
▁뭐지	-9.01765
기대	-9.01804
▁뻔	-9.01805
조차	-9.01863
건데	-9.02006
분들	-9.02028
▁줄거리	-9.02042
▁새로운	-9.02047
▁충격	-9.02222
▁달	-9.02321
거리	-9.02377
▁저런	-9.02447
▁주인공이	-9.02504
없음	-9.02602
▁어디	-9.02603
올	-9.02648
정도로	-9.02699
▁몸	-9.02988
▁어디서	-9.03057
곡	-9.03094
▁볼만	-9.03099
엇	-9.031
쪽	-9.03262
m	-9.03285
욕	-9.03294
▁제작	-9.03331
▁보니	-9.03382
되고	-9.03386
길래	-9.03418
▁원작을	-9.03434
▁재미있어요	-9.03451
겠지만	-9.03451
부분	-9.0347
▁예상	-9.03471
▁몰입	-9.03537
k	-9.03591
▁각본	-9.03697
월	-9.0371
▁부족	-9.03732
▁이영화를	-9.03787
했습니다	-9.03835
끝	-9.03936
편은	-9.04053
필	-9.04075
▁순	-9.04102
것같다	-9.0421
▁버	-9.04224
좋은	-9.04349
지루	-9.04349
근데	-9.04354
짝	-9.04422
▁따	-9.04451
▁극장판	-9.0453
▁첨	-9.04612
▁추억	-9.04614
▁편	-9.04673
한거	-9.04717
줘	-9.04803
재미있	-9.04823
응	-9.04882
봐서	-9.04919
예요	-9.0493
▁크	-9.04958
▁끝나	-9.05052
잖아	-9.05176
동안	-9.05208
햇	-9.05227
하여	-9.0528
▁멜로	-9.05292
▁음	-9.05371
이라면	-9.05446
▁아직	-9.05521
▁낮은	-9.0561
▁목소리	-9.05691
츠	-9.05755
▁실화	-9.05812
▁등	-9.05935
채	-9.05935
족	-9.05939
▁평점을	-9.05981
쯤	-9.06145
광	-9.06159
▁비해	-9.06265
료	-9.06492
▁여배우	-9.06496
합	-9.0656
엿	-9.06603
마지막	-9.06657
▁양	-9.06666
▁90	-9.06698
되어	-9.06958
전개	-9.07
▁뭐가	-9.07021
▁아버지	-9.07036
▁된다	-9.07044
▁가지고	-9.0716
▁생각하게	-9.07229
▁감독님	-9.07707
▁재밌네요	-9.07858
▁봤음	-9.07885
▁방송	-9.07919
▁좋은영화	-9.07969
성이	-9.07989
황	-9.08034
▁방	-9.08074
간다	-9.08167
▁뭐냐	-9.0821
▁대단한	-9.08329
▁개연성	-9.08343
▁계	-9.0859
혹	-9.086
▁그런지	-9.08638
▁만들었	-9.08731
▁ᅳ	-9.08758
▁그러나	-9.08905
버리	-9.08908
▁영화임	-9.08961
▁멋있	-9.09002
마다	-9.09157
▁연출력	-9.09168
▁번	-9.09181
▁누구	-9.09343
▁보여주	-9.09412
련	-9.09414
▁하다	-9.09416
립	-9.09437
▁제가	-9.09575
▁있어서	-9.09585
▁바라	-9.09635
▁포스터	-9.09662
▁항상	-9.10061
잔	-9.10308
▁가는	-9.1031
▁왕	-9.10338
▁자체가	-9.10439
듬	-9.10546
▁사회	-9.10675
▁마음에	-9.10676
▁봐라	-9.10739
▁그리	-9.10752
▁화면	-9.10798
♡	-9.10844
적이고	-9.10923
땐	-9.10942
▁초딩	-9.11063
▁어이없	-9.11167
▁세계	-9.1128
▁꼬	-9.11361
▁흥행	-9.11395
▁존재	-9.11399
찬	-9.11425
u	-9.11427
별로	-9.11474
맞	-9.11481
OO	-9.11509
▁떠	-9.11541
▁의도	-9.11624
▁없어서	-9.11675
▁첫	-9.11756
먼	-9.11864
▁통	-9.11883
셨	-9.11997
▁못하는	-9.12041
▁이런영화	-9.1216
변	-9.12221
써	-9.12279
쿠	-9.12281
▁충분히	-9.12301
품	-9.12328
▁TV	-9.12359
슴	-9.12377
▁일단	-9.12462
▁교훈	-9.12481
해지는	-9.12575
독	-9.12598
▁레	-9.12607
▁말도	-9.12648
나라	-9.12692
지금	-9.12712
시대	-9.12723
▁현	-9.12732
년전	-9.12767
▁처음부터	-9.12975
^	-9.13161
됬	-9.13184
본다	-9.13211
였는데	-9.13248
곤	-9.13474
▁(	-9.13499
보기	-9.13539
▁작	-9.1354
하냐	-9.13594
귀	-9.13649
▁관	-9.13672
대박	-9.13807
▁있었다	-9.13878
▁삼	-9.139
거나	-9.13918
▁있어	-9.14042
▁써	-9.14053
▁책	-9.14107
~~~~	-9.14149
▁숨	-9.14197
시리즈	-9.14228
▁영화도	-9.14321
▁하지	-9.14328
▁성우	-9.14356
▁나와	-9.14417
▁빨리	-9.14502
▁저는	-9.14536
효	-9.14712
했으면	-9.14716
거다	-9.14901
▁비디오	-9.15206
윤	-9.15235
답	-9.15268
▁안된다	-9.15452
▁좋네요	-9.15465
▁궁금	-9.15511
▁질	-9.15559
▁여주	-9.15607
얼	-9.15656
▁이번	-9.15857
도록	-9.15894
▁으	-9.15961
▁더욱	-9.15994
도없고	-9.16022
_	-9.16233
사람들	-9.16312
습	-9.1632
▁잘못	-9.16483
▁점점	-9.16586
▁나온다	-9.16611
▁짜증	-9.16736
하니	-9.16901
▁있는데	-9.16936
▁좋겠다	-9.17193
했고	-9.17217
굿	-9.17524
여서	-9.17599
▁꿀잼	-9.17622
▁너무너무	-9.17622
▁믿	-9.17681
▁부분	-9.17842
같다	-9.17843
▁엄청난	-9.17961
이라니	-9.18067
▁귀	-9.18081
▁댓글	-9.18204
▁감동적이	-9.1821
▁사람은	-9.18233
▁영화라	-9.18274
규	-9.18301
▁끌	-9.18312
처음	-9.18318
내가	-9.18323
지고	-9.18353
거냐	-9.18407
▁윤	-9.1855
▁패	-9.18567
▁시절	-9.18737
▁것은	-9.18821
▁선택	-9.18894
▁문	-9.18962
말이	-9.19042
▁완벽	-9.19057
:	-9.19094
오히려	-9.19268
▁먹먹	-9.19291
주인공	-9.19449
▁봄	-9.19532
만든	-9.1967
▁아쉬운	-9.19744
▁순간	-9.19893
▁터	-9.19904
▁데	-9.19929
▁아닌가	-9.19931
▁낫다	-9.19943
하는게	-9.19974
▁노력	-9.20006
▁무조건	-9.20229
▁이유	-9.20243
아이	-9.2032
▁했다	-9.2045
앗	-9.20467
▁쳐	-9.20539
년도	-9.20707
나서	-9.20787
▁어릴때	-9.20827
▁다시봐도	-9.20887
▁권	-9.20896
▁편집	-9.20897
▁따뜻한	-9.20956
리가	-9.2096
함을	-9.20976
▁힘들	-9.20988
다운	-9.21087
뜨	-9.21116
▁참고	-9.21128
▁저질	-9.21191
였습니다	-9.21234
곳	-9.21256
▁삼류	-9.21396
는것	-9.21553
▁진행	-9.2164
팬	-9.21786
▁한마디로	-9.21838
▁그닥	-9.21851
▁불륜	-9.21871
▁모르는	-9.21946
p	-9.21996
하시	-9.22051
일까	-9.22163
▁돌	-9.22277
웠	-9.22285
▁슬픈	-9.22298
▁괴	-9.22497
▁누	-9.22624
한데	-9.22646
▁사랑을	-9.22706
▁짜	-9.22795
놈들	-9.22905
같	-9.23006
▁살인	-9.23025
▁답답	-9.23128
▁두번	-9.23175
준다	-9.23271
▁물론	-9.23386
▁돈주고	-9.23399
▁훌륭	-9.23487
▁되어	-9.2353
▁연출이	-9.23534
▁아까움	-9.23561
▁s	-9.236
징	-9.23665
▁헐	-9.2377
▁그때	-9.23814
음악	-9.24031
▁벌	-9.24047
▁미화	-9.24093
▁재밌는데	-9.24125
▁예고편	-9.24255
▁재밌었다	-9.24286
풍	-9.24299
걸까	-9.24299
▁감사	-9.24372
하는거	-9.24378
▁지루해	-9.24393
드는	-9.24523
▁결혼	-9.24583
틀	-9.24605
▁없었	-9.24653
오빠	-9.24699
▁도저히	-9.24708
▁절	-9.24736
한영화	-9.24806
십	-9.24819
이냐	-9.24821
▁만점	-9.24984
▁망작	-9.25002
▁흥미진진	-9.25005
많	-9.25046
▁돌아	-9.25055
▁봤네요	-9.25282
▁나의	-9.25321
▁당신	-9.25412
▁만나	-9.25426
▁과거	-9.25434
▁아빠	-9.25514
▁보는데	-9.25599
연출	-9.25626
▁모르고	-9.25686
▁소설	-9.25688
껏	-9.25694
▁금	-9.2572
가서	-9.2574
▁휴	-9.25803
▁예전에	-9.25825
▁읽	-9.2591
▁이미	-9.25913
▁더럽게	-9.26093
▁없네요	-9.26102
삼	-9.2611
▁있음	-9.26346
패	-9.26405
▁감독은	-9.26411
▁완성도	-9.26425
▁후반부	-9.26427
▁말고	-9.2643
보는데	-9.26451
▁설	-9.26516
놓	-9.26531
▁교	-9.26543
▁이것도	-9.26565
▁지나	-9.26643
▁해도	-9.26673
▁작품이	-9.26719
스럽다	-9.26725
▁반전이	-9.26764
▁흠	-9.26817
▁놀	-9.26866
났다	-9.2692
그런	-9.26937
▁유치한	-9.2697
▁ᄍᄍ	-9.26983
▁느끼	-9.27042
▁죽음	-9.27053
▁전개가	-9.27058
▁이영화는	-9.27085
실망	-9.27085
▁만족	-9.27087
▁완벽한	-9.271
함이	-9.27185
▁80	-9.27227
을듯	-9.27255
▁그게	-9.27261
▁자꾸	-9.27319
▁사람들은	-9.27335
▁초반	-9.27375
▁느낄	-9.27441
보세요	-9.27468
것을	-9.27554
명작	-9.27557
▁없을	-9.276
▁만들지	-9.27653
그러	-9.27735
▁늘	-9.27794
▁100	-9.2781
▁끝내	-9.27939
▁까	-9.28236
북	-9.28265
폐	-9.283
염	-9.28335
▁억지로	-9.28508
▁분들	-9.28536
학교	-9.28548
냥	-9.28606
▁생각해	-9.28744
졌다	-9.28749
▁일본영화	-9.28782
▁지금까지	-9.28889
▁없네	-9.28961
그래도	-9.29046
▁아깝	-9.29048
였던	-9.29053
▁복수	-9.29065
▁맛	-9.29072
▁그래픽	-9.29092
▁상상	-9.292
▁19	-9.29208
▁이야기를	-9.29218
▁감상	-9.29232
▁b	-9.29262
▁빠	-9.29321
-_-	-9.29329
▁평점에	-9.29342
▁여성	-9.29479
................	-9.29554
줘야	-9.29575
▁싸	-9.29609
▁인물	-9.29621
▁아쉽	-9.29726
▁쓴	-9.2976
들과	-9.29773
▁낮	-9.29783
▁요	-9.29896
엘	-9.29917
링	-9.2993
려서	-9.29931
▁알았다	-9.29972
▁재밌어	-9.29992
▁원래	-9.30058
많이	-9.30074
▁독	-9.30099
▁수준이	-9.30117
하세요	-9.30142
▁M	-9.30339
강추	-9.30357
ᄀ	-9.30451
x	-9.30468
▁괜히	-9.30469
▁메세지	-9.3047
롭	-9.30591
▁대단	-9.30599
▁성장	-9.30673
▁합니다	-9.30698
▁이정도	-9.30713
▁어린	-9.30733
▁인간의	-9.30824
▁있다는	-9.30861
▁인정	-9.31364
▁슬프	-9.31385
는걸	-9.31388
겟	-9.31403
▁볼수	-9.31417
▁대작	-9.31486
주세요	-9.31503
슈	-9.31539
렌	-9.31552
▁평점은	-9.31676
시켜	-9.31709
어도	-9.31767
년에	-9.31877
▁느끼게	-9.31908
휴	-9.31939
령	-9.31952
▁알게	-9.31999
누	-9.32007
▁아들	-9.32011
싱	-9.32097
푸	-9.32098
킹	-9.32099
▁깨	-9.32153
속에	-9.32212
v	-9.32381
봐라	-9.32575
축	-9.32635
▁부족한	-9.32671
▁내인생	-9.32737
▁세상	-9.32839
▁나라	-9.32939
▁모습이	-9.32994
▁힘든	-9.33054
▁설명	-9.33091
탈	-9.33161
노잼	-9.33166
▁SF	-9.33205
보다가	-9.33205
▁웃긴	-9.33271
▁프로	-9.33278
▁신기	-9.33301
만으로도	-9.33416
▁봐	-9.3344
▁믿고	-9.33489
▁태	-9.33506
리스	-9.33556
▁무서운	-9.33566
▁키	-9.33593
인간	-9.336
▁해서	-9.33638
▁프랑스	-9.33687
몰	-9.33736
▁처음으로	-9.33767
▁우연히	-9.3378
▁전형적인	-9.33786
▁뭔지	-9.33937
▁영화보다	-9.34005
이에요	-9.34043
좋다	-9.34073
쩌	-9.34299
꼬	-9.34344
▁집	-9.34419
▁황	-9.34449
있는데	-9.34516
▁귀신	-9.34573
▁코메디	-9.34659
▁상영	-9.34695
▁대한민국	-9.34721
O	-9.34806
힌	-9.34877
▁이러	-9.35033
했을	-9.35238
▁이상한	-9.35243
▁온	-9.35292
▁개그	-9.35313
에요	-9.35445
하던	-9.3549
더군요	-9.35629
점짜리	-9.35829
▁재미없어	-9.35886
결말	-9.35962
샤	-9.3601
갑	-9.36032
야지	-9.36063
뒤	-9.36111
▁실제	-9.36159
▁기대하고	-9.36178
%	-9.36224
▁어쩌	-9.36257
▁이리	-9.363
▁디	-9.36348
▁나쁜	-9.36374
▁유치하고	-9.36495
▁병맛	-9.36498
=	-9.36581
X	-9.36581
자들	-9.36627
런	-9.36628
▁골	-9.36659
▁진실	-9.36672
에겐	-9.36687
▁임	-9.36755
시절	-9.36773
해주는	-9.36943
겁	-9.37054
탁	-9.37155
렸다	-9.37195
벌	-9.37276
맛	-9.3729
애니	-9.373
홍	-9.37318
▁속편	-9.37329
최악	-9.37337
▁않음	-9.37385
▁받	-9.37413
▁불편	-9.37534
▁형	-9.37546
픈	-9.37558
▁노출	-9.37613
재미없	-9.37678
▁정치	-9.37714
▁액션도	-9.37722
자가	-9.3775
영화다	-9.378
▁관계	-9.37832
▁알았는데	-9.37838
f	-9.37841
▁않을	-9.37852
▁해준	-9.37877
전에	-9.37903
▁돈이	-9.37942
로운	-9.38004
으며	-9.38152
▁느	-9.38158
▁이것	-9.38181
▁요소	-9.38212
▁좀비	-9.38212
▁했	-9.38223
▁ost	-9.38268
▁이후	-9.38432
▁앞	-9.38512
최고의	-9.38593
무슨	-9.38656
▁여운	-9.38664
추천	-9.38717
네여	-9.38842
려는	-9.38868
인거	-9.38932
갔	-9.39075
▁바람	-9.39159
▁가치	-9.39175
r	-9.3925
으면서	-9.39369
역시	-9.39373
▁천재	-9.39439
▁이런걸	-9.39462
▁청춘	-9.39494
▁배우가	-9.3958
▁어렸을때	-9.39635
▁지금도	-9.39647
▁중간	-9.39684
마저	-9.3984
▁싶어	-9.39848
▁마무리	-9.39851
었으면	-9.39878
▁서로	-9.39904
▁슬	-9.39915
▁안나오	-9.40036
끔	-9.40036
@	-9.40065
땅	-9.4008
잉	-9.4008
▁비슷한	-9.40197
▁앞으로	-9.40265
을텐데	-9.40283
싸	-9.40327
▁진부한	-9.40328
▁왜이리	-9.40339
▁아이들이	-9.40351
▁ᄒᄒᄒ	-9.40357
▁그래	-9.40477
▁사랑이	-9.40524
한다는	-9.40553
일이	-9.40618
콩	-9.40669
것이다	-9.40677
▁tv	-9.40722
언니	-9.40802
▁재미있고	-9.40815
셔	-9.40831
이게	-9.40876
▁인상	-9.4118
▁둘	-9.41216
▁질질	-9.41227
웃음	-9.41248
인이	-9.41267
▁명작이다	-9.41291
▁좋았어요	-9.41334
▁듯한	-9.41366
▁유머	-9.41394
고싶다	-9.41503
로서	-9.41672
▁흥미	-9.41715
▁만들었다	-9.41756
한건	-9.41781
▁졸라	-9.4179
앙	-9.4185
▁대단하다	-9.41859
▁좋음	-9.41875
▁그렇고	-9.41877
▁아무것도	-9.41913
▁어찌	-9.41922
▁현재	-9.41934
▁티	-9.41938
▁스타일	-9.42025
▁작품성	-9.42048
▁처	-9.42112
봉	-9.42117
▁알아	-9.4212
▁관람	-9.42168
▁또한	-9.42173
하겠	-9.42194
책	-9.42252
되지	-9.42262
봐야	-9.42284
▁똑같	-9.42295
▁이런거	-9.42314
낮	-9.42322
▁특유의	-9.42332
▁화려한	-9.42484
▁삶을	-9.42529
▁지난	-9.42573
▁밀	-9.42612
▁액션영화	-9.4264
▁아니지만	-9.42712
▁시청률	-9.42717
작가	-9.42729
▁것이다	-9.42851
끈	-9.42904
버렸다	-9.4292
하긴	-9.42938
눈물	-9.43013
보면서	-9.43062
▁바보	-9.43092
이면	-9.43096
▁우울	-9.43303
▁비추	-9.43305
▁알았	-9.43331
든다	-9.4334
▁않아	-9.43357
▁장면은	-9.43455
▁티비	-9.43469
딱	-9.43523
▁아닐까	-9.43643
▁병	-9.43735
것은	-9.43744
하자	-9.43779
시고	-9.43894
한번	-9.44093
특히	-9.44109
▁킬링타임용	-9.44148
팔	-9.44195
▁떠나	-9.44225
확	-9.4423
▁좋았고	-9.44289
▁범죄	-9.44292
▁겁나	-9.4434
억	-9.44457
▁황당	-9.44531
▁투	-9.44545
▁웃겨	-9.44584
시간이	-9.44586
와서	-9.44643
▁한계	-9.44673
이렇게	-9.44677
꼭	-9.44851
▁드	-9.44925
육	-9.44932
ᄌ	-9.44944
닥	-9.44986
랄	-9.45033
▁트	-9.45274
▁전작	-9.45381
했는지	-9.45398
버리고	-9.45404
졸	-9.45447
▁어색	-9.45452
찰	-9.45483
손	-9.45502
▁만드	-9.45522
모습	-9.45563
깔	-9.45568
&	-9.45569
E	-9.4557
텐데	-9.45612
던지	-9.45619
--	-9.45622
순간	-9.45655
수록	-9.45678
▁생각한다	-9.45768
▁출	-9.4579
▁보이는	-9.45897
▁수가	-9.45897
▁광	-9.45923
▁맥	-9.45986
놓은	-9.46046
▁보여	-9.46074
방송	-9.46165
웅	-9.4617
센	-9.46186
▁재미없고	-9.46198
▁분명	-9.46219
▁싫어	-9.46249
▁관심	-9.46272
들아	-9.4633
▁멋	-9.46473
▁허접한	-9.46478
▁남주	-9.46502
▁브	-9.46534
▁자유	-9.46544
▁왠지	-9.46564
에서는	-9.46621
▁않았다	-9.46635
아깝다	-9.46712
▁복	-9.46746
량	-9.46802
풀	-9.46811
▁귀여운	-9.46835
▁먼저	-9.46864
▁신선	-9.46891
▁좋았습니다	-9.46894
▁아오	-9.46945
▁같습니다	-9.4695
▁화이팅	-9.46957
▁게임	-9.4702
▁시간낭비	-9.47026
▁이어	-9.47109
▁별루	-9.47161
▁그런데	-9.47256
탕	-9.47441
수도	-9.47492
000	-9.47565
없어	-9.47571
▁너무나도	-9.47579
▁근	-9.47645
▁저도	-9.47685
겠네	-9.47701
받	-9.47783
▁같네요	-9.47787
????	-9.47804
▁민	-9.47884
분이	-9.47921
▁보고싶	-9.47967
▁그녀	-9.4804
면서도	-9.48054
밀	-9.48077
ᅲᅲᅲ	-9.48141
▁행동	-9.48146
▁캐	-9.48147
▁군대	-9.48217
가족	-9.48234
스런	-9.48257
▁다소	-9.48409
점준다	-9.48549
좋았	-9.4855
▁확	-9.48555
▁최악이다	-9.48648
▁사건	-9.48686
▁빠지	-9.48719
엄	-9.48735
F	-9.48749
성을	-9.4877
됐	-9.48813
C	-9.48814
드리	-9.48828
▁좋아하	-9.48894
▁잘봤습니다	-9.4909
▁대충	-9.49318
▁표정	-9.49328
▁성인	-9.4936
뿌	-9.49403
▁보이	-9.4941
▁못하고	-9.49436
▁영화였습니다	-9.49486
반전	-9.4962
▁전달	-9.49652
었지만	-9.49681
▁맞는	-9.49744
▁눈이	-9.49867
▁돌려	-9.4991
▁마치	-9.49923
주고	-9.49975
감이	-9.49997
춘	-9.50043
몬	-9.50057
▁모르겠	-9.50096
▁중에	-9.50139
▁상상력	-9.50194
▁모습을	-9.50282
거임	-9.50314
▁보여준	-9.50362
~^^	-9.50413
▁극장	-9.50594
득	-9.50661
풋	-9.50715
▁확실히	-9.50754
▁통해	-9.50788
영환	-9.50833
둘	-9.50885
헤	-9.50956
▁하면	-9.51024
▁본다	-9.51031
시는	-9.51055
묘	-9.5122
▁어이없는	-9.51253
빨	-9.5132
▁세상에	-9.51336
▁느껴	-9.51348
한듯	-9.51372
떡	-9.51377
▁전체적으로	-9.51398
▁죽는	-9.514
▁짜증나	-9.51401
었습니다	-9.5142
▁좋았는데	-9.51476
▁안보	-9.51497
▁경찰	-9.51508
▁액션이	-9.51513
▁마음을	-9.5156
*	-9.5156
ᅲᅲᅲᅲ	-9.51586
사람이	-9.51621
▁나만	-9.5164
먹는	-9.51719
알바	-9.51731
▁사이	-9.51739
▁스토리에	-9.51819
▁삶	-9.51857
친구	-9.51947
▁자신	-9.51957
▁아까워	-9.52035
▁답	-9.52082
▁성공	-9.52152
w	-9.52266
활	-9.52269
▁잘만든	-9.52319
▁어색한	-9.52334
▁이젠	-9.52367
▁떨어지는	-9.52394
▁목	-9.52436
지않는	-9.52472
거같다	-9.52522
엉	-9.52619
▁C	-9.52645
▁주인공들	-9.52662
덤	-9.52715
▁나에게	-9.5275
▁현대	-9.52773
있네	-9.52794
▁재밌었어요	-9.52816
▁보고나서	-9.52824
▁놓	-9.52889
갔다	-9.52981
▁이쁘	-9.53013
▁갖	-9.53038
▁촬영	-9.53093
재밌게	-9.53164
다른	-9.53177
▁붙	-9.53227
하려는	-9.53296
▁그런가	-9.53334
▁느낀	-9.53396
▁허무	-9.534
▁미소	-9.53433
▁예전	-9.53527
오는	-9.53537
▁싫	-9.53564
▁해주는	-9.53568
송	-9.53587
▁취	-9.53626
영상	-9.53791
먹고	-9.53869
봣	-9.53889
▁이런게	-9.5389
▁독립영화	-9.53906
▁소재는	-9.53936
마음	-9.53991
롱	-9.54071
▁됐	-9.54106
▁밑에	-9.54112
▁역시나	-9.54122
▁무엇보다	-9.5417
스터	-9.54183
▁특	-9.54231
▁OST	-9.54234
이며	-9.54253
▁내용을	-9.54282
였어요	-9.54382
▁이야기가	-9.54466
▁한편	-9.54647
▁유쾌한	-9.54648
항	-9.54752
벨	-9.54755
▁섹시	-9.54759
▁감탄	-9.54806
▁눈을	-9.54814
있어	-9.54868
▁심리	-9.5492
유치	-9.54954
▁식상	-9.54981
페	-9.54996
많은	-9.54997
▁저예산	-9.55016
▁평론가	-9.55051
▁스토리와	-9.55094
▁급	-9.55103
;;;;	-9.55153
최	-9.55187
던가	-9.55198
▁그랬	-9.55214
버렸	-9.55256
▁멀	-9.55338
보이	-9.55395
릭	-9.55408
턴	-9.55435
▁글쎄	-9.55449
▁국	-9.55533
에서도	-9.55541
했어	-9.55542
놀	-9.55561
▁아놔	-9.55577
▁엉성	-9.55798
▁기분이	-9.55822
끄	-9.55847
ᄒᄒᄒ	-9.55895
이제	-9.56
스타	-9.56012
▁미안	-9.56025
▁부분이	-9.56126
소재	-9.56166
▁영웅	-9.56167
▁조폭	-9.56179
▁처음이다	-9.56212
걸로	-9.56249
▁영화에서	-9.56253
▁제작비	-9.56259
▁중반	-9.56274
▁지루하지	-9.5629
▁왜이렇게	-9.56327
급영화	-9.56365
▁시도	-9.56369
▁있나	-9.56372
▁아닌데	-9.56435
▁드라마를	-9.56437
▁매력이	-9.56477
▁ᄉᄇ	-9.56502
드라	-9.56517
▁m	-9.56537
취	-9.56566
▁여자가	-9.56607
▁귀엽고	-9.56616
▁사랑하는	-9.56724
▁놀라	-9.56789
▁<	-9.56815
▁여자들	-9.56822
홀	-9.56839
새끼	-9.56902
▁A	-9.56902
찌	-9.57258
▁갑	-9.57265
▁끝나고	-9.57271
▁순수한	-9.57272
셈	-9.5728
쩔	-9.57289
흐	-9.57297
▁취향	-9.57319
더라구요	-9.57323
▁훨	-9.57327
▁일상	-9.57396
▁찍어	-9.57396
▁연기력이	-9.57424
높	-9.57458
만으로	-9.5746
▁딴	-9.57521
▁예쁜	-9.57551
▁리얼	-9.5756
▁영화중에	-9.57617
▁지금봐도	-9.57701
▁감사합니다	-9.57734
▁카메라	-9.57745
▁좋았	-9.57846
▁자신의	-9.5785
▁화가	-9.57878
▁맨	-9.5788
▁있었던	-9.57941
▁명작이	-9.57951
▁현실성	-9.57977
짜리	-9.58008
▁찍은	-9.58011
▁캐릭터들	-9.58086
▁생각나	-9.58223
▁깊은	-9.58253
▁저렇게	-9.58253
▁연애	-9.58365
▁고민	-9.58402
르는	-9.58489
때마다	-9.58494
▁보지마세요	-9.58601
▁평범한	-9.58786
쇼	-9.58798
코미디	-9.58799
▁전에	-9.58802
▁낭비	-9.58824
▁가진	-9.58889
멋	-9.58893
▁cg	-9.58901
▁프로그램	-9.58923
▁나를	-9.58943
궁	-9.5896
▁ᄏᄏᄏᄏᄏ	-9.59061
▁좋았음	-9.5913
▁빼	-9.59154
▁독특한	-9.59374
▁볼때마다	-9.59441
나온	-9.59442
▁하는데	-9.59523
빵	-9.59545
깨	-9.59558
흘	-9.59626
▁미래	-9.59674
▁여전히	-9.59718
▁봤었는데	-9.59757
돌아	-9.59758
▁슬픔	-9.59793
내는	-9.5984
▁역대	-9.59901
▁동화	-9.59906
▁아니면	-9.59994
▁이하	-9.60032
▁아저씨	-9.60034
딴	-9.60043
제목	-9.60055
▁친	-9.60248
욱	-9.60248
까진	-9.60262
골	-9.60272
겹	-9.60316
딸	-9.60317
▁사람을	-9.60341
껄	-9.60411
하라	-9.60425
▁전편	-9.60444
▁좋을	-9.60448
▁범인	-9.60449
▁이영화가	-9.60469
▁지루하	-9.60546
▁추천합니다	-9.60577
▁언	-9.60627
▁시선	-9.60672
▁신선한	-9.60698
▁마라	-9.6081
지마	-9.60853
만화	-9.60919
보게	-9.60921
▁역할	-9.60975
▁애들이	-9.61004
씩	-9.61024
▁필요한	-9.61039
▁드는	-9.61041
▁소재를	-9.61065
A	-9.61077
▁스케일	-9.61147
▁스토리를	-9.61148
▁아름답고	-9.61159
▁어릴적	-9.61202
▁그림	-9.61222
▁팔	-9.61291
▁제작진	-9.61325
▁호러	-9.61338
▁뒷	-9.61364
재미없다	-9.61467
▁감동적이고	-9.61532
▁각	-9.61562
나올	-9.61631
▁자연	-9.61707
▁드라마가	-9.61754
▁보기엔	-9.618
▁진정	-9.61801
▁리메이크	-9.61819
총	-9.61851
널	-9.61859
▁리뷰	-9.61881
▁악역	-9.61933
▁있지	-9.62181
일뿐	-9.62285
받은	-9.62294
하다니	-9.62341
되서	-9.62345
혼	-9.62357
킬	-9.62372
듣	-9.62379
▁그들의	-9.62421
▁해주	-9.62434
따라	-9.62562
있게	-9.62574
암	-9.62584
T	-9.62612
쏘	-9.62613
프로	-9.62613
▁이유가	-9.6262
."	-9.62622
▁살짝	-9.62657
인것	-9.62673
테러	-9.62813
▁있다면	-9.62828
▁등장	-9.62839
▁연기에	-9.62855
▁단순	-9.62892
▁후반	-9.62944
시키는	-9.62971
,,,,	-9.63042
▁되었	-9.63061
기엔	-9.63097
▁평생	-9.63146
따위	-9.63164
한국	-9.63188
ᄆ	-9.63363
▁중간중간	-9.63363
▁느껴지는	-9.63385
▁종교	-9.63408
B	-9.6341
받고	-9.63423
S	-9.63431
더만	-9.63481
것만	-9.63609
▁젤	-9.63637
▁연기와	-9.63663
▁안되고	-9.63738
것들	-9.63765
하는지	-9.63776
나고	-9.63997
▁올라	-9.64032
▁꼴	-9.64039
▁벗	-9.6405
감독이	-9.64064
▁로맨틱	-9.64074
▁아름답다	-9.64138
하면서도	-9.64154
▁어린이	-9.64158
▁과연	-9.642
무섭	-9.64224
▁게이	-9.6423
▁영화관	-9.64288
▁매력적인	-9.64344
▁알바들	-9.64354
▁티비에서	-9.64371
내요	-9.64385
▁보지마	-9.64407
쳤	-9.64429
킨	-9.64438
▁든다	-9.64509
어지는	-9.64516
머리	-9.64682
▁달리	-9.64686
20	-9.64779
▁회	-9.64796
좋아요	-9.64814
▁깊이	-9.64916
진심	-9.64929
끌	-9.64952
▁드러	-9.64995
▁보고싶다	-9.65005
▁기대를	-9.65083
만들어	-9.65114
▁15	-9.65246
자체	-9.65405
▁폭력	-9.65421
▁나중에	-9.65442
인생	-9.65451
▁긴	-9.65455
▁오버	-9.65464
▁잼없	-9.65501
늘	-9.65512
▁중요한	-9.65589
▁참신	-9.65635
갓	-9.65636
안되	-9.65643
▁희생	-9.65647
▁설레	-9.65832
▁넣	-9.65839
끝나	-9.65858
되네요	-9.65869
한다면	-9.65919
▁용서	-9.65921
~~~~~	-9.65973
▁미치	-9.66005
▁고전	-9.66078
▁여러	-9.66138
왔다	-9.66145
ᄍᄍ	-9.66206
▁안하고	-9.66282
▁뮤지컬	-9.66301
아주	-9.66329
틴	-9.66335
▁흘러	-9.66348
▁굳이	-9.66357
▁받아	-9.66384
▁표	-9.66395
폰	-9.66405
▁압권	-9.66406
▁음악이	-9.66412
▁만들어진	-9.6643
▁없지만	-9.66483
영화중	-9.66538
▁보는게	-9.66566
M	-9.66591
줌	-9.66623
현실적	-9.66715
▁의심	-9.66721
시킨	-9.66849
▁개판	-9.67006
지마라	-9.67008
▁그의	-9.67032
▁용	-9.67035
▁아는	-9.67042
협	-9.67117
없네	-9.67174
▁묘사	-9.67192
말고	-9.67196
▁가지	-9.67272
할듯	-9.67304
▁재밌었는데	-9.6735
▁결과	-9.67404
▁무섭	-9.67417
▁슬프다	-9.67424
▁식	-9.67466
▁영화보고	-9.67495
▁짜증나는	-9.67496
▁울었	-9.67522
버려	-9.67539
▁빛	-9.67579
▁홍	-9.67602
▁해야	-9.67666
▁남기	-9.67721
▁느끼는	-9.67758
▁소름	-9.67892
뛰	-9.67943
ᄃᄃ	-9.67949
▁이연걸	-9.67964
▁불쾌	-9.67993
▁낫	-9.68006
▁괴물	-9.68075
▁포장	-9.68139
누나	-9.68142
▁재밌었	-9.68146
▁같음	-9.68241
▁-_-	-9.68269
or	-9.68278
▁먼	-9.68424
▁입니다	-9.68429
ᄃᄃᄃ	-9.6844
▁하루	-9.68501
▁포기	-9.68513
▁싫다	-9.68568
▁능력	-9.6861
▁나오고	-9.68611
ᄂ	-9.68737
팅	-9.68742
(?)	-9.68751
99	-9.68752
▁진심으로	-9.68759
▁시원	-9.68795
▁반성	-9.68799
하는것	-9.68812
▁자막	-9.68872
▁끝난	-9.68888
▁사극	-9.68947
▁언제나	-9.68977
▁처음엔	-9.68992
▁빨	-9.68999
▁같아	-9.69037
▁아쉬움	-9.69043
▁말로	-9.69063
▁다행	-9.69097
▁넘어	-9.69148
있었	-9.69179
▁죄	-9.6923
세계	-9.69269
▁다르	-9.69304
▁잔인하	-9.69349
험	-9.69416
니깐	-9.69451
굴	-9.69526
것같	-9.69534
▁분노	-9.69641
▁그렇다	-9.69699
▁초반에	-9.69706
옥	-9.69757
▁나서	-9.69847
▁메시지	-9.69854
▁만든다	-9.69921
▁생각합니다	-9.69941
표현	-9.69964
이었	-9.70171
아님	-9.7018
▁적당	-9.70202
꼽	-9.70315
낼	-9.70343
댄	-9.70343
▁생각나는	-9.70389
▁나왔으면	-9.70423
▁우정	-9.70463
▁고생	-9.70525
▁재밌습니다	-9.70569
갑니다	-9.70581
쁘	-9.7066
▁액션은	-9.70669
▁했지만	-9.70728
▁홍콩	-9.70795
▁춤	-9.7082
년전에	-9.7092
속에서	-9.7095
▁보시길	-9.70977
▁아닌듯	-9.70993
▁짠	-9.71002
ᄃ	-9.71026
재밌어요	-9.71034
나와	-9.7107
ᄏᄏᄏᄏᄏ	-9.71113
▁칼	-9.71252
▁배우의	-9.7129
▁스타	-9.71344
er	-9.71466
▁지루할	-9.71528
느라	-9.71565
▁남는다	-9.71579
▁공감이	-9.71617
▁나가	-9.71706
ᄏᄏᄏᄏᄏᄏᄏᄏᄏᄏᄏᄏᄏᄏᄏᄏ	-9.71773
▁열정	-9.71774
쾌	-9.71803
▁소녀	-9.71898
▁접	-9.71922
줬	-9.71937
▁맘	-9.71947
틈	-9.71962
▁봤으면	-9.71962
하려고	-9.71985
▁표절	-9.71987
보고싶	-9.72002
▁볼수록	-9.72067
▁이건뭐	-9.72137
▁몸매	-9.72176
시간에	-9.7218
▁동물	-9.72265
▁좋았던	-9.72278
▁인기	-9.72294
▁얼	-9.72323
▁몰입감	-9.72344
▁굳	-9.72366
▁올리	-9.72378
점주는	-9.72436
▁유쾌	-9.72468
▁송	-9.72476
▁사는	-9.72593
▁해피엔딩	-9.72596
잼있	-9.72636
번째	-9.7271
▁볼거리	-9.72779
스가	-9.72803
▁북한	-9.72815
▁G	-9.72854
▁덜	-9.7287
▁소재가	-9.72872
▁봐야할	-9.72902
▁허술	-9.72914
▁못했다	-9.72956
▁추억의	-9.73042
함과	-9.7307
형제	-9.73189
▁필	-9.73198
젠	-9.73205
죄	-9.73267
▁더이상	-9.73267
▁몰입이	-9.73359
▁이유는	-9.7342
했다는	-9.73421
▁법	-9.7352
▁쉽게	-9.73621
져서	-9.73644
가지고	-9.73675
정이	-9.73808
▁동생	-9.7384
대사	-9.73891
했나	-9.73898
할까	-9.73924
▁있게	-9.73983
▁죽여	-9.73985
짜증	-9.73989
▁재미를	-9.73993
▁다큐멘터리	-9.74017
▁감동과	-9.74101
뜻	-9.74138
▁w	-9.74164
사가	-9.74277
▁기본	-9.74343
▁젊은	-9.74364
율	-9.7437
▁채널	-9.74397
▁I	-9.74408
컨	-9.74442
▁열심히	-9.74442
▁힐링	-9.74442
▁통쾌	-9.74454
▁상처	-9.74488
으론	-9.74547
▁짓	-9.74572
보지	-9.74589
▁필요없는	-9.74651
▁이정도면	-9.7467
▁난다	-9.74754
는건지	-9.74762
르고	-9.74809
한것	-9.74834
였지만	-9.74887
첨	-9.74951
▁빈	-9.74965
▁아마	-9.74979
캐릭터	-9.75041
웃기	-9.75058
웠다	-9.75092
했네	-9.75097
안에	-9.75192
▁보고싶은	-9.75208
퇴	-9.75232
▁잼있게	-9.75235
▁엉성한	-9.75248
▁잔인한	-9.75257
힐	-9.75282
▁눈빛	-9.75301
▁흐	-9.75303
▁죽어	-9.75342
▁퀄리티	-9.75366
▁희망	-9.7542
▁홍보	-9.75424
▁흐름	-9.75503
▁무지	-9.75513
▁그걸	-9.7553
빡	-9.75644
▁페	-9.75648
▁재미있음	-9.75727
▁폭	-9.75733
로써	-9.75765
▁몰라도	-9.75791
▁어쩔	-9.75879
넣	-9.75908
▁주인공의	-9.75948
▁영화지만	-9.76028
자리	-9.76037
씨가	-9.76055
▁크게	-9.7608
▁긴장	-9.76105
▁그럭저럭	-9.7613
▁쓰래기	-9.7613
나와서	-9.76144
▁둘다	-9.76151
람	-9.76163
감을	-9.76286
▁봤다가	-9.76361
▁별로다	-9.7647
▁꺼	-9.7647
한게	-9.76489
an	-9.7652
▁재밋게	-9.76576
▁믿을	-9.76579
▁+	-9.76704
딩	-9.76756
▁우리가	-9.76776
으로서	-9.76794
▁늘어	-9.76859
해준	-9.76881
▁12	-9.76913
▁느꼈	-9.76947
ᅡ	-9.76984
팀	-9.76984
팍	-9.76984
▁돌아가	-9.77009
▁최근	-9.77014
▁찡	-9.77116
막장	-9.77217
▁라는	-9.77234
▁70	-9.77265
▁가서	-9.77352
▁남아	-9.77422
아깝	-9.77442
▁유치하다	-9.77483
했으나	-9.77486
▁알려	-9.77581
▁함	-9.77666
▁안됨	-9.77699
택	-9.77772
엄마	-9.77775
▁아깝지	-9.77817
사이	-9.77936
▁필요없다	-9.77975
기분	-9.77988
▁많다	-9.78043
▁가능	-9.78104
애들	-9.78129
OOO	-9.78225
찾	-9.78239
200	-9.78273
었고	-9.7832
▁무섭다	-9.78426
▁돋보	-9.7843
▁풀어	-9.78445
▁올해	-9.78448
이해	-9.78463
▁반전도	-9.78484
얘	-9.78522
하지도	-9.78558
▁철	-9.78565
in	-9.78658
붕	-9.78716
포인트	-9.78721
스러웠	-9.78723
▁시사회	-9.7875
▁아픔	-9.78752
관계	-9.78896
▁지구	-9.79003
▁아련	-9.79049
▁삶의	-9.79098
스의	-9.79118
▁발전	-9.79239
공포	-9.79291
▁되었다	-9.79364
▁높다	-9.7937
▁한국인	-9.79395
재밌다	-9.79418
▁그럼	-9.79424
놔	-9.79427
re	-9.79457
력이	-9.79502
일본	-9.79572
콜	-9.79585
섬	-9.79592
뢰	-9.79593
▁연예인	-9.79594
▁어머니	-9.79629
▁다만	-9.79674
▁그다지	-9.79708
▁다시한번	-9.79713
▁했던	-9.79909
▁끄	-9.79963
하는건	-9.79966
▁쫌	-9.79969
▁재미없네	-9.79991
▁어제	-9.80193
랜	-9.80284
하구	-9.80367
흑	-9.80445
뽕	-9.80478
컷	-9.80478
스릴러	-9.80502
상을	-9.80549
▁제목이	-9.80565
▁생애	-9.80569
집니다	-9.80576
▁헤	-9.8058
내용이	-9.80603
▁느와르	-9.80608
▁팬이	-9.80703
▁그려	-9.80721
▁볼만함	-9.8074
▁정서	-9.80757
▁남을	-9.80876
현실	-9.81031
▁청	-9.81103
오브	-9.8115
▁보았	-9.81157
▁빌	-9.81171
었어	-9.81255
▁엉망	-9.81286
▁나왔다	-9.81291
캐	-9.81307
▁시시	-9.81312
자는	-9.81352
접	-9.81357
씹	-9.81371
▁로그인	-9.81371
▁펑펑	-9.81376
줄이야	-9.81397
▁방금	-9.81424
▁뜨	-9.81537
▁재밌네	-9.81546
▁슬프고	-9.8155
얘기	-9.81552
자체가	-9.81603
▁없나	-9.81615
▁유치함	-9.81708
▁점수를	-9.81758
▁음악도	-9.81779
▁실패	-9.81856
맞추	-9.81898
▁차이	-9.819
▁많았	-9.81903
▁좋아서	-9.81912
on	-9.81962
▁사랑에	-9.82034
세기	-9.8215
압	-9.82231
폭	-9.82236
▁끊	-9.82248
점준	-9.8225
▁촌	-9.82269
명이	-9.82319
연기가	-9.82335
같음	-9.82549
수있는	-9.82729
거같	-9.82754
▁몇번을	-9.82777
닌	-9.828
▁탄탄한	-9.82828
▁빌려	-9.82911
▁썩	-9.82956
원작	-9.82969
사회	-9.83004
타임	-9.83035
st	-9.83036
▁국민	-9.83042
▁에로	-9.83074
▁드라마는	-9.83075
릿	-9.83166
`	-9.83181
R	-9.83181
▁어려운	-9.83181
▁스스로	-9.83184
▁가끔	-9.8324
▁연결	-9.83257
▁질리지	-9.83302
겼	-9.83321
▁ᅮ	-9.83323
▁끝나는	-9.83383
▁만들고	-9.83392
▁웃기고	-9.83429
▁평범	-9.83468
▁어이가	-9.83486
▁볼만하	-9.83493
되면	-9.83574
나옴	-9.83632
님의	-9.83646
▁여기서	-9.8369
▁틀	-9.83717
▁순수	-9.83781
지않은	-9.83907
떨	-9.83908
▁죽이	-9.83983
하더라	-9.84031
룡	-9.84038
j	-9.84098
▁아름다움	-9.84098
▁나머지	-9.84106
연기도	-9.84111
▁흔한	-9.84122
좋고	-9.84157
▁그린	-9.84167
▁짱짱	-9.84237
맘	-9.84254
떠	-9.84258
▁영국	-9.84264
▁월	-9.8429
흔	-9.84339
▁볼만하다	-9.84391
▁ᄃᄃ	-9.84484
▁우주	-9.84499
스타일	-9.84544
▁의문	-9.84615
▁산으로	-9.84647
▁광고	-9.84749
▁느낄수	-9.84749
정신	-9.84758
▁살아있	-9.84764
▁되지	-9.84796
좋아하는	-9.84877
▁영화에요	-9.84878
학생	-9.8491
평점이	-9.84944
무비	-9.84948
▁느낌을	-9.84971
▁뭐라	-9.85021
N	-9.85023
벤	-9.85024
▁디즈니	-9.85024
▁비주얼	-9.85024
▁뭉클	-9.85025
▁탈	-9.85054
볼만	-9.85079
▁지켜	-9.85102
라지만	-9.85119
▁사랑스러운	-9.85145
구성	-9.85148
▁말할	-9.85155
영화라고	-9.8518
▁c	-9.85194
한다고	-9.85198
▁영화이다	-9.85204
착	-9.85209
▁아직까지	-9.85249
▁찌	-9.85259
보는내내	-9.8526
세상	-9.85286
▁얻	-9.85355
거라	-9.85364
▁현실적이	-9.85387
▁풍	-9.85387
▁딱히	-9.85429
▁안돼	-9.85472
▁나은	-9.85502
▁그것	-9.85517
▁보니까	-9.85526
▁인도	-9.85544
▁불쌍	-9.856
▁무서워	-9.85612
▁멋지다	-9.85639
짧	-9.85672
▁쓸	-9.85687
▁인간이	-9.85741
오글	-9.85767
▁끌어	-9.85804
그리	-9.85844
▁사람의	-9.85852
▁봤었	-9.85867
▁무시	-9.85869
▁돋	-9.85891
▁유명	-9.85905
ar	-9.85907
▁알겠	-9.85921
값	-9.85946
떄	-9.85959
▁밋밋	-9.85959
▁견자단	-9.85959
▁싸구려	-9.85959
혈	-9.85959
▁마세요	-9.86082
▁잊	-9.86084
▁들었	-9.86095
대는	-9.86102
괜찮	-9.86102
▁뇌	-9.86103
▁인생을	-9.86113
답답	-9.86133
아까움	-9.86231
▁채	-9.86265
나가는	-9.86273
려면	-9.86277
▁킬링타임용으로	-9.86283
♥♥	-9.86334
▁전문가	-9.86354
▁소재로	-9.86371
▁심장	-9.86422
▁사랑과	-9.86488
편보다	-9.86563
▁어렸을	-9.86584
티비	-9.86591
내고	-9.86645
▁누구나	-9.86719
▁하면서	-9.86793
올리	-9.86818
솔	-9.869
멘	-9.86902
▁불구하고	-9.86904
▁무언가	-9.86904
▁섹스	-9.86908
▁하게	-9.86919
스러워	-9.86925
▁안타깝다	-9.8693
▁밥	-9.8703
▁자극	-9.87107
▁단지	-9.87194
받는	-9.87198
▁결말도	-9.87217
▁되게	-9.8723
▁할말이	-9.87249
슬퍼	-9.87268
점수	-9.87279
영화로	-9.87302
봣는데	-9.8732
마리	-9.8738
으로써	-9.87381
▁재미있네요	-9.87421
용으로	-9.87469
우리	-9.8747
▁합	-9.87516
▁귀엽	-9.87711
▁중요	-9.87715
▁어른	-9.87734
"""	-9.87753
장면이	-9.87808
▁씁쓸	-9.87815
안타깝	-9.8782
농	-9.87854
▁헐리우드	-9.87855
▁40	-9.87887
▁매력있	-9.8789
편의	-9.87898
▁특이	-9.87932
▁사기	-9.87939
나온다	-9.87964
▁좀더	-9.88024
같고	-9.8803
▁이쁜	-9.88053
▁전설	-9.88124
▁좋았을	-9.88161
셔서	-9.88184
봅니다	-9.88187
▁뜻	-9.88188
▁거지	-9.88203
차라리	-9.88207
▁보았다	-9.88218
▁현실적인	-9.88223
▁많아	-9.8823
▁벗어	-9.8831
했네요	-9.88422
개봉	-9.88464
▁이제야	-9.88505
▁지루해서	-9.88523
▁풀	-9.88534
▁퍼	-9.88565
▁봣는데	-9.88603
빙	-9.88603
▁연속	-9.88646
▁옛날에	-9.88671
았던	-9.88686
▁안보고	-9.88751
영화임	-9.88769
▁평이	-9.88782
스러움	-9.88798
▁멋있다	-9.88813
▁헐리웃	-9.88816
▁청소년	-9.88816
▁때문	-9.88822
▁뛰어난	-9.8885
중에서	-9.88883
▁건지	-9.88918
▁착한	-9.88951
▁단연	-9.88998
▁찍었	-9.89096
▁나오면	-9.89131
▁시간을	-9.89154
▁투자	-9.8919
▁못해	-9.89196
버림	-9.8921
▁인간들	-9.89214
시작	-9.89221
▁가득	-9.89224
▁시걸	-9.89227
▁좋아할	-9.89234
▁웃겼	-9.89485
▁잊혀지지	-9.8949
▁무엇을	-9.89491
럼	-9.89496
▁니들	-9.89509
▁만큼	-9.89527
노래	-9.89553
중의	-9.89651
밑	-9.8969
보자	-9.89693
있음	-9.89705
▁괜찮았	-9.89708
▁핵	-9.8972
혁	-9.89746
▁모르겠고	-9.8976
틱	-9.89781
털	-9.89787
▁가볍게	-9.89787
땡	-9.89787
줍니다	-9.89791
내용도	-9.89811
▁남편	-9.89865
가슴	-9.89917
▁악당	-9.8992
▁아줌마	-9.8993
아까	-9.89965
아니다	-9.90082
제작	-9.90146
하셨	-9.90183
몰입	-9.90267
왔는데	-9.9029
온다	-9.90295
▁연출도	-9.90373
▁단순한	-9.90379
▁정말로	-9.90396
▁힘들다	-9.90457
쓴	-9.90465
▁이해할	-9.9049
▁이거보고	-9.90518
▁재미있었다	-9.90555
▁대화	-9.90563
▁떨	-9.90568
빼고	-9.90575
.......	-9.90645
▁S	-9.90671
▁흥	-9.90683
편을	-9.90698
▁개인	-9.9072
▁멍청한	-9.90724
설정	-9.90731
사는	-9.90732
]	-9.90767
므	-9.90767
떼	-9.90767
텔	-9.90768
해주세요	-9.90785
즘	-9.90823
▁찌질	-9.90844
▁뽑	-9.90912
버리는	-9.90921
지않고	-9.9094
는것도	-9.90971
▁않게	-9.90986
▁영어	-9.90996
▁남겨	-9.91018
▁출연진	-9.91105
▁떠나서	-9.91119
▁있습니다	-9.91216
낫	-9.91256
▁묻	-9.91296
기위해	-9.91299
까지는	-9.91343
뭔	-9.91343
▁못할	-9.91346
▁유명한	-9.91354
하시는	-9.91373
▁영화냐	-9.91425
▁이런영화가	-9.91445
▁미드	-9.91455
식으로	-9.91478
▁죄다	-9.91536
▁결말은	-9.91589
▁나옴	-9.91698
▁기독교	-9.91758
▁드럽게	-9.91758
▁쵝오	-9.91758
기로	-9.91759
▁지금은	-9.91823
▁베스트	-9.91836
▁반복	-9.91848
▁볼게	-9.91936
▁남자가	-9.9194
▁환상	-9.91943
▁남녀	-9.9195
▁몰입해서	-9.91981
▁과정	-9.91989
▁커	-9.9205
▁허세	-9.92061
▁매력적이	-9.92171
▁생각없이	-9.922
▁국내	-9.92232
▁눈물을	-9.92255
▁이후로	-9.92271
장난	-9.9237
▁않나	-9.92424
해진다	-9.92456
부족	-9.92483
▁"""	-9.92485
▁말을	-9.92569
▁외국	-9.92588
쉽	-9.92641
11	-9.9274
뉴	-9.92747
▁전투	-9.92751
▁뒤로	-9.92755
탐	-9.92757
탓	-9.92758
▁누군가	-9.92759
▁치밀	-9.92788
▁발견	-9.92823
▁못한다	-9.92846
해야지	-9.92859
계의	-9.92894
▁알수	-9.92898
▁좋습니다	-9.92959
겨울	-9.93011
▁발로	-9.93111
으려	-9.93141
▁우와	-9.93188
▁잔잔하고	-9.93268
▁받았	-9.93311
이라서	-9.93311
▁집에서	-9.93357
뻔한	-9.93384
▁푹	-9.93442
▁킬링타임	-9.93459
하신	-9.93473
▁가져	-9.93547
상황	-9.93555
줘서	-9.93577
▁있네요	-9.93587
▁되고	-9.93626
인가요	-9.93639
더라도	-9.93693
째	-9.93716
▁왠	-9.9372
▁장면에서	-9.93757
▁T	-9.93764
깎	-9.93768
▁즐겁게	-9.93782
▁같아서	-9.93814
▁멍청	-9.93824
지도않고	-9.93894
님이	-9.93896
▁망한	-9.9401
▁예쁘	-9.94068
놨	-9.94077
간의	-9.94087
▁와닿	-9.94198
▁철학	-9.94213
▁인물들	-9.94217
▁공부	-9.94262
▁작은	-9.94319
젤	-9.94414
▁ᅲᅲᅲ	-9.94414
잠	-9.94418
만큼은	-9.94475
긴한데	-9.94498
▁있어요	-9.94742
▁말하는	-9.94762
▁에피소드	-9.94788
닝	-9.94788
▁로봇	-9.94794
▁맨날	-9.94844
이런영화	-9.94898
▁갔	-9.94909
▁양심	-9.94914
▁고통	-9.94922
▁문화	-9.94939
기억	-9.94956
▁모든게	-9.94983
잔잔	-9.9501
▁무엇	-9.95027
▁재밌었음	-9.95046
에대한	-9.95062
할수있	-9.95078
▁살고	-9.95103
▁할말	-9.95128
▁싶네요	-9.95227
▁낮아서	-9.95296
▁영화였어요	-9.95336
엇다	-9.95388
았음	-9.95406
씬은	-9.95421
▁보인다	-9.95423
▁잔	-9.95505
▁유쾌하고	-9.95539
▁재밋다	-9.95568
▁개연성이	-9.95617
▁힘이	-9.9562
식이	-9.9563
▁50	-9.95758
벽	-9.95791
ᄅ	-9.95818
▁시트콤	-9.95819
톱	-9.95819
▁007	-9.9582
▁더불어	-9.95823
다는게	-9.9583
아까워	-9.95862
▁표현한	-9.95899
상태	-9.95908
▁이쁘고	-9.96012
▁쇼	-9.96064
▁하는지	-9.96113
잇는	-9.96136
하길래	-9.96154
▁끝이	-9.96228
럴	-9.96268
▁꽃	-9.96272
끼리	-9.963
▁헤어	-9.9636
있어서	-9.96368
▁이따위	-9.96376
▁진리	-9.96429
▁싶지	-9.96614
▁무서웠	-9.96629
▁암튼	-9.96638
▁그렇다고	-9.96651
▁비슷	-9.9667
워서	-9.967
▁이유를	-9.9674
였고	-9.96756
▁왜케	-9.9677
씨의	-9.96785
▁논	-9.96796
▁제로	-9.96811
▁생각하는	-9.9684
꿀	-9.96841
짜증나	-9.96844
쥬	-9.96861
▁러닝타임	-9.96861
▁카리스마	-9.96861
▁마이클	-9.96863
▁기대안하고	-9.96867
겁니다	-9.96892
수없는	-9.96894
▁어렵	-9.96913
▁민망	-9.96916
▁갈등	-9.96944
▁시각	-9.96963
▁살려	-9.96975
잡고	-9.97043
▁꾸	-9.97118
▁이쁘다	-9.97124
▁나오지	-9.97128
▁부족하다	-9.97166
▁야한	-9.97172
꾸	-9.97289
들만	-9.97385
하려	-9.97386
▁미모	-9.97396
▁보며	-9.97519
▁운	-9.97524
▁행	-9.97605
▁대부분	-9.97648
배우들의	-9.97663
하기만	-9.97734
평가	-9.9777
▁사라	-9.97811
▁잊지	-9.97835
▁와우	-9.97836
아쉽	-9.97847
즐	-9.97858
나오네	-9.97902
칭	-9.97913
뚱	-9.97913
▁마이너스	-9.97913
▁봤더니	-9.97913
▁김기덕	-9.97914
▁교육	-9.97931
▁의외로	-9.97938
▁복잡	-9.97951
▁재밌을	-9.97959
▁대사가	-9.98015
▁코난	-9.98044
//	-9.98079
고싶어	-9.98108
▁시대를	-9.98122
계속	-9.98144
▁완전히	-9.98159
쳤다	-9.98313
시다	-9.98338
▁않지만	-9.98404
친다	-9.98407
거면	-9.98438
▁이때	-9.98528
냈	-9.98529
▁주변	-9.98605
!!!!!	-9.98624
▁소름돋	-9.98643
▁한참	-9.98682
후에	-9.98737
▁내려	-9.98747
▁높아	-9.98789
ᅲᅮ	-9.98796
▁달라	-9.98868
▁눈에	-9.98881
▁굿굿	-9.98927
뮤	-9.98977
례	-9.98977
▁레전드	-9.98978
▁더러운	-9.98978
▁the	-9.98978
극장	-9.98999
라는게	-9.99
▁벌써	-9.99001
▁명품	-9.99017
▁뻔하고	-9.99034
점주	-9.99037
어진	-9.99037
▁한번쯤	-9.99064
본사람	-9.99098
했을까	-9.99103
▁하네요	-9.99108
전쟁	-9.99111
웨	-9.99141
싶은	-9.99147
▁모르겠지만	-9.99186
아요	-9.99282
▁존경	-9.99337
▁본인	-9.99377
이였다	-9.99439
사람은	-9.995
▁명성	-9.99505
▁사랑은	-9.99642
▁오바	-9.99656
▁착	-9.99661
▁작품이다	-9.99778
▁줌	-9.99799
특	-9.99806
▁도전	-9.99874
몽	-9.99886
P	-9.99899
밥	-9.99906
▁볼만했	-9.99918
▁배우들도	-9.99943
않는	-9.99956
낀	-10.0004
즐겁	-10.0005
쟁이	-10.0005
▁크리스마스	-10.0005
슬프	-10.0006
▁좋겠어요	-10.0012
▁달달	-10.0013
▁떨어지	-10.0017
▁외모	-10.0022
▁보길	-10.0024
▁아이돌	-10.0027
▁무척	-10.003
▁옛	-10.0035
it	-10.0035
있나	-10.0038
▁아쉽네요	-10.0038
▁작가가	-10.0043
▁울었다	-10.0044
감독의	-10.0045
▁이래	-10.0048
▁음악과	-10.0066
▁바뀌	-10.0073
▁비극	-10.0073
▁연기자들	-10.0075
▁부모	-10.008
V	-10.009
더라면	-10.0092
흥	-10.0092
요즘	-10.0097
G	-10.0103
▁아역	-10.0103
했었는데	-10.0105
녹	-10.0111
▁스크린	-10.0114
▁전기세	-10.0114
▁보고나면	-10.0115
▁일어나	-10.0119
하지마라	-10.012
▁13	-10.0122
▁어휴	-10.0125
▁좋게	-10.0126
연기력	-10.0127
▁조합	-10.0127
........	-10.0128
▁봣	-10.0129
▁학교에서	-10.0134
▁낳	-10.0135
▁d	-10.0136
▁가면	-10.014
▁웃음이	-10.0142
동생	-10.0148
▁울고	-10.0152
됐다	-10.0157
▁전체	-10.0176
▁한데	-10.0184
▁나쁘지	-10.0184
▁말하고	-10.0188
▁무비	-10.0188
▁당시에	-10.0197
▁[	-10.0199
▁조연	-10.0203
▁쓰레기같은	-10.021
▁결	-10.021
▁볼수있	-10.0211
똥	-10.0211
▁긴장감도	-10.0215
하던데	-10.0216
▁아나	-10.0217
▁이미지	-10.0221
잤	-10.0221
님들	-10.0223
▁즐거운	-10.0224
▁짝퉁	-10.0224
▁싸이코	-10.0224
▁위대한	-10.0224
▁흥미로운	-10.0225
▁편견	-10.0228
▁따뜻해지는	-10.0228
만드는	-10.0228
인건	-10.0232
▁있겠	-10.0237
▁영화인듯	-10.0242
▁죽은	-10.0248
.........	-10.0257
▁괜찮다	-10.0265
봐야지	-10.0274
▁관객들	-10.0278
▁쩐다	-10.0279
▁재미없어요	-10.028
재밌음	-10.0282
▁진지	-10.0293
렉	-10.0301
▁국가	-10.0305
▁덕분에	-10.0308
▁감정을	-10.0314
▁지루하게	-10.0316
▁힘들었	-10.0316
▁연기력도	-10.0321
▁친구들	-10.0325
▁생각하고	-10.0326
▁솔직	-10.0328
쌍	-10.033
헌	-10.0331
맡	-10.0332
엠	-10.0335
▁직접	-10.0335
▁바꿔	-10.0336
▁느껴진다	-10.0337
▁경험	-10.0337
I	-10.0339
▁레알	-10.0341
▁작품을	-10.0342
▁기다리	-10.0343
하기엔	-10.0343
▁게다가	-10.0347
▁있어야	-10.0352
▁낚	-10.0358
▁받을	-10.0358
▁박수를	-10.036
▁개봉한	-10.0361
하기도	-10.0372
▁피해자	-10.0375
문화	-10.0375
점정도	-10.0378
▁원작이	-10.0382
▁독특	-10.0382
▁최대	-10.039
봐요	-10.0399
ᄋᄋ	-10.0401
▁훈훈한	-10.0403
지말고	-10.0405
▁실제로	-10.0405
앞	-10.0407
사람들은	-10.0409
▁빼고	-10.0409
싫	-10.0411
▁한심	-10.0413
랬	-10.0417
▁아프	-10.042
주고싶	-10.0424
▁빼고는	-10.0425
▁혼	-10.0425
▁신선하고	-10.0425
▁인생의	-10.0434
겟다	-10.0435
▁밝	-10.0441
▁잼나	-10.0441
▁재미있었	-10.0442
균	-10.0445
좌	-10.0447
렁	-10.0447
▁풍경	-10.0453
▁good	-10.0453
억지	-10.0454
▁시청자	-10.0463
▁인상적이	-10.0467
▁수도	-10.0473
▁해석	-10.0477
새끼들	-10.0488
▁안맞	-10.0492
▁헛	-10.0508
▁없는데	-10.051
▁보여준다	-10.0518
켜	-10.0519
▁잭	-10.0519
▁넘치는	-10.0524
내내	-10.0531
▁부르	-10.0532
▁손발이	-10.0541
▁찬	-10.0542
섭	-10.0549
컬	-10.0561
ᅵ	-10.0561
▁초등학생	-10.0561
칸	-10.0561
▁포르노	-10.0561
▁반개도	-10.0561
읽	-10.0561
▁많고	-10.0565
밤	-10.0571
꼴	-10.0572
▁재미잇	-10.0574
얼굴	-10.0575
빼곤	-10.0582
▁좋았지만	-10.0584
▁그거	-10.0586
▁슈퍼	-10.0587
▁않을까	-10.0595
▁관한	-10.0595
배경	-10.0597
▁신파	-10.06
00	-10.0602
엔딩	-10.0603
냈다	-10.0609
▁ᄋᄋ	-10.0615
▁무리	-10.0616
공포영화	-10.0619
매력	-10.0627
▁f	-10.0627
▁먹고	-10.0629
▁좋지만	-10.0633
보여	-10.0635
제발	-10.0636
▁들었다	-10.0648
en	-10.0662
▁웃김	-10.0666
형님	-10.0667
부작	-10.0671
▁말아먹	-10.0678
▁몇몇	-10.0678
것인가	-10.0678
▁에휴	-10.0682
보네	-10.0684
▁보러	-10.0684
▁재미있었어요	-10.0688
갈수록	-10.0698
시즌	-10.0698
▁기술	-10.0698
드립니다	-10.0699
▁끝났	-10.0701
▁안나	-10.0711
저리	-10.0711
▁있으면	-10.0711
치곤	-10.0716
▁자식	-10.0729
▁올려	-10.0732
이즈	-10.074
▁:	-10.0746
버릴	-10.0748
안되는	-10.0769
힘	-10.077
▁얼마	-10.0772
▁현실이	-10.0778
그래	-10.078
▁답답한	-10.0784
섹	-10.0791
▁전설의	-10.0792
▁DVD	-10.0792
층	-10.0792
켓	-10.0792
롤	-10.0792
▁보자	-10.081
▁최고입니다	-10.0813
멍	-10.0814
▁블랙	-10.082
▁극치	-10.0823
▁지루했다	-10.0824
었네요	-10.0831
▁막판에	-10.0833
해진	-10.0833
▁의미를	-10.0834
오늘	-10.0834
▁노답	-10.0842
끝까지	-10.0843
▁비판	-10.0849
0%	-10.0852
▁진부하고	-10.0868
:)	-10.0878
까요	-10.0893
없어서	-10.0894
아름답	-10.0902
▁똑같은	-10.0904
껴	-10.0907
▁용기	-10.0909
▁확실	-10.0909
냉	-10.0909
▁어처구니	-10.091
칙	-10.091
▁외계인	-10.091
냄새	-10.0911
▁응원	-10.0911
▁좋았으나	-10.0912
▁즐기	-10.0914
▁모르게	-10.0914
▁방법	-10.0914
문제	-10.0918
▁역대급	-10.092
시길	-10.0921
소녀	-10.0922
▁방영	-10.0927
좋겠	-10.0927
▁여행	-10.0928
이었음	-10.0932
편도	-10.0933
맹	-10.0937
붙	-10.0938
▁기대했는데	-10.0939
▁한명	-10.0939
▁생각하면	-10.0941
혹은	-10.0947
시대에	-10.0947
재밋음	-10.0949
했더니	-10.0953
▁자살	-10.0961
▁있던	-10.0961
▁하나하나	-10.097
하고싶은	-10.0975
때부터	-10.0976
▁옥	-10.098
▁의리	-10.0982
다니는	-10.0986
였어	-10.0994
해주고	-10.0995
▁좋아하는데	-10.0998
▁시청	-10.0999
출연	-10.1001
▁중에서	-10.1018
▁만들면	-10.1029
▁이제서야	-10.1029
▁아까울	-10.1029
▁후속작	-10.1029
히어로	-10.103
▁감흥	-10.1031
▁어린시절	-10.1031
▁sf	-10.1031
자나	-10.1031
▁보기에	-10.1035
사람들이	-10.1037
▁전개도	-10.104
▁사랑이야기	-10.1045
▁그럴	-10.1047
당한	-10.1047
▁야동	-10.1051
▁지루하기	-10.1053
▁아이가	-10.1054
로우	-10.1055
▁감히	-10.1058
쓸	-10.1062
기까지	-10.1064
스키	-10.1066
▁없었던	-10.1067
같지	-10.1068
공주	-10.108
▁보여줬	-10.1087
편에	-10.1088
▁재밌다고	-10.1094
▁오락	-10.1097
▁원작의	-10.1098
이뻐	-10.1104
▁할까	-10.1113
▁엄	-10.1125
▁보려고	-10.1134
깜	-10.1149
W	-10.1149
곰	-10.1149
둔	-10.1149
쿵	-10.1149
퀴	-10.1149
렐	-10.1149
ing	-10.1151
줬다	-10.1156
▁최강	-10.1159
▁망치	-10.116
했다고	-10.1163
▁무섭지도	-10.1165
랜드	-10.1166
▁해결	-10.1168
▁욕망	-10.1169
▁설마	-10.117
▁없지	-10.1172
▁무술	-10.1172
▁낚시	-10.1176
앤	-10.1188
맥	-10.119
▁추억이	-10.1192
▁이럴	-10.1196
▁들어가	-10.1199
▁듣고	-10.1205
▁18	-10.1206
▁그녀의	-10.1211
▁이용	-10.1214
▁생각함	-10.122
▁기자	-10.1222
es	-10.1231
▁앤	-10.1232
▁속에	-10.1238
감독님	-10.1238
겠어요	-10.1258
▁무협	-10.1261
▁보긴	-10.1265
놈이	-10.1265
벅	-10.1271
쭉	-10.1271
▁지나치게	-10.1271
▁주성치	-10.1272
▁흑인	-10.1274
▁겨우	-10.1274
▁단어	-10.1275
▁거짓말	-10.1277
▁다룬	-10.128
아쉬	-10.1282
▁개막장	-10.1284
▁당연	-10.1284
▁감동적	-10.129
▁남자의	-10.1307
나오고	-10.1308
모두	-10.1309
▁신경	-10.1309
▁대중	-10.131
▁싶은데	-10.1312
돋	-10.1317
▁훈훈	-10.1321
않다	-10.1325
▁홍콩영화	-10.1327
▁세월	-10.1328
초반	-10.1332
▁조선	-10.1333
좋앗	-10.1334
▁뛰어	-10.1339
그래서	-10.1341
으니까	-10.1341
▁않네요	-10.1343
배우가	-10.1354
▁진부	-10.1354
▁좋아해서	-10.1356
았는데	-10.1356
▁이해하기	-10.1366
▁멍	-10.137
▁꿈을	-10.1371
▁케이블	-10.1373
보내	-10.1374
▁남아있	-10.1382
▁아쉬웠	-10.1383
▁어릴	-10.139
볼려고	-10.1391
춰	-10.1392
넹	-10.1395
▁디테일	-10.1395
▁패러디	-10.1395
▁소중한	-10.1395
거같은데	-10.1397
▁뛰어넘	-10.1397
▁자주	-10.1403
▁보내	-10.1405
시오	-10.1405
▁웃기지도	-10.1406
▁생생	-10.1407
▁일품	-10.1409
▁연극	-10.1409
▁있구나	-10.1415
▁긴장감이	-10.1419
▁분들은	-10.1422
받았	-10.1424
나왔	-10.1428
▁인해	-10.1429
▁악마	-10.1432
도아니고	-10.1433
▁있으	-10.1433
▁감안	-10.1434
스럽고	-10.1435
▁뿐이다	-10.1435
▁뜬금없	-10.1438
▁형님	-10.1439
꿀잼	-10.1441
▁못함	-10.1442
나올때	-10.1445
▁장르가	-10.1448
▁괜찮은데	-10.1448
▁주말	-10.1458
▁십	-10.1472
▁심하게	-10.1479
▁썼	-10.1487
빨리	-10.1497
▁죽을	-10.1506
▁죽이는	-10.151
잃	-10.1513
둥	-10.1514
핀	-10.152
▁고양이	-10.152
납니다	-10.1521
▁기다려	-10.1522
▁빠진	-10.1524
▁짜증난다	-10.1525
빠지	-10.1532
▁몽	-10.1537
▁꽝	-10.1544
▁작가님	-10.1545
공감	-10.1548
었네	-10.156
임에도	-10.1565
▁행복한	-10.1566
▁깔끔	-10.1569
▁사랑의	-10.157
▁시리즈중	-10.1575
▁있었지만	-10.1577
어떻게	-10.1581
할만한	-10.1581
▁앞으로도	-10.1582
~!!!	-10.1588
못보겠	-10.159
▁줬	-10.1593
▁대해서	-10.1595
요소	-10.1595
▁정의	-10.1597
깝	-10.1609
▁동안	-10.1613
▁커플	-10.1615
▁비디오로	-10.1619
번은	-10.1624
▁옷	-10.1627
영화인데	-10.1633
마지막에	-10.1634
▁전쟁영화	-10.1638
▁아침	-10.1642
하겠다	-10.1643
보구	-10.1646
멸	-10.1646
묵	-10.1646
▁봤을때	-10.1646
삐	-10.1646
폼	-10.1646
▁아닙니다	-10.1646
▁왠만하면	-10.1646
▁스트레스	-10.1646
▁젠장	-10.1647
▁다양한	-10.1647
▁잔혹	-10.1648
▁영원히	-10.165
인물	-10.165
▁하는거	-10.1652
▁전율	-10.1657
▁크리스	-10.1657
▁변태	-10.1658
▁잊을	-10.1668
년만에	-10.167
▁명화	-10.1677
▁묻어	-10.1678
▁본거	-10.1682
때문	-10.1689
있을	-10.1689
점이다	-10.169
받아서	-10.1692
▁세상을	-10.1693
▁낮다	-10.1695
▁한심한	-10.1703
뭔가	-10.1704
▁싶었	-10.1705
▁개연성도	-10.1706
me	-10.1706
우스	-10.1706
▁최고였다	-10.1708
빛	-10.171
살아	-10.1711
빌	-10.1713
아저씨	-10.1713
브라	-10.1714
휘	-10.1714
싸움	-10.1717
▁됨	-10.1717
▁웃기다	-10.1721
▁대본	-10.1722
관람	-10.1723
▁잘만들었	-10.1724
▁2014	-10.1727
코드	-10.1729
스크	-10.173
▁이것이	-10.1731
▁잔잔하	-10.1733
했지	-10.1735
했을때	-10.1736
▁액션씬	-10.1736
▁평점보고	-10.1738
^^*	-10.1739
▁잊을수	-10.1739
▁조화	-10.1739
▁다르다	-10.174
▁어른들	-10.1744
절대	-10.1761
감정	-10.1765
모든	-10.1767
▁재미없게	-10.177
옹	-10.1773
숭	-10.1774
K	-10.1775
뽀	-10.1775
▁만든영화	-10.1775
▁가족영화	-10.1775
▁잠깐	-10.1775
▁없어요	-10.1776
▁빈약	-10.1777
▁모를	-10.1783
▁또다른	-10.1787
어린	-10.1794
몇	-10.1794
▁21	-10.18
▁도망	-10.1803
ᄏᄏᄏᄏᄏᄏᄏᄏᄏ	-10.1805
쟁	-10.1806
▁평론가들	-10.1808
싶다	-10.1814
주면	-10.1817
긴하지만	-10.1819
부분은	-10.182
울리	-10.182
생각이	-10.1824
▁재미와	-10.1825
▁위로	-10.1837
▁보았습니다	-10.1844
굳	-10.1847
논	-10.1847
꽃	-10.1847
▁자신이	-10.1853
바닥	-10.1855
▁본다면	-10.1856
▁오랜만	-10.1857
속의	-10.1861
▁한국영화는	-10.1862
략	-10.1877
보이는	-10.1887
씬이	-10.1892
명의	-10.1894
콘	-10.1895
점줌	-10.1897
픽	-10.1899
머니	-10.19
흡	-10.1902
맙	-10.1904
J	-10.1904
ᅥ	-10.1904
▁깜짝	-10.1904
▁아쉬워	-10.1906
▁할머니	-10.191
♥♥♥	-10.1915
▁쓰레기다	-10.1916
보고싶다	-10.1917
큼	-10.1922
▁대놓고	-10.1926
짱짱	-10.1928
▁한마디	-10.1934
겠네요	-10.1934
▁인디	-10.194
▁몇번	-10.1941
▁맞아	-10.1942
▁빵점	-10.1953
▁탑	-10.1964
▁수준의	-10.1972
▁그건	-10.1972
▁재난영화	-10.1981
허접	-10.1984
벗	-10.1985
▁속에서	-10.1989
▁폴	-10.1989
년도에	-10.1991
더빙	-10.1993
▁쩝	-10.201
▁둘이	-10.201
▁쓰는	-10.2017
하기에	-10.2022
▁참신한	-10.2022
▁애기	-10.2031
ᄇ	-10.2035
▁잔뜩	-10.2036
손가락	-10.2037
무서움	-10.2037
▁모험	-10.2042
쥐	-10.2042
▁느꼈다	-10.2042
▁사진	-10.2045
▁최초	-10.2046
▁왜이래	-10.2058
▁우려	-10.2063
▁문제가	-10.2064
▁효과	-10.2066
▁본영화	-10.2071
▁잼있다	-10.2072
아까운	-10.2076
분은	-10.2077
점이상	-10.2077
...........	-10.2081
▁기회	-10.2082
▁비하면	-10.2088
▁우리는	-10.2089
▁감동적이다	-10.209
되나	-10.2095
트리	-10.2104
▁야구	-10.2109
▁결말을	-10.211
었는지	-10.2113
▁단편	-10.2124
쓰레기영화	-10.2125
큰	-10.2125
▁영화보면서	-10.2133
▁맹	-10.2138
챙겨	-10.214
▁죽는줄	-10.2142
싸우	-10.2145
▁싶을	-10.2148
두고	-10.2149
▁드립니다	-10.2151
▁우리의	-10.2155
만듬	-10.2155
안됨	-10.2155
죽는	-10.2158
액	-10.2168
랭	-10.2169
쪼	-10.2169
쿨	-10.2169
▁동성애	-10.2169
▁아이디어	-10.2169
▁p	-10.217
▁극장가서	-10.2172
▁떨어진다	-10.2173
▁짧은	-10.2173
▁어쩜	-10.2174
▁관객을	-10.2175
▁따뜻	-10.2176
▁남자주인공	-10.2178
▁등등	-10.2179
80	-10.2179
▁여름	-10.2184
▁삶에	-10.2184
▁높게	-10.2184
▁재밌던데	-10.2185
▁만들다니	-10.2189
▁알려주	-10.2197
▁영혼	-10.2197
큐	-10.2203
류의	-10.2209
▁웃고	-10.2211
그만	-10.2213
▁풍자	-10.2217
▁보통	-10.2217
▁이런영화를	-10.2233
▁있는지	-10.224
▁멋지	-10.2242
▁주기	-10.2242
▁소름이	-10.2246
▁결론	-10.225
지않아	-10.2251
▁아내	-10.2253
▁그렇지	-10.2265
낚	-10.2265
라곤	-10.2281
▁볼때	-10.2281
장애	-10.2282
▁못하다	-10.2284
▁그만큼	-10.2287
▁에이	-10.2287
적이다	-10.2292
▁따로	-10.2294
▁만들수	-10.23
▁짜임새	-10.2304
▁제임스	-10.2305
재미없음	-10.2306
▁작위적	-10.2307
▁결코	-10.2308
▁바꾸	-10.2309
▁그저그런	-10.231
▁무엇인지	-10.231
▁학교	-10.2311
▁깨닫게	-10.2321
▁대표	-10.2321
▁과장	-10.2329
▁만남	-10.233
때매	-10.2331
▁미쳤	-10.2333
주연	-10.2333
100	-10.2335
믿	-10.2337
▁여운을	-10.2337
▁훌륭하다	-10.2337
▁막장드라마	-10.234
▁점수가	-10.2341
였으면	-10.2342
▁아픈	-10.2344
▁가슴에	-10.2344
▁잼나게	-10.2345
▁생각했는데	-10.2346
▁끈	-10.2346
▁ᄏᄏᄏᄏᄏᄏ	-10.2349
목숨	-10.2351
▁선생님	-10.2357
▁심오	-10.2358
▁졸리	-10.2361
▁내면	-10.2366
새롭	-10.2367
잘만들	-10.2377
▁뭐하나	-10.2377
생활	-10.238
▁어쩔수	-10.2383
왔습니다	-10.2391
거같아요	-10.2392
▁진부하	-10.2396
▁좀비영화	-10.2401
솔직히	-10.2409
▁빵	-10.2416
▁받는	-10.242
▁아예	-10.2421
닐	-10.2425
▁좋겠	-10.2427
▁캐릭터가	-10.243
왓	-10.2435
▁간다	-10.2439
앞에서	-10.244
컴	-10.2441
럭	-10.2441
룩	-10.2441
곱	-10.2441
▁충실	-10.2442
▁말도안되는	-10.2445
▁내가본	-10.2447
상실	-10.2449
▁위해서	-10.245
랄까	-10.2451
부러	-10.2451
베리	-10.2451
▁화려하	-10.2454
▁조작	-10.2454
떨어지	-10.2457
▁11	-10.2459
▁그당시	-10.2463
었나	-10.2465
30	-10.2465
▁기대이상	-10.2467
▁살아가는	-10.2468
▁아쉽지만	-10.2475
as	-10.2477
▁집중해서	-10.2479
▁낚였	-10.2482
옴	-10.249
보셈	-10.2493
▁밤	-10.2497
겠음	-10.2498
▁생각나서	-10.25
되었다	-10.2507
▁보여주고	-10.2516
▁애들은	-10.2518
▁뻔하	-10.252
▁대단하	-10.2521
스케	-10.2522
▁사상	-10.2523
스럽게	-10.2525
▁예쁘고	-10.253
▁매력적	-10.2532
▁낮게	-10.2532
▁집에	-10.2533
▁모자	-10.2533
▁반전은	-10.2536
버전	-10.2539
▁본방사수	-10.2542
좋은영화	-10.2544
▁느껴지	-10.2549
화이팅	-10.2553
비디오	-10.2553
도대체	-10.2555
건가요	-10.2557
년작	-10.2561
..........	-10.257
▁순수함	-10.2571
▁웬	-10.2573
객	-10.2573
기전에	-10.2575
셀	-10.258
갱	-10.258
▁블록버스터	-10.258
닉	-10.258
▁시간가는줄	-10.258
▁안타까운	-10.258
▁색다른	-10.2581
▁L	-10.2583
▁개뿔	-10.2583
▁특별한	-10.2584
▁아무런	-10.2585
야한다	-10.2585
소설	-10.2586
▁억지스러운	-10.2587
부분이	-10.2593
있습니다	-10.2593
▁나름대로	-10.2596
▁두고	-10.2597
▁생긴	-10.2601
▁열연	-10.2602
▁에로영화	-10.2604
▁주기도	-10.2605
▁잼잇	-10.2608
쓰는	-10.2611
▁포스터가	-10.2611
본영화	-10.2618
▁실력	-10.2625
!!!!!!	-10.2629
것같아요	-10.2629
할수없	-10.2644
▁남네요	-10.2644
▁보지마라	-10.2644
▁휘	-10.2646
▁배신	-10.2655
▁관점	-10.266
레스	-10.2678
받아	-10.2678
찡	-10.2699
헐	-10.27
긴장감	-10.27
▁봤네	-10.2703
▁예쁘다	-10.2712
▁볼수있는	-10.2719
싼	-10.2721
z	-10.2721
▁뭐니	-10.2721
▁핵노잼	-10.2722
▁집착	-10.2723
▁바랍니다	-10.2723
▁색감	-10.2727
▁감각	-10.2728
▁신선하	-10.2729
겠습니다	-10.2729
조금	-10.2732
▁만들었는지	-10.2733
▁적당히	-10.2733
▁비밀	-10.2733
혼자	-10.274
여주	-10.2745
▁살면서	-10.2754
▁부실	-10.2756
▁유쾌하	-10.2757
▁죽인	-10.2759
▁길게	-10.2763
▁가정	-10.2768
▁않아서	-10.2776
▁때려	-10.2777
▁연출과	-10.278
아빠	-10.2781
▁기준	-10.2785
든지	-10.2791
▁필름	-10.2792
개그	-10.2793
▁제외	-10.2805
▁책을	-10.2809
덕에	-10.2809
▁가치가	-10.2812
보는게	-10.2813
하지마	-10.2814
▁봅니다	-10.2815
▁사고	-10.2825
▁샘	-10.2829
뇌	-10.2839
덜	-10.2849
흠	-10.2849
겠죠	-10.285
▁아까운영화	-10.2854
▁갖고	-10.2857
▁출연한	-10.2858
졸작	-10.2862
띄	-10.2864
찔	-10.2864
▁봤을까	-10.2864
▁어울리는	-10.2864
▁울컥	-10.2864
▁소소한	-10.2864
▁여러가지	-10.2865
▁데리고	-10.287
방식	-10.2871
▁자신을	-10.2871
▁의미가	-10.2873
▁만든거	-10.2876
▁하늘	-10.2877
▁알겠는데	-10.2878
▁가슴을	-10.2883
▁부모님	-10.2884
▁하나같이	-10.2885
학년	-10.2887
bb	-10.2889
▁이래서	-10.2893
▁형편없	-10.2897
법한	-10.2903
▁줄수	-10.2908
▁먼가	-10.2909
▁엉성하고	-10.2912
▁없습니다	-10.2918
거죠	-10.2921
▁뛰어나	-10.2925
대단	-10.2925
▁열받	-10.293
오래	-10.2936
보기싫	-10.2941
▁싸움	-10.2941
▁정말이지	-10.2951
쳐서	-10.2952
▁보아	-10.2957
▁매력을	-10.2967
사건	-10.2972
25	-10.2976
현실을	-10.2978
▁안볼	-10.2982
▁식상한	-10.2983
▁몇년	-10.2985
먹은	-10.299
빠진	-10.2991
기에는	-10.2991
▁같았	-10.2992
삶	-10.2993
치고는	-10.2994
필요없	-10.3001
시나리오	-10.3001
랫	-10.3002
▁추리	-10.3006
▁개성	-10.3009
H	-10.3009
▁임팩트	-10.3009
▁플롯	-10.3009
거리는	-10.301
▁일반	-10.3011
▁놀라운	-10.3018
▁배우를	-10.302
▁P	-10.303
▁역사를	-10.3031
점대는	-10.3035
▁있었는데	-10.3042
▁낮네	-10.3048
먹어	-10.3056
여행	-10.3058
▁쥐	-10.3064
▁분위기가	-10.307
▁형사	-10.3073
▁답답하고	-10.3076
▁돌리	-10.308
놀이	-10.3086
▁겉	-10.3087
▁아까웠	-10.3097
어이없	-10.311
씀	-10.3127
쓰고	-10.313
▁짜증만	-10.3136
▁다시보니	-10.3138
▁시리즈는	-10.314
닿	-10.3151
아버지	-10.3152
꾼	-10.3152
L	-10.3153
납	-10.3154
▁돈을	-10.3154
▁꽤나	-10.3155
▁아닐	-10.3155
▁몰랐다	-10.3156
▁로버트	-10.3156
▁해리포터	-10.3156
찐	-10.3156
▁끔찍	-10.3156
▁탄생	-10.3157
▁유일한	-10.3157
▁어색하	-10.3157
.............	-10.3161
햇다	-10.3162
둥이	-10.3163
▁코미디영화	-10.3165
▁봐줄	-10.317
▁노래도	-10.3173
▁마지막까지	-10.3175
▁충격적이	-10.3176
▁좋겠네요	-10.3176
▁성격	-10.3176
▁한국에서	-10.318
것만으로도	-10.3183
▁거기에	-10.3185
후회	-10.3187
▁조절	-10.3188
또한	-10.3189
하하하	-10.319
곳에	-10.3192
▁싸우는	-10.3197
▁삶이	-10.321
보니까	-10.3212
거같음	-10.3214
▁영상과	-10.3216
▁놀랍다	-10.3221
▁요리	-10.3226
▁구성이	-10.3226
▁정작	-10.324
▁넘게	-10.3242
야겠다	-10.3245
▁안맞는	-10.3246
▁명작입니다	-10.3253
▁불편한	-10.3255
▁뭘까	-10.3255
해야할	-10.3256
하는건지	-10.3259
▁흐르는	-10.3271
▁희망을	-10.3282
▁코드	-10.3289
▁감정이	-10.3289
▁찾아보	-10.3296
낭	-10.3297
렵	-10.33
않은	-10.3304
엑	-10.3305
핑	-10.3305
▁dvd	-10.3305
▁가벼운	-10.3305
▁홍상수	-10.3305
▁늑대	-10.3305
▁유일하게	-10.3305
▁모른다	-10.3306
▁심지어	-10.3306
▁캬	-10.3307
▁톰	-10.3307
▁1,2	-10.3307
<	-10.3309
▁배경음악	-10.331
▁예수	-10.3312
▁흔들	-10.3312
포스터	-10.3316
▁마지막장면	-10.3317
것같은	-10.3317
▁재능	-10.3324
▁보려	-10.3325
▁오래된	-10.3327
▁상대	-10.3327
▁말하고자	-10.3328
뿐이다	-10.333
▁운명	-10.3332
▁빼면	-10.3337
▁책임	-10.3339
▁그자체	-10.3343
▁궁금하다	-10.3345
이었습니다	-10.3345
했다면	-10.3349
▁낙	-10.3349
▁생활	-10.335
▁이런건	-10.335
▁넌	-10.3356
▁잔인	-10.3356
▁짜증나서	-10.3357
▁시청률이	-10.3368
장르	-10.3374
듯하다	-10.3378
었지	-10.3383
▁매일	-10.3387
▁재미없었다	-10.3387
감동적이	-10.339
▁어른이	-10.3393
▁부부	-10.3399
▁신비	-10.3403
촌스럽	-10.3405
▁생각으로	-10.3406
▁많은데	-10.3417
▁약간의	-10.342
▁낮아	-10.342
▁불쌍하다	-10.3421
재밌어	-10.3421
잖	-10.3433
▁부분도	-10.345
쩜	-10.3451
에대해	-10.3455
뗄	-10.3457
▁짜집기	-10.3457
▁반드시	-10.3457
떨어진	-10.3459
▁웃으면서	-10.3462
▁폐지	-10.3464
추억	-10.3473
▁배우들은	-10.3475
라는걸	-10.3477
▁of	-10.348
기법	-10.3485
▁이딴걸	-10.3486
▁별로임	-10.3487
▁선동	-10.3488
▁조카	-10.3501
▁잠이	-10.3504
지말자	-10.3506
엇는데	-10.3507
▁없었음	-10.3514
▁내용과	-10.3516
하길	-10.3521
ᅮᅲ	-10.3523
▁수작이다	-10.3532
▁낚였다	-10.3535
▁살린	-10.3536
지루함	-10.354
12	-10.354
▁교훈을	-10.3547
같은영화	-10.3548
스카	-10.3557
▁헬	-10.3561
▁아름다웠	-10.3561
▁아이들과	-10.3567
같네	-10.3594
엽	-10.3607
찮	-10.3609
벼	-10.3611
^-^	-10.3611
▁잘봤어요	-10.3611
탱	-10.3611
퓨	-10.3611
▁장국영	-10.3611
▁인내심	-10.3611
▁아류작	-10.3611
▁사운드	-10.3611
▁실화를	-10.3611
▁어울리지	-10.3612
▁앞뒤	-10.3613
▁원작에	-10.3613
않음	-10.3615
▁최근에	-10.3616
▁태어나서	-10.3621
▁엉망이	-10.3626
▁여주가	-10.3627
려나	-10.3631
캐스팅	-10.3631
▁생각할	-10.3634
느끼	-10.3641
▁재미도없고	-10.3643
▁귀여워	-10.3645
▁애매	-10.3646
▁충분	-10.3647
▁변화	-10.3647
▁높아서	-10.3648
▁아니야	-10.3654
옆	-10.3654
▁손발	-10.3655
▁기억나는	-10.3655
▁소년	-10.3663
언제	-10.3664
ᅲᅲᅲᅲᅲ	-10.3668
▁키스	-10.3668
멜로	-10.3674
▁강한	-10.3679
제대로	-10.368
▁연기력은	-10.3694
▁죽이고	-10.3699
▁손에	-10.37
▁떨어지고	-10.3706
톤	-10.3714
▁이상하게	-10.3723
지마세요	-10.3728
▁어색하고	-10.3735
듣는	-10.3741
받을	-10.3745
▁보기에는	-10.3748
보긴	-10.3749
역사	-10.375
▁남자들	-10.3752
▁설정이	-10.3761
▁살다살다	-10.3767
및	-10.3767
▁쓸데없이	-10.3767
▁주윤발	-10.3767
긋	-10.3767
앨	-10.3767
▁즐겨	-10.3767
▁영환데	-10.3768
▁어설프고	-10.3769
▁노래가	-10.3769
▁감정이입	-10.3769
▁위험	-10.3771
▁당연히	-10.3776
하지말고	-10.3777
▁여자주인공	-10.378
▁담배	-10.3781
▁어느정도	-10.3781
▁예능	-10.3783
수밖에	-10.3784
싫어	-10.3784
▁당신은	-10.3786
▁동양	-10.3788
▁배역	-10.379
▁무료	-10.3791
▁2000	-10.3791
비슷	-10.3793
걍	-10.3795
▁나에겐	-10.3796
▁즐거웠	-10.3801
웃김	-10.3802
▁알수있	-10.3803
▁재미있습니다	-10.3805
어색	-10.3807
본영화중	-10.3817
▁피해	-10.3819
▁재미있을	-10.3826
극장에서	-10.3829
▁쫓	-10.383
▁지나도	-10.3832
▁지겹다	-10.3834
19	-10.3838
▁아래	-10.3846
▁주제가	-10.385
▁타고	-10.3851
▁친구가	-10.3853
▁쓰고	-10.3856
▁곧	-10.3867
▁방식	-10.3872
능력	-10.3873
▁나랑	-10.3875
이랄까	-10.3877
▁가능한	-10.3879
▁수입	-10.3882
▁실수	-10.3885
모르고	-10.389
▁60	-10.3904
15	-10.3911
▁힘내	-10.3913
▁다운받아	-10.3923
▁멋졌	-10.3925
★	-10.3926
밍	-10.3926
▁강렬한	-10.3926
▁됩니다	-10.3926
▁특수효과	-10.3926
땀	-10.3926
▁심형래	-10.3926
부끄럽	-10.3926
▁이토록	-10.3926
▁교과서	-10.3926
▁제이슨	-10.3926
▁이끌어	-10.393
▁할아버지	-10.3931
▁서양	-10.3933
▁첫사랑	-10.3933
▁어째	-10.3934
▁여자친구	-10.3935
▁추격	-10.3938
▁근래	-10.3938
▁승리	-10.3943
▁목적	-10.3945
만드네	-10.3946
리스트	-10.3948
일듯	-10.3954
▁보지말	-10.3957
▁모르겠음	-10.3961
목소리	-10.3962
분위기	-10.3963
겨운	-10.3963
느껴	-10.3963
갔는데	-10.3964
▁수많은	-10.3965
▁독일	-10.3966
▁등장인물	-10.3976
▁우연	-10.3976
▁있다니	-10.3979
▁말해	-10.3989
▁내용인지	-10.3989
려다가	-10.399
▁호구	-10.399
▁확인	-10.399
▁생명	-10.3993
▁삼류영화	-10.3995
어가는	-10.3996
▁여전	-10.3996
▁연인	-10.3996
보소	-10.3997
▁재미없어서	-10.4007
▁한편의	-10.4012
▁주연배우	-10.4018
▁철학적	-10.4021
▁마음으로	-10.4034
▁남았	-10.4034
▁ᄍᄍᄍ	-10.4036
▁가르	-10.4037
▁소재도	-10.4037
▁소장	-10.4039
th	-10.4043
줄알았	-10.4047
▁포스	-10.4048
▁반대	-10.4052
▁적절	-10.4056
▁연기자	-10.4059
▁살리	-10.4061
▁없으면	-10.4061
들끼리	-10.4065
♥♥♥♥	-10.407
ᄏᄏᄏᄏᄏᄏᄏᄏᄏᄏᄏᄏᄏ	-10.4085
▁ᄏᄏᄏᄏᄏᄏᄏ	-10.4086
ᄡ	-10.4087
▁뱀파이어	-10.4087
▁스티븐	-10.4087
▁쓸데없는	-10.4087
▁이따구	-10.4087
▁그립다	-10.4087
▁이뻐서	-10.4088
▁뭐하자는	-10.4088
▁환경	-10.4088
갠적으로	-10.4089
▁맞춰	-10.409
재미있게	-10.4095
▁정상	-10.4099
▁눈물나	-10.4099
▁첨엔	-10.41
▁단순히	-10.4102
▁봤다면	-10.4105
존나	-10.4108
▁마약	-10.4111
▁따뜻하고	-10.4114
자들이	-10.4115
▁동심	-10.4128
▁많아서	-10.4129
썼	-10.413
▁떠오르	-10.4133
▁선물	-10.4133
모르겟	-10.4136
커플	-10.4136
▁난잡	-10.4141
바라	-10.4142
드립	-10.4142
▁맞지	-10.4152
▁이상하고	-10.4154
▁안습	-10.4155
▁하나로	-10.4156
▁불러	-10.4158
장면은	-10.4163
▁제목만	-10.4171
▁난해하	-10.419
보시길	-10.4195
발연기	-10.4197
▁맛이	-10.42
▁귀엽다	-10.4209
▁부정	-10.4215
▁안봐도	-10.4222
▁낮지	-10.4222
같아서	-10.4234
▁좋네	-10.4242
뭐야	-10.4247
뷰	-10.425
▁넣어	-10.425
낯	-10.4251
딘	-10.4251
▁명불허전	-10.4251
램	-10.4251
셋	-10.4251
▁배트맨	-10.4251
▁정신병자	-10.4251
덩어리	-10.4251
▁러브	-10.4252
▁아름답게	-10.4253
▁착각	-10.4253
▁판단	-10.4253
▁돋보이는	-10.4254
분만에	-10.4257
▁빠른	-10.4257
미국	-10.4258
▁여러번	-10.4258
▁언제봐도	-10.426
▁과학	-10.426
높은	-10.4264
▁괜찮았는데	-10.4268
▁부럽	-10.4269
▁보던	-10.4271
내용은	-10.4272
▁정보	-10.4272
▁결정	-10.4273
▁봐도봐도	-10.4277
▁몰라	-10.428
▁따분	-10.4281
▁잼있어요	-10.4283
▁보다니	-10.4292
것처럼	-10.4299
▁인상적	-10.4302
불쌍	-10.4306
▁틀어	-10.4307
촌	-10.4307
았지만	-10.4308
폴	-10.4309
관객	-10.431
▁괜찮음	-10.4312
감독은	-10.4317
▁아까웠다	-10.4318
▁소설을	-10.432
▁공포물	-10.4321
▁그동안	-10.4326
▁불쌍한	-10.4326
▁보고싶어	-10.4329
▁멋지고	-10.4333
▁음식	-10.4342
보게되	-10.4346
알아	-10.4349
▁재밌지	-10.4364
었을까	-10.4365
▁죽었	-10.4373
▁감동받	-10.4376
였나	-10.4379
▁이름이	-10.438
▁혹시	-10.4388
▁작품입니다	-10.4395
▁알겠다	-10.44
▁괜찮았다	-10.4405
le	-10.4407
▁빅	-10.4411
못하는	-10.4413
젊	-10.4414
랍	-10.4415
▁어렵다	-10.4415
삭	-10.4417
멈	-10.4417
▁조니뎁	-10.4417
▁숨겨진	-10.4418
▁익숙	-10.4418
▁오랫만에	-10.4418
▁도무지	-10.4418
▁매니아	-10.4419
▁재개봉	-10.4422
▁처절	-10.4424
▁폭발	-10.4426
▁오랫	-10.4426
▁저평가	-10.4429
빼	-10.4431
▁잘못된	-10.4437
▁짜증남	-10.4437
▁싶었던	-10.4441
▁처음에는	-10.4447
올라	-10.4451
▁새벽에	-10.4461
▁생겼	-10.4463
▁모르겠네요	-10.4472
할것	-10.448
범죄	-10.4482
엄청	-10.4483
애들이	-10.4486
▁많은걸	-10.4489
▁말자	-10.4489
그럼	-10.449
▁안간다	-10.4496
▁잡아	-10.4507
▁망친	-10.4512
▁놀랍	-10.4513
▁이런영화는	-10.4514
▁초딩때	-10.4518
빠져	-10.452
있었다	-10.4525
았습니다	-10.4525
곳에서	-10.4528
▁상업	-10.4539
▁고어	-10.4545
광고	-10.4557
웨이	-10.4561
여운이	-10.4568
차별	-10.4572
▁그것도	-10.4578
선생	-10.4579
괜	-10.4585
ᄁ	-10.4587
싹	-10.4587
옳	-10.4587
U	-10.4587
▁빵빵	-10.4588
느낌이	-10.4589
▁꿈꾸	-10.4589
40	-10.4591
▁그럴듯	-10.4592
▁관련	-10.4592
▁가족들	-10.4593
▁돈내고	-10.4595
멋있	-10.4597
▁두번째	-10.4598
▁그야말로	-10.46
▁로코	-10.46
▁담겨	-10.4601
▁내용전개	-10.4605
▁주제를	-10.4606
▁반담	-10.4611
▁최고봉	-10.4614
▁개노잼	-10.4614
▁케이블에서	-10.4617
▁혹시나	-10.4619
▁무너	-10.4625
▁평소	-10.4628
▁욕심	-10.4634
기억이	-10.4635
▁절정	-10.4643
▁답답함	-10.4647
▁클레멘타인	-10.4647
▁기대없이	-10.4648
▁공간	-10.4656
춤	-10.4657
개인적으로	-10.4658
왠	-10.4664
▁봐야하는	-10.4665
▁기타	-10.4665
할뿐	-10.4665
▁달려	-10.4667
▁논리	-10.4673
▁이해할수	-10.4676
좋았다	-10.4678
나름	-10.4681
갈때	-10.4683
나쁜	-10.4686
▁자체는	-10.4688
▁불안	-10.4691
조아	-10.4693
보인다	-10.4703
▁오락영화	-10.4713
▁가수	-10.4721
▁진수	-10.4738
▁놓치	-10.4741
▁최고임	-10.4741
▁정신없	-10.4742
▁지루하지않	-10.4745
류영화	-10.4751
꼈	-10.4758
썸	-10.4759
ᄎ	-10.4759
▁대통령	-10.4759
▁설득력	-10.4759
▁짐캐리	-10.4759
▁터미네이터	-10.4759
뭣	-10.4759
▁you	-10.4759
▁리얼리티	-10.4759
읍	-10.4759
짤	-10.4759
▁공짜로	-10.4759
▁다세포	-10.4759
▁박진감	-10.476
귀여움	-10.476
▁짜증나고	-10.4761
▁실험	-10.4763
▁재미없을	-10.4764
줄알았는데	-10.4769
▁이루어	-10.477
▁일부러	-10.4772
▁시간아깝다	-10.4775
▁사랑해	-10.478
잖아요	-10.4783
▁인형	-10.4784
▁하품	-10.4786
▁안보는게	-10.479
▁현실과	-10.4798
▁보게된	-10.48
▁잔잔하게	-10.4806
기도하고	-10.4808
▁보이지	-10.4812
못하고	-10.4813
▁명장면	-10.4818
자식	-10.4821
낮은	-10.4821
돈으로	-10.4822
시원	-10.4823
▁공감할	-10.4826
▁잼있음	-10.4831
▁결론은	-10.4833
▁다르게	-10.4834
▁한국판	-10.4835
심각	-10.4837
뭘	-10.484
아무리	-10.4841
▁중심	-10.4843
▁잊고	-10.4846
▁유치해	-10.485
▁머리가	-10.4852
중독	-10.4855
▁발상	-10.486
▁사용	-10.4863
▁아쉬움이	-10.487
▁여러분	-10.4878
하거나	-10.4883
▁밀려	-10.4885
▁쉽지	-10.4889
있지만	-10.4889
으려고	-10.4889
늙	-10.489
없나	-10.4893
힘들	-10.4898
▁조용	-10.4898
좋음	-10.491
▁정도면	-10.492
ᅮᅮᅮ	-10.4926
▁하아	-10.4931
▁최소	-10.4932
▁왤케	-10.4935
▁할리우드	-10.4935
펜	-10.4935
ᅩ	-10.4935
▁고등학교	-10.4935
켄	-10.4935
▁오글거려	-10.4935
▁제니퍼	-10.4935
▁아놀드	-10.4935
▁희대의	-10.4935
▁불가능	-10.4935
▁떨어져	-10.4935
▁의사	-10.4939
▁상징	-10.4942
나왓	-10.4942
▁극복	-10.4943
▁흘리	-10.4944
▁이상해	-10.4945
▁그것이	-10.4946
▁고독	-10.4946
글자	-10.4949
▁넘치	-10.495
자마자	-10.4954
▁유럽	-10.496
▁유행	-10.4969
▁울면서	-10.4973
특집	-10.4988
▁아깝네요	-10.499
▁읽어	-10.4994
상영	-10.4995
▁않았지만	-10.4996
▁본건데	-10.4996
▁사람들에게	-10.4998
말이필요없	-10.5001
▁사랑합니다	-10.5004
할수가	-10.5005
▁왜곡	-10.5008
▁짝이	-10.5017
▁장면들	-10.5022
한마디	-10.5024
꿈	-10.5025
▁밤에	-10.5025
▁재밌어서	-10.5029
그랬	-10.5035
▁그지같	-10.504
쩐다	-10.5057
하군	-10.5057
멜	-10.5059
▁세번	-10.5061
▁옆에	-10.5063
!!!!!!!!!!!!!!!!	-10.5068
▁거장	-10.5082
것보다	-10.5084
너무너무	-10.5084
▁어디에	-10.5095
표정	-10.5096
줬으면	-10.5098
▁영화라니	-10.5099
▁to	-10.5101
▁현실감	-10.5103
처리	-10.5111
뚝	-10.5113
ᅢ	-10.5113
랩	-10.5113
▁인터넷	-10.5113
몫	-10.5113
▁케릭터	-10.5113
젖	-10.5113
▁컨셉	-10.5113
▁러시아	-10.5113
닼	-10.5113
▁양아치	-10.5113
▁겉멋	-10.5114
▁달콤	-10.5115
▁끼워	-10.5115
▁탈출	-10.5117
▁민폐	-10.5117
▁센스	-10.5117
▁압도	-10.5121
▁대신	-10.5122
▁한숨	-10.5125
▁무겁	-10.5133
▁자아	-10.5136
▁소중함을	-10.5138
ed	-10.5139
▁살인마	-10.5142
▁사람이라면	-10.5143
▁궁금해서	-10.5149
▁어거지	-10.515
▁스토리전개	-10.5153
▁아깝고	-10.5156
▁평화	-10.5163
▁각자	-10.5166
하니까	-10.518
ᄏᄏᄏᄏᄏᄏᄏᄏᄏᄏᄏᄏ	-10.5183
▁진한	-10.5186
당시	-10.5187
▁죽고	-10.5189
▁포스터만	-10.5192
미친	-10.5193
▁좋을듯	-10.5197
▁앞에	-10.5199
▁싶어요	-10.5201
▁보는거	-10.5201
▁일본인	-10.5208
▁보고나니	-10.521
편에서	-10.5211
탑	-10.5211
▁아동	-10.5212
잊	-10.5212
el	-10.5213
▁만들어서	-10.5218
겐	-10.5228
게만드는	-10.5231
맞는	-10.5232
아무튼	-10.5234
볼수	-10.5236
앞으로	-10.5247
▁시점	-10.5247
▁짜증이	-10.5253
▁비슷하	-10.5262
▁멋있는	-10.5263
ᄍ	-10.5263
50	-10.5268
▁알았네	-10.527
중딩	-10.5276
조연	-10.5283
▁세상이	-10.5283
▁의상	-10.5284
-_-;	-10.5284
륜	-10.529
콧	-10.5292
렷	-10.5294
윌	-10.5295
엮	-10.5295
깃	-10.5295
▁송강호	-10.5295
껀	-10.5295
렴	-10.5295
뻥	-10.5295
쟈	-10.5295
▁유덕화	-10.5295
ᄏᄏᄏᄏᄏᄏᄏᄏᄏᄏᄏ	-10.5295
▁흑백	-10.5295
▁사투리	-10.5295
▁하정우	-10.5295
▁거부감	-10.5296
▁스포츠	-10.5296
~~^^	-10.5297
▁평균	-10.5298
▁녹아	-10.5299
보여주	-10.53
▁거기다	-10.5302
▁적어도	-10.5303
▁액션신	-10.5307
▁다운받	-10.5314
▁거품	-10.5315
그러나	-10.5324
▁울리는	-10.5328
▁초반부	-10.5329
▁하지원	-10.5331
ck	-10.5332
▁믿기지	-10.5332
▁생각난다	-10.5337
있던	-10.5346
▁적당한	-10.5349
선수	-10.5359
▁드네요	-10.5368
▁마니	-10.537
▁소화	-10.5393
▁만났	-10.5397
볼수있	-10.5398
▁없냐	-10.5401
몸	-10.5402
ve	-10.5402
만큼이나	-10.5406
하시길	-10.5412
바람	-10.5414
▁화나	-10.5418
▁등장인물들	-10.5423
▁장진	-10.5427
500	-10.5436
보고있어요	-10.5438
▁생기	-10.545
구리	-10.5454
▁무섭고	-10.5454
▁못했	-10.5464
뭐냐	-10.5469
꺼야	-10.5472
보임	-10.5477
뜬	-10.548
빗	-10.548
똘	-10.548
▁네티즌	-10.548
걷	-10.548
닷	-10.548
▁나레이션	-10.548
▁떨어짐	-10.548
▁화장실	-10.548
스파이더맨	-10.548
▁역겹다	-10.548
뎅	-10.548
▁뭥미	-10.5481
▁어둡	-10.5481
▁동시에	-10.5481
▁내생에	-10.5482
▁죄송	-10.5482
스텝	-10.5483
▁루즈	-10.5483
▁한개도	-10.5484
▁고뇌	-10.5484
▁전반적으로	-10.5487
▁추천하고	-10.5488
▁답이	-10.5492
▁억지감동	-10.5495
▁디워	-10.5498
▁여친	-10.5501
없네요	-10.5502
▁싶었다	-10.5503
▁이런류의	-10.5505
▁담긴	-10.5507
질질	-10.551
분동안	-10.5511
▁영원한	-10.5518
▁나을듯	-10.5524
▁포스터에	-10.5529
▁원조	-10.5531
▁내일	-10.5531
▁탄탄하고	-10.5533
ᄏᄏᄏᄏᄏᄏᄏᄏᄏᄏ	-10.5537
사실	-10.5538
▁모든걸	-10.5552
▁명연기	-10.5554
▁잔잔하면서	-10.5561
▁아니었다	-10.5562
달라	-10.557
▁소개	-10.5582
▁빠져서	-10.5585
놨네	-10.5586
▁않은데	-10.5595
▁자극적인	-10.5599
▁가득한	-10.5601
코믹	-10.5603
해놓고	-10.5604
천원	-10.5607
▁뜬금없는	-10.5608
녀석	-10.5608
해줘서	-10.5609
▁잘만들었다	-10.5614
노답	-10.5616
▁장면들이	-10.562
있지	-10.5628
특별	-10.564
▁명배우	-10.5644
소름	-10.5645
주제	-10.5656
돈주고	-10.5657
곽	-10.5669
▁오프닝	-10.5669
눌	-10.5669
닭	-10.5669
▁언젠가	-10.5669
▁자동차	-10.5669
▁이해불가	-10.5669
▁흥미로웠	-10.5669
▁첩보	-10.567
보느니	-10.567
펙트	-10.5671
▁짜릿	-10.5671
▁폭풍	-10.5671
▁극단적	-10.5673
▁좋았을텐데	-10.5673
▁역량	-10.5673
▁잤다	-10.5675
▁이것보단	-10.5676
▁향수	-10.5676
있으면	-10.5677
맞은	-10.568
▁허허	-10.5682
▁전개와	-10.5684
좋네요	-10.5687
▁극장에	-10.5693
외로	-10.5696
▁있었으면	-10.5704
할줄	-10.571
▁만들기	-10.571
▁아파	-10.5713
되요	-10.5713
놈들은	-10.5718
하자면	-10.5719
▁실감	-10.5728
스릴	-10.5732
->	-10.5738
거라고	-10.574
▁별하나	-10.5744
▁자극적	-10.5745
하겠습니다	-10.5746
▁시작해서	-10.5747
▁만들어주	-10.5751
▁상관	-10.5752
▁안본다	-10.5754
순위	-10.5756
였지	-10.5766
ha	-10.5766
▁좋지	-10.5772
▁내돈	-10.5774
▁여신	-10.5776
쁜	-10.5778
▁찍고	-10.5779
틀리	-10.5783
▁깔끔한	-10.5786
▁심한	-10.5791
▁여인	-10.58
에비해	-10.5802
▁지겹	-10.5805
봣다	-10.5826
레드	-10.5828
답게	-10.5831
▁재미없었	-10.5832
▁박수	-10.5833
역할	-10.5834
무시	-10.5838
▁갖다	-10.5838
▁어디가	-10.5843
▁없게	-10.5846
▁소장하고	-10.5846
편집	-10.5847
▁백인	-10.585
▁넘어가	-10.5852
재미있다	-10.5853
▁전화	-10.5858
물론	-10.5859
▁훈훈하	-10.5859
덩	-10.5861
▁아무생각없이	-10.5861
웟	-10.5861
인상깊었	-10.5861
▁내생애	-10.5861
▁러브라인	-10.5862
▁삭제	-10.5862
▁아쉬울	-10.5862
▁걱정	-10.5862
▁감명깊게	-10.5863
▁창피	-10.5863
▁맡은	-10.5866
▁축구	-10.5866
▁보시면	-10.5866
▁빛나는	-10.5866
▁만화책	-10.5867
▁고딩	-10.5868
▁각색	-10.5868
▁상어	-10.587
▁14	-10.5871
▁만약	-10.5871
▁믿고보는	-10.5873
▁거북	-10.5879
▁볼만합니다	-10.5881
당하는	-10.5881
▁도시	-10.5881
▁던져	-10.5884
▁ᄏᄏᄏᄏᄏᄏᄏᄏ	-10.5885
신분들	-10.5886
▁첨부터	-10.5888
▁감명	-10.589
▁나오는데	-10.5891
▁보았는데	-10.5894
묘하게	-10.5895
▁돼지	-10.5896
해지고	-10.5901
▁친구랑	-10.5902
▁치유	-10.5903
▁아이유	-10.5908
▁최소한	-10.5911
▁적절한	-10.5916
▁없나요	-10.592
져요	-10.592
시킬	-10.5925
▁비중	-10.5927
뻔했다	-10.5933
▁마지막회	-10.5935
할수있는	-10.5937
▁파리	-10.5946
▁뭐임	-10.5949
됐는데	-10.5952
▁편안	-10.5957
▁짜증나게	-10.5964
▁사랑한다	-10.5965
▁예술영화	-10.5966
▁살았	-10.5968
볼까	-10.5978
등록	-10.598
▁날아	-10.5987
최악의영화	-10.5987
갖	-10.5993
▁재미있는데	-10.5997
텐	-10.6002
평론가	-10.6005
귀엽	-10.6006
그렇게	-10.6006
델	-10.601
웃겨	-10.6013
▁여자애	-10.6016
유리	-10.6028
맞아	-10.6031
시장	-10.6033
주기도	-10.6034
으시	-10.6037
▁쩌는	-10.6044
귀신	-10.6046
▁빛을	-10.6046
▁한방	-10.605
립니다	-10.6055
앵	-10.6056
뱀	-10.6057
▁디카프리오	-10.6057
▁웰메이드	-10.6057
▁풋풋한	-10.6057
홈	-10.6057
▁박중훈	-10.6057
▁왕조현	-10.6057
▁어두운	-10.6058
렀	-10.6058
▁이소룡	-10.6058
▁명복을	-10.6058
셜	-10.6058
▁블랙코미디	-10.6059
▁헛웃음	-10.6059
▁그려낸	-10.6061
▁이도저도	-10.6061
▁왠만한	-10.6062
▁명대사	-10.6062
▁못보겠다	-10.6062
un	-10.6063
▁보라고	-10.6064
▁그림체	-10.6066
아아아	-10.6067
▁상영관	-10.6069
▁전체적인	-10.6069
안된다	-10.607
합시다	-10.607
습니까	-10.607
▁부족함	-10.6071
▁드림	-10.6072
것같은데	-10.6072
▁서울	-10.6074
▁만들어낸	-10.6076
▁거지같은	-10.6077
있어요	-10.6077
밖	-10.6082
▁괜찮아	-10.6085
찾아	-10.6088
▁되는데	-10.6091
▁대사들	-10.6094
▁보았던	-10.6095
하시고	-10.6099
▁재밌었던	-10.6101
▁장난치	-10.6103
간만에	-10.6105
▁남성	-10.6116
▁반영	-10.6127
▁삶과	-10.6138
▁유치해서	-10.6149
영활	-10.615
후반	-10.615
▁매미	-10.6155
▁탄탄	-10.6165
▁김치	-10.618
▁재난	-10.6188
▁배경으로	-10.6194
▁만난	-10.6195
엇음	-10.62
▁황당한	-10.6209
et	-10.6216
▁다시보고	-10.6217
여운	-10.6219
도좋고	-10.6221
애들은	-10.6224
선택	-10.6225
같아	-10.6234
소재와	-10.6237
윈	-10.6244
▁극중	-10.6245
재미있어요	-10.6248
것같아	-10.6249
행복	-10.6254
!!!!!!!!!	-10.6255
콤	-10.6256
덮	-10.6257
룰	-10.6257
미스테리	-10.6257
킴	-10.6257
혔	-10.6257
▁깡패	-10.6258
▁빨갱이	-10.6258
▁이병헌	-10.6258
▁브루스	-10.6258
▁미스터리	-10.6258
▁제시카	-10.6258
▁호기심	-10.6258
잊지못할	-10.6258
여러모로	-10.6258
마누라	-10.6259
▁예측	-10.6259
▁중학생	-10.6268
▁무엇인가	-10.6276
▁놀란	-10.6278
▁100%	-10.6282
▁충격적인	-10.6288
▁기존	-10.6289
▁재미있었는데	-10.6294
▁멋있었	-10.6299
▁답답하다	-10.6306
▁순수하고	-10.6308
▁시작부터	-10.6309
▁알았음	-10.6313
▁진지한	-10.6319
▁인상적인	-10.6321
스톤	-10.6325
효과	-10.6331
숨	-10.6332
브리	-10.6337
▁불쌍하	-10.6337
셔야	-10.6338
▁만화영화	-10.6346
▁책으로	-10.6354
▁선사	-10.6356
▁별로였다	-10.6375
▁와닿는	-10.6381
거같아	-10.6389
비추	-10.6396
▁찾아서	-10.6401
▁ᄒᄃᄃ	-10.6413
la	-10.6424
▁볼만했다	-10.6426
▁안좋아	-10.6427
TV	-10.6428
아직도	-10.6429
우리나라	-10.643
▁이거보다	-10.6435
경찰	-10.644
▁허술한	-10.6442
쯔	-10.6461
▁류승범	-10.6462
▁엔딩크레딧	-10.6462
랴	-10.6462
▁신하균	-10.6462
▁박보영	-10.6462
▁비호감	-10.6462
▁하이틴	-10.6462
▁혐오	-10.6462
▁비행기	-10.6462
▁니콜	-10.6462
▁쓸쓸	-10.6463
▁혁명	-10.6463
괜찬	-10.6463
▁어설프다	-10.6464
▁읽고	-10.6467
▁일부	-10.6469
▁로빈	-10.6471
▁철저	-10.6471
답니다	-10.6472
▁만들었을까	-10.6473
▁동네	-10.6477
▁재미있었습니다	-10.6478
▁흘러가는	-10.6478
▁기적	-10.6481
▁강력	-10.6482
▁진지하게	-10.6484
▁그것을	-10.6488
▁괜찮았음	-10.6495
▁울었어요	-10.6495
▁미안하다	-10.6497
▁살아야	-10.6503
▁안될	-10.6507
아까운영화	-10.6509
▁언제까지	-10.6513
▁여배우들	-10.6523
▁아까워서	-10.6527
포드	-10.6534
▁강간	-10.6544
아니면	-10.6544
▁잠시	-10.6549
▁고마	-10.6551
다큐	-10.6557
▁낚이	-10.6558
였네요	-10.6559
▁방해	-10.6559
90	-10.6565
지못한	-10.6569
▁무섭지	-10.6574
터짐	-10.6585
▁가히	-10.6587
외엔	-10.6593
당신	-10.6599
▁어쩌면	-10.6599
▁두시간	-10.66
▁아프다	-10.6609
am	-10.6614
외에는	-10.6618
생기고	-10.6638
▁괜찮게	-10.6643
칼	-10.6643
그나마	-10.6645
▁않으	-10.6647
졌으면	-10.6665
。	-10.667
덴	-10.667
퀄	-10.667
▁컴퓨터	-10.667
▁흡입력	-10.667
뺏	-10.667
푼	-10.667
▁스타워즈	-10.667
▁가까운	-10.667
▁도데체	-10.667
▁ᄌᄂ	-10.667
▁무거운	-10.667
▁닥치고	-10.667
머릿속	-10.6671
결국	-10.6671
▁블루	-10.6672
▁장애인	-10.6672
▁질질끌	-10.6672
▁듣기	-10.6676
▁은근히	-10.6677
▁장난하냐	-10.6677
▁라스트	-10.6679
▁부활	-10.6682
▁절망	-10.6682
▁요새	-10.6683
▁은근	-10.6683
▁담담	-10.6684
▁보여줄	-10.6687
▁시기	-10.6689
▁속았다	-10.6693
▁말하려는	-10.6694
al	-10.6696
▁오글거리는	-10.6698
▁조낸	-10.6699
▁가짜	-10.67
▁다행이다	-10.6701
▁소통	-10.6705
더군	-10.6709
점만점에	-10.6712
▁산만하고	-10.6714
▁마음속	-10.6715
▁볼것	-10.6715
해줄	-10.6721
있네요	-10.6722
▁하드	-10.6724
▁기대이하	-10.6733
느냐	-10.6735
▁말밖에	-10.6742
▁사랑해요	-10.6745
▁그리워	-10.6757
▁표현할	-10.6759
편까지	-10.676
▁보겠다	-10.6766
같아요	-10.678
줄알았다	-10.6786
돌려	-10.6789
▁끝나서	-10.679
▁졸았	-10.6798
▁쩔어	-10.6802
ᄏᄏᄏᄏᄏᄏ	-10.6806
▁빠졌	-10.6829
▁절로	-10.6832
▁형편없는	-10.6835
▁슬픈영화	-10.6841
작이라	-10.6846
▁막판	-10.6852
겼다	-10.6858
하나하나가	-10.6864
얼마나	-10.6867
CG	-10.6868
스럽지	-10.6868
tv	-10.6876
스코	-10.6876
광구	-10.6876
갠	-10.688
뭉	-10.6883
핫	-10.6883
▁빕니다	-10.6883
▁유치찬란	-10.6883
▁클래식	-10.6883
얄	-10.6883
헉	-10.6883
▁아기자기	-10.6883
▁아름다워	-10.6883
▁아마추어	-10.6883
뿜	-10.6883
츄	-10.6883
▁떡밥	-10.6883
쯧쯧	-10.6883
▁라이언	-10.6883
차승원	-10.6883
▁데뷔	-10.6883
▁두고두고	-10.6883
▁정우성	-10.6883
▁is	-10.6884
▁온갖	-10.6884
▁엄청나게	-10.6884
▁스파이	-10.6884
▁역겨운	-10.6885
보신분들	-10.6885
▁밝혀	-10.6885
▁잃은	-10.6887
▁생각해보게	-10.6887
▁민족	-10.6887
▁되야	-10.689
▁동영상	-10.6891
▁밑도	-10.6891
▁방향	-10.6891
▁말씀	-10.6894
▁받았다	-10.6897
▁아만다	-10.6907
▁마지막엔	-10.691
▁가족애	-10.6919
▁잃었	-10.6921
▁작화	-10.6924
▁그렇지만	-10.6946
▁말투	-10.6949
!!!!!!!!!!!!	-10.6955
하하하하	-10.6959
못함	-10.6961
▁한번더	-10.6962
▁만들었나	-10.6963
돈아깝	-10.6964
▁사람에게	-10.6972
▁대학	-10.6983
지루하고	-10.6988
▁연상	-10.7003
ro	-10.7008
▁하나님	-10.7012
오로라	-10.7017
▁보아도	-10.7021
속으로	-10.7036
▁있기	-10.7062
▁조연들	-10.7066
▁다시보기	-10.707
▁기대하지	-10.7075
▁원하는	-10.7083
롯	-10.7094
ch	-10.7099
▁시종일관	-10.71
넬	-10.71
쉐	-10.71
쉴	-10.71
튜	-10.71
▁EBS	-10.71
욤	-10.71
▁미스캐스팅	-10.71
▁브래드	-10.71
▁납득	-10.71
▁강동원	-10.71
▁배급사	-10.71
▁케빈	-10.7101
▁둘째치고	-10.7101
▁직업	-10.7101
▁엽기	-10.7102
▁2012	-10.7103
▁분량	-10.7106
▁잔잔함	-10.7106
형사	-10.7107
▁혼란	-10.7111
별한개	-10.7114
▁에효	-10.7114
▁충분하다	-10.7117
시간동안	-10.7126
▁프랑스영화	-10.7127
▁흥분	-10.7132
잭슨	-10.7132
전혀	-10.7143
기술	-10.7144
▁사랑스럽고	-10.7148
햇는데	-10.7149
▁챙겨보	-10.7151
자꾸	-10.7152
▁멋지게	-10.7156
▁분장	-10.7159
거에요	-10.716
▁사랑스럽다	-10.7168
▁감동적이네요	-10.7179
▁우선	-10.7185
▁스릴러물	-10.7186
믿고	-10.7199
▁허무한	-10.7201
여배우	-10.7203
▁좋아하지만	-10.7206
있을까	-10.7207
▁전편보다	-10.7219
아이들	-10.7225
▁비교해	-10.7237
▁세상에서	-10.7251
▁심하다	-10.7253
였다면	-10.7253
▁이상하다	-10.7262
▁처음이네	-10.7269
▁어디로	-10.7294
까봐	-10.7301
측	-10.7319
퉁	-10.7322
퀸	-10.7322
▁비쥬얼	-10.7322
▁즐거움	-10.7322
듦	-10.7322
밧	-10.7322
▁뒤죽박죽	-10.7322
겻	-10.7322
렛	-10.7322
맴	-10.7322
캠	-10.7322
▁객관적	-10.7322
▁말그대로	-10.7322
▁워낙	-10.7322
▁즐길	-10.7323
▁킬러	-10.7323
com	-10.7324
▁오글오글	-10.7324
▁레옹	-10.7325
▁낭만	-10.7325
▁모르지만	-10.7326
▁풀어낸	-10.7326
판타지	-10.7327
▁미쳐	-10.7328
▁케미	-10.7328
▁구분	-10.733
▁낫겠다	-10.7331
남긴다	-10.7331
였구나	-10.7332
▁시험	-10.7332
▁따름	-10.7333
나왔으면	-10.7334
ter	-10.7341
▁중년	-10.7342
예술	-10.7343
▁영원	-10.7345
▁한심하다	-10.7346
▁장난하나	-10.7347
▁군인	-10.7355
▁있긴	-10.7355
각본	-10.7359
부리	-10.736
ma	-10.7361
으러	-10.7362
허무	-10.7365
▁학생들	-10.7365
▁맞나	-10.7367
것같네요	-10.7368
재미없어	-10.7369
▁완벽하다	-10.7378
▁망할	-10.7385
▁첨이다	-10.7386
▁넘넘	-10.7388
▁당장	-10.7388
▁소름끼치는	-10.7393
▁회사	-10.74
▁다시금	-10.7406
▁두명	-10.7415
▁잼있네요	-10.7424
▁말아야	-10.7428
였네	-10.7437
▁욕먹	-10.744
▁자연스럽	-10.7442
▁멋져	-10.7445
그저	-10.7448
만들었냐	-10.7448
살때	-10.7452
▁눈치	-10.7462
점주기도	-10.7475
▁본격	-10.7477
긴했지만	-10.7479
▁실망스럽	-10.7482
망작	-10.7487
행위	-10.7489
ᄏᄏᄏᄏᄏᄏᄏ	-10.7501
당시엔	-10.7515
▁않았던	-10.7517
▁잘생겼	-10.752
부르	-10.7521
▁전문	-10.7532
뻔함	-10.7533
둑	-10.7546
▁고등학생	-10.755
덧	-10.755
됫	-10.755
밟	-10.755
띠	-10.755
뻣	-10.755
좆	-10.755
▁바탕으로	-10.755
▁드디어	-10.755
▁화끈한	-10.755
▁안타까움	-10.755
▁피아노	-10.755
▁조잡한	-10.755
▁기발한	-10.755
▁격투	-10.7551
▁무간도	-10.7551
▁극혐	-10.7551
▁더러워	-10.7552
▁슈퍼맨	-10.7553
▁난해한	-10.7553
시켰	-10.7555
▁오래전에	-10.7555
페이스	-10.7557
▁배꼽	-10.7558
▁묘한	-10.7559
▁재앙	-10.756
▁좋겠습니다	-10.7563
핵	-10.7563
프로그램	-10.7564
▁개콘	-10.7565
채널	-10.7567
▁모욕	-10.757
▁실사	-10.7571
달라고	-10.7573
us	-10.7585
▁알게되	-10.7586
▁보게되는	-10.7587
▁웃었다	-10.7589
죽이고	-10.7598
▁안나옴	-10.7599
억지스럽	-10.7607
라이트	-10.7609
그런데	-10.7609
여주인공	-10.7616
되길	-10.762
▁위트	-10.7621
▁어이없음	-10.7625
▁공유	-10.7629
▁또보고싶	-10.7631
▁아니잖아	-10.7644
투성이	-10.7648
▁모르겠네	-10.7653
실력	-10.7654
▁몰아	-10.7664
ost	-10.7673
ri	-10.7679
▁살리지	-10.7681
▁인류	-10.7684
아침드라마	-10.7699
▁넘어서	-10.7703
▁사회적	-10.7741
겠어	-10.7745
▁흉내	-10.7754
닮	-10.7763
ic	-10.7769
싶은데	-10.7779
닫	-10.7781
▁킬링	-10.7782
맺	-10.7782
팝	-10.7782
얀	-10.7782
▁놀랐다	-10.7782
▁듭니다	-10.7782
▁호불호가	-10.7782
밉	-10.7782
캡	-10.7782
▁김수현	-10.7782
▁애초에	-10.7782
▁입장에서	-10.7782
드려요	-10.7783
▁쉬운	-10.7783
클라라	-10.7784
▁리암	-10.7786
▁도둑	-10.7786
▁돌아보게	-10.7787
▁감동적이에요	-10.7789
▁세련	-10.7791
▁좋으나	-10.7793
▁못하겠다	-10.7801
▁채워	-10.7807
첫	-10.7808
▁귀여워요	-10.781
▁신선함	-10.781
▁다운받아서	-10.7814
▁빠질	-10.7815
cg	-10.7816
보고나서	-10.7817
그녀	-10.7818
▁싶습니다	-10.782
이후로	-10.7823
저런	-10.7824
▁비록	-10.7825
▁극본	-10.7825
▁봐주	-10.7825
▁망쳐놓	-10.7825
▁안나온다	-10.7832
보지마라	-10.7833
▁부산	-10.7836
▁미녀	-10.7838
극히	-10.7845
▁화질	-10.7857
▁단점	-10.7861
▁우린	-10.7865
좋은데	-10.7867
▁이딴영화	-10.7869
줘요	-10.7869
져야	-10.7871
▁기대했던	-10.7874
▁언어	-10.7879
▁무섭게	-10.7889
복수	-10.7902
▁느껴지지	-10.7915
ra	-10.7924
▁제작자	-10.7932
월드	-10.7933
▁신화	-10.7943
▁범죄자	-10.7945
맞음	-10.7948
▁재미없네요	-10.7948
해야하나	-10.796
▁받아야	-10.7991
스탈	-10.7993
하더니	-10.8014
▁독립	-10.8017
챙	-10.8017
혐	-10.8018
댓	-10.8018
☆	-10.802
▁알파치노	-10.802
븐	-10.802
뻑	-10.802
셧	-10.802
쏴	-10.802
퉤	-10.802
Y	-10.802
▁섬뜩	-10.802
왈	-10.802
잣	-10.802
▁한석규	-10.802
▁베드신	-10.802
▁김혜수	-10.802
▁귀여웠	-10.802
▁칭찬	-10.802
▁섬세하	-10.802
▁일주일	-10.8021
▁뻔하다	-10.8021
옵니다	-10.8021
▁귀찮	-10.8022
▁살렸다	-10.803
▁연습	-10.8033
▁감동적입니다	-10.8033
▁초반엔	-10.8035
▁개꿀잼	-10.8037
▁로망	-10.8042
▁고증	-10.8044
▁말인가	-10.8045
굿굿굿	-10.8047
▁늙어	-10.8048
멋잇	-10.805
▁살아남	-10.8053
옷	-10.8056
멀	-10.8058
▁매번	-10.8059
될까	-10.8061
▁재미있었음	-10.8063
초딩	-10.8064
▁아이들에게	-10.8064
예쁘	-10.8064
병맛	-10.8068
셨으면	-10.8075
피디	-10.808
▁일반인	-10.8083
▁나와야	-10.8083
▁불쌍해	-10.8092
▁믿음	-10.8094
▁한동안	-10.8095
올려	-10.8095
▁있으나	-10.8096
구역	-10.8108
잘못	-10.811
누구	-10.8114
▁잔인함	-10.8118
▁괜찮네요	-10.8121
▁건질	-10.8125
▁흔하	-10.8136
▁만들었으면	-10.8146
▁모자라	-10.815
▁지키	-10.8156
▁싫어하는	-10.816
▁커버	-10.8166
봣어요	-10.8171
있었는데	-10.8199
▁반감	-10.8221
졌음	-10.8231
28	-10.8244
감명깊	-10.8263
▁깨달	-10.8263
▁캐릭	-10.8264
뜸	-10.8264
숲	-10.8264
팩	-10.8264
▁군더더기	-10.8264
▁섬세한	-10.8264
톡	-10.8264
▁원숭이	-10.8264
▁한효주	-10.8264
▁커녕	-10.8265
▁색채	-10.8265
흑흑	-10.8266
▁향연	-10.8266
▁그럴싸	-10.8266
▁들어간	-10.8267
해가는	-10.8267
했어야	-10.8268
▁승부	-10.8268
▁억지스럽고	-10.8271
▁픽사	-10.8271
▁사이코	-10.8274
▁마시길	-10.8275
▁심심하	-10.828
▁느껴졌	-10.828
▁세계관	-10.8282
▁인권	-10.8284
분짜리	-10.8289
▁거짓	-10.829
▁마법	-10.8301
▁웃다가	-10.8304
▁유발	-10.8305
▁있겠지만	-10.8306
▁오그라들	-10.8306
흥미롭	-10.8307
▁음모	-10.8307
낭비	-10.8311
쩝	-10.8313
묻	-10.8314
시청률	-10.8314
▁독특하고	-10.8314
댓글	-10.8316
▁역사상	-10.8321
▁준비	-10.8329
▁해피	-10.8335
▁포함	-10.8342
학원	-10.8343
할정도로	-10.8344
천재	-10.8347
엉성	-10.8349
▁광기	-10.8357
보길	-10.8369
지루하다	-10.8388
하고싶다	-10.839
▁개봉당시	-10.839
진행	-10.8409
18	-10.8418
▁충분한	-10.8429
▁완성	-10.843
국민	-10.8436
▁못만들	-10.8463
▁안가는	-10.8471
▁짜증났	-10.8477
팬이라	-10.8493
녕	-10.8494
야말로	-10.8498
랍니다	-10.8513
▁가볍지	-10.8514
▁뒤늦게	-10.8514
▁어정쩡	-10.8514
▁점수준것들	-10.8514
▁크레딧	-10.8514
뚫	-10.8514
뜯	-10.8514
믄	-10.8514
▁데이빗	-10.8514
▁펼쳐	-10.8514
▁설경구	-10.8514
▁원피스	-10.8514
▁검색해	-10.8515
▁스타뎀	-10.8515
▁정체성	-10.8515
▁심각하게	-10.8515
▁니콜라스	-10.8515
▁바란다	-10.8515
▁거기서	-10.8515
▁총체적	-10.8515
▁크리스찬	-10.8516
▁나타나	-10.8518
▁자연스러운	-10.8519
▁엘리	-10.852
깨끗	-10.852
▁힘들어	-10.8526
▁한가지	-10.8532
▁간직	-10.8534
스틴	-10.8537
▁기억난다	-10.8542
▁재밌었습니다	-10.8543
▁괜찮았던	-10.8543
▁경계	-10.8545
▁흉내내	-10.8546
▁회상	-10.8549
▁고문	-10.8551
▁자연스럽게	-10.8553
▁성형	-10.8553
▁무협영화	-10.8555
▁기대된다	-10.8559
▁편인데	-10.8562
▁재방	-10.8564
▁시청자들	-10.8566
장님	-10.8567
오르는	-10.8567
부끄러운	-10.8572
한텐	-10.8572
▁커서	-10.8574
샘	-10.8576
킬링타임	-10.8577
덕분에	-10.8577
썩	-10.8577
특유의	-10.8577
애니메이션	-10.8578
로맨스	-10.8579
▁있어보이	-10.8579
암튼	-10.8581
▁모방	-10.8582
결혼	-10.8583
▁느껴졌다	-10.8584
▁몰입하게	-10.8587
▁쓰러	-10.8588
넘치는	-10.8592
▁막상	-10.8615
▁팬들	-10.8619
때리고	-10.862
▁최고최고	-10.8621
▁낮네요	-10.8625
▁역작	-10.8629
▁얻어	-10.8632
첨으로	-10.8638
아닌데	-10.8644
▁천사	-10.8651
▁낚인	-10.8665
충격	-10.8665
줄거리	-10.8673
쓴다	-10.8674
▁스릴감	-10.8674
▁당황	-10.8678
삼류	-10.8683
▁틀어주	-10.8688
▁새벽	-10.8707
▁보게되었	-10.871
▁이것보다	-10.8724
지않을	-10.873
오글거리	-10.8758
냄	-10.8769
쿡	-10.877
줫	-10.8771
▁런닝타임	-10.8771
▁아이언맨	-10.8771
▁오글거림	-10.8771
곁	-10.8771
짙	-10.8771
쭈	-10.8771
▁마찬가지	-10.8771
▁완젼	-10.8771
▁감성팔이	-10.8771
▁나루토	-10.8771
▁어딘가	-10.8771
▁픽션	-10.8771
▁아바타	-10.8771
▁오그라드는	-10.8771
소지섭	-10.8771
▁로맨틱코미디	-10.8773
il	-10.8774
▁에라이	-10.8775
▁4.44	-10.8775
▁세련된	-10.8776
▁못미치	-10.8777
▁공룡	-10.8779
vs	-10.8781
▁재탕	-10.8781
▁먹칠	-10.8782
▁경악	-10.8787
▁운동	-10.8788
▁안녕	-10.8791
▁개똥	-10.8792
예뻐	-10.8793
▁느껴질	-10.8798
▁채우	-10.8801
▁스포	-10.8805
▁강추합니다	-10.8807
▁어린아이	-10.8812
▁소소하	-10.8813
학년때	-10.8814
▁연기잘하	-10.8822
▁이은주	-10.8822
▁않겠	-10.8824
▁마녀	-10.8828
▁주온	-10.8828
▁시체	-10.883
모델	-10.8834
▁니네	-10.8835
더럽게	-10.8849
▁우리에게	-10.8851
직원	-10.8852
▁편하게	-10.8857
어떤	-10.8861
▁다가오	-10.8861
▁상업영화	-10.8869
노출	-10.8879
▁나왔던	-10.8899
누님	-10.8911
문제를	-10.8955
상관없	-10.8955
▁끝날	-10.8966
▁미국식	-10.8969
것같음	-10.9013
룬	-10.9014
어설프	-10.9027
첩	-10.9031
▁봐야한다	-10.9032
킥	-10.9034
팽	-10.9034
▁박찬욱	-10.9034
▁테이큰	-10.9034
늬	-10.9034
턱	-10.9034
훔	-10.9034
▁심리묘사	-10.9034
쇄	-10.9034
▁가슴아픈	-10.9034
랏	-10.9034
▁스페인	-10.9034
▁가슴아프	-10.9034
▁나머진	-10.9034
▁후속편	-10.9034
어울림	-10.9034
점준것중	-10.9034
▁굳굳	-10.9035
▁택시	-10.9036
▁문득	-10.9038
▁파격적	-10.9039
▁찬양	-10.904
▁새삼	-10.9041
▁개그맨	-10.9041
▁억지스런	-10.9041
▁흘렸	-10.9042
▁욕나온다	-10.9042
할게요	-10.9043
▁과장된	-10.9044
▁발랄	-10.9045
▁생존	-10.9046
▁내취향	-10.9046
▁지브리	-10.9047
▁시골	-10.9047
▁좋아하시는	-10.9047
▁또라이	-10.9054
▁에로물	-10.9054
▁동화같은	-10.9054
▁소품	-10.9056
▁적극	-10.9059
▁재미없었음	-10.9065
▁결국엔	-10.9066
▁모순	-10.9066
▁일찍	-10.9068
▁십점	-10.9068
▁주고싶다	-10.9071
▁최후	-10.9074
말도안되	-10.9076
▁이런식으로	-10.9078
▁최고에요	-10.9085
▁않습니다	-10.9093
▁상식	-10.9095
▁있었습니다	-10.9096
▁인연	-10.9098
▁외국인	-10.9112
▁모든것이	-10.9112
▁끝남	-10.9117
취향	-10.9118
옛날	-10.9122
탁월한	-10.9123
무서운	-10.9126
폭력	-10.9136
123	-10.9154
분들께	-10.9155
웃긴	-10.9162
멋진	-10.9164
▁흐르	-10.9168
▁되어야	-10.9173
60	-10.9174
하지않고	-10.9194
▁해외	-10.9195
었을텐데	-10.9201
▁맛있	-10.9203
▁만세	-10.9207
▁ᄏᄏᄏᄏᄏᄏᄏᄏᄏᄏᄏᄏᄏᄏᄏ	-10.9208
▁소름끼치	-10.9218
마르	-10.9256
▁없을까	-10.9286
▁오랜	-10.9287
▁좋더라	-10.9288
깐	-10.9299
넷	-10.9304
텅	-10.9304
^_^	-10.9304
▁굉장한	-10.9304
▁소피마르소	-10.9304
▁엉터리	-10.9304
▁영웅본색	-10.9304
겸	-10.9304
꽁	-10.9304
▁애니매이션	-10.9304
▁엄정화	-10.9304
▁정확히	-10.9304
▁오페라	-10.9304
▁콜린	-10.9305
▁다니엘	-10.9305
▁지겨워	-10.9305
▁예뻐서	-10.9305
▁끊임없	-10.9305
▁관람객	-10.9306
▁흥미롭게	-10.9306
안쓰는데	-10.9307
▁망쳐	-10.9307
▁전성기	-10.9307
▁늙은	-10.9308
▁기다렸	-10.9308
▁호흡	-10.9308
ᄀᄀ	-10.9308
밴드	-10.9312
▁여태까지	-10.9314
▁반갑	-10.932
▁여태	-10.9322
▁개인적인	-10.9322
▁번역	-10.9323
▁태국	-10.9325
▁멋져요	-10.9327
▁복선	-10.9327
감독에게	-10.9331
▁감동적이었다	-10.9331
▁처음본다	-10.9333
▁지옥	-10.9337
잼씀	-10.9344
▁레오	-10.9352
환상적인	-10.9355
▁조악	-10.9356
똑같	-10.9359
▁만든건지	-10.9369
▁야하지도	-10.9382
▁꼭봐야	-10.9387
쓰렉	-10.9387
것인지	-10.9387
▁법정	-10.9388
코메디	-10.9398
마무리	-10.9413
무서워	-10.9413
네이버	-10.9416
이필요	-10.9417
고싶었	-10.942
▁데려다	-10.942
힘든	-10.942
▁형식	-10.9444
빡치	-10.9462
끝내	-10.9464
▁않으면	-10.9479
very	-10.9498
작가님	-10.9508
엇어요	-10.9518
몇번	-10.9522
나봐요	-10.9525
양반	-10.9532
▁배우분들	-10.9546
▁못봐주겠	-10.9547
▁깨닫	-10.9549
▁등장하는	-10.9558
보기엔	-10.956
봇	-10.958
드래곤	-10.9582
깡	-10.9582
숀	-10.9582
****	-10.9582
뚜	-10.9582
런닝맨	-10.9582
뼈	-10.9582
즉	-10.9582
▁스필버그	-10.9582
녁	-10.9582
떳	-10.9582
▁2.22	-10.9582
▁국어책	-10.9582
▁짬뽕	-10.9582
▁팝콘	-10.9582
▁그냥저냥	-10.9582
▁어차피	-10.9582
아카데미	-10.9582
▁멘탈	-10.9582
▁드래곤볼	-10.9582
▁외로움	-10.9582
▁보낸다	-10.9582
▁수면제	-10.9583
▁젊음	-10.9583
▁가까이	-10.9583
▁어설프게	-10.9583
▁뉴스	-10.9584
▁갖춘	-10.9585
▁이기적인	-10.9585
▁2015	-10.9586
▁말이필요없다	-10.9586
밖엔	-10.9586
▁환장	-10.9587
▁각각	-10.9587
▁이민기	-10.9588
▁중후반	-10.9589
▁나올까	-10.959
바른	-10.9593
▁국산	-10.9596
▁음향	-10.9598
▁깨달음	-10.9598
▁지루했음	-10.9599
줄알고	-10.9602
▁돈벌	-10.9602
▁모독	-10.9604
▁감동적임	-10.9605
▁아쉬웠지만	-10.9611
▁의견	-10.9612
▁부각	-10.9613
▁분명히	-10.9613
▁더욱더	-10.9614
▁아깝습니다	-10.9615
▁되었습니다	-10.9619
▁귀여워서	-10.962
▁의미있는	-10.9622
더라고요	-10.9646
▁로마	-10.9654
만드나	-10.9657
▁가관	-10.9659
▁알아야	-10.9661
op	-10.9687
▁돌아오	-10.969
▁풀어내	-10.9698
▁재수없	-10.9703
촬영	-10.9707
볼때마다	-10.9715
실패	-10.9721
95	-10.9729
평생	-10.9742
▁찍으	-10.9756
억울	-10.9763
▁허무함	-10.9799
만들엇	-10.9802
▁-_-;;	-10.9808
구먼	-10.986
밋	-10.9861
뎀	-10.9867
띵	-10.9867
템	-10.9867
윽	-10.9867
▁도라에몽	-10.9867
▁학창시절	-10.9867
꽉	-10.9867
넓	-10.9867
삘	-10.9867
쩍	-10.9867
훗	-10.9867
▁다이하드	-10.9867
겄	-10.9867
쇠	-10.9867
▁손예진	-10.9867
▁최민식	-10.9867
▁깜놀	-10.9868
▁정당화	-10.9868
▁영향을	-10.9868
▁최민수	-10.9868
▁흠잡을	-10.9868
▁임청하	-10.9868
▁어지럽	-10.9868
▁드니로	-10.9868
▁스킵	-10.9868
▁엠마	-10.9868
▁미친듯이	-10.9869
▁낚여서	-10.987
설명	-10.9871
><	-10.9871
▁첫번째	-10.9871
▁찢어	-10.9872
▁닮았	-10.9874
▁패션	-10.9876
헌터	-10.9876
▁웃으며	-10.9878
▁열광	-10.9879
▁제정신	-10.9881
▁치료	-10.9881
▁히트	-10.9881
▁실패작	-10.9884
▁출발	-10.9887
재밋엇	-10.9888
▁중반부터	-10.9891
▁만날	-10.9904
▁초반부터	-10.9905
▁인간적으로	-10.9911
▁울림	-10.9915
▁도중에	-10.9916
▁보고싶은데	-10.9919
▁서정	-10.992
▁마블	-10.9921
▁하던가	-10.9923
CGV	-10.9929
▁어린애	-10.993
따뜻해지	-10.9945
▁청년	-10.9964
▁따뜻해	-10.9967
많은것을	-10.9975
▁go	-10.9992
▁장난감	-11.0002
잘봤습니다	-11.0008
오랜만에	-11.0009
ᄉᄇ	-11.0011
하지않은	-11.0071
같애	-11.0093
것도아니고	-11.0096
전체적	-11.0106
▁비교하면	-11.0107
av	-11.0108
하려면	-11.0129
딜	-11.0156
▁일깨워	-11.0159
웰	-11.0162
▁시끄럽	-11.0162
http	-11.0162
▁MBC	-11.0162
▁겨울왕국	-11.0162
▁구혜선	-11.0162
▁어쨌든	-11.0162
▁에드워드	-11.0162
뎌	-11.0162
젝	-11.0162
탠	-11.0162
펠	-11.0162
ᄐ	-11.0162
▁힙합	-11.0162
그나저나	-11.0162
▁정주행	-11.0162
▁멈추	-11.0162
▁일어날	-11.0162
▁왕가위	-11.0162
▁의외의	-11.0162
생겨서	-11.0162
▁히어로물	-11.0162
▁컬트	-11.0162
▁이정재	-11.0162
깁니다	-11.0163
▁슬퍼요	-11.0164
▁학살	-11.0164
▁보여줌	-11.0165
▁안성기	-11.0166
땜시	-11.0167
▁직장	-11.0167
▁러브스토리	-11.0167
▁퇴보	-11.017
-.-	-11.0171
▁극찬	-11.0173
▁모자란	-11.0173
▁서극	-11.0175
▁요약	-11.0177
▁영광	-11.0179
▁신세계	-11.0179
▁빨간	-11.018
▁집단	-11.0186
▁한번씩	-11.0187
씩이나	-11.0188
▁남자라면	-11.019
보니깐	-11.0199
▁싶었는데	-11.0201
▁나오다니	-11.0202
타령	-11.0242
▁대학생	-11.0253
▁사라진	-11.029
끝날때까지	-11.029
귀여워	-11.0319
완벽	-11.0325
필름	-11.0333
ᄒᄒᄒᄒᄒ	-11.0334
▁따뜻함	-11.0361
지마시길	-11.0388
볼꺼	-11.0423
▁태어나	-11.0445
흉	-11.0464
뜩	-11.0464
뱅	-11.0464
삽	-11.0465
졋	-11.0465
▁트랜스포머	-11.0465
럿	-11.0465
썬	-11.0465
헝	-11.0465
▁매끄럽지	-11.0465
▁이탈리아	-11.0465
▁인상깊게	-11.0465
▁팀버튼	-11.0465
갇	-11.0465
봤을땐	-11.0465
▁싸이코패스	-11.0465
▁차태현	-11.0465
꾹	-11.0465
펴	-11.0465
▁덴젤	-11.0465
찜찜	-11.0465
///	-11.0465
▁완죤	-11.0465
▁지저분	-11.0465
▁함부로	-11.0465
▁손색이	-11.0465
▁2004	-11.0465
▁틀림없	-11.0465
▁담아내	-11.0465
▁안타까웠	-11.0466
▁냉정	-11.0466
▁8.5	-11.0466
▁쏘우	-11.0466
▁강아지	-11.0467
://	-11.0468
▁가해자	-11.0469
▁짱짱맨	-11.047
▁억지설정	-11.047
▁고마운	-11.0471
▁없으니	-11.0473
▁낮추	-11.0473
지않게	-11.0474
▁커피	-11.0476
▁허탈	-11.0477
▁산만하	-11.0479
▁재방송	-11.0479
▁197	-11.0479
▁시간아까워	-11.0482
▁교회	-11.0486
▁돈아깝다	-11.0491
▁어렸을적	-11.0492
▁몰입되	-11.0498
▁흥미롭지	-11.0499
▁늙었	-11.0503
▁감정선	-11.0504
▁제왕	-11.0504
▁미술	-11.0514
페이지	-11.0522
생략	-11.053
▁네이버평점	-11.0534
영화자체는	-11.0539
▁싶으면	-11.0581
▁꺼내	-11.0593
짓거리	-11.0615
원주고	-11.0619
모르겠다	-11.0624
▁존재감	-11.0642
쫌	-11.0643
갑자기	-11.0644
아름다운	-11.0644
그래픽	-11.0645
별반개도	-11.0654
보았습니다	-11.0658
보지마세요	-11.066
▁알게된	-11.0675
ul	-11.0682
▁어이가없	-11.0713
▁OOOO	-11.0716
궁금해	-11.0758
안타까	-11.0774
낌	-11.0775
랙	-11.0775
낄	-11.0776
릅	-11.0777
썰	-11.0777
궈	-11.0777
▁송혜교	-11.0777
▁엉덩이	-11.0777
▁카메론	-11.0777
뉘	-11.0777
묶	-11.0777
벙	-11.0777
▁끝판왕	-11.0777
▁황정민	-11.0777
The	-11.0777
▁간간히	-11.0777
▁뜨거운	-11.0777
▁웬만하면	-11.0777
▁나쁘진	-11.0777
습니당	-11.0777
▁베트남	-11.0777
▁김희선	-11.0777
▁윌리스	-11.0777
▁타이틀	-11.0777
▁색다르	-11.0777
▁엽문	-11.0777
▁징징	-11.0777
▁농담	-11.0777
▁솔까	-11.0778
까말까	-11.0778
▁색깔	-11.0778
▁닥터	-11.0778
▁스토리라인	-11.0782
▁짧게	-11.0782
▁담백하	-11.0782
▁람보	-11.0783
▁상당한	-11.0783
였으나	-11.079
▁성찰	-11.0791
▁복수극	-11.0792
▁닮아	-11.0792
노동자	-11.0793
▁몰락	-11.0794
▁재밌기만	-11.0799
▁질문	-11.0799
▁총알	-11.08
▁반응	-11.0802
▁일탈	-11.0806
▁실화라는	-11.0814
▁향한	-11.0816
지않나	-11.0817
▁첨이네	-11.0823
고싶지	-11.0826
▁아동용	-11.0828
▁불쌍해서	-11.0836
폭탄	-11.0869
▁생각해볼	-11.0879
-_	-11.0894
봣습니다	-11.0929
▁잃지	-11.0931
되지않	-11.0969
저예산	-11.0976
유쾌	-11.0995
선생님	-11.1002
♡♡♡	-11.1048
이건뭐	-11.1062
▁보러갔	-11.1084
믹	-11.1096
꿔	-11.1096
헨	-11.11
셉	-11.11
뎁	-11.11
썻	-11.11
▁best	-11.11
▁몰랐는데	-11.11
▁서스펜스	-11.11
▁송승헌	-11.11
▁숨막히	-11.11
▁슬펐다	-11.11
▁윌리엄	-11.11
둬	-11.11
웩	-11.11
켈	-11.11
▁말았어야	-11.11
▁어설퍼	-11.11
▁과대평가	-11.11
▁주상욱	-11.11
▁김민종	-11.11
▁두려움	-11.11
▁오우삼	-11.11
▁흑역사	-11.11
▁박평식	-11.11
▁어떠한	-11.11
▁여기저기	-11.11
▁ᄇᄉ	-11.11
▁찬사를	-11.11
스러울	-11.11
▁멀쩡	-11.11
▁비정상	-11.11
▁감수성	-11.11
▁암걸리	-11.1101
▁7.5	-11.1101
▁전도연	-11.1101
▁증명	-11.1102
ᄂᄂ	-11.1102
▁알게해준	-11.1103
▁오글거리고	-11.1103
▁성유리	-11.1105
▁감옥	-11.1107
십니다	-11.1111
▁장혁	-11.1111
창있네	-11.1113
▁몇번이나	-11.1114
점도아깝다	-11.1115
▁뭐랄까	-11.1117
흥미를	-11.1119
▁추락	-11.1121
▁존잼	-11.1122
강력추천	-11.1123
▁리메이크작	-11.1125
와이프	-11.1128
릇	-11.1151
합니까	-11.1166
▁향기	-11.1173
역활	-11.1194
♡♡	-11.1214
이번엔	-11.1215
배우님	-11.1221
스럽네	-11.1249
▁존재한다	-11.1275
넌	-11.132
개연성	-11.1322
불륜	-11.1325
왜이리	-11.1327
낮아서	-11.1328
▁사라졌	-11.1342
▁부끄러	-11.1355
▁조금씩	-11.1357
점만점	-11.1417
즌	-11.1417
▁뜬금	-11.1424
긍	-11.1433
칫	-11.1433
▁어우러진	-11.1433
▁채플린	-11.1433
▁컨저링	-11.1433
人	-11.1433
딕	-11.1433
밨	-11.1433
쉣	-11.1433
쉰	-11.1433
쌩	-11.1433
코스프레	-11.1433
펀	-11.1433
▁엉망진창	-11.1433
▁톰크루즈	-11.1433
맷	-11.1433
앜	-11.1433
▁사무라이	-11.1433
▁엑스맨	-11.1433
흰	-11.1433
▁자본주의	-11.1433
▁더더욱	-11.1433
▁긴박감	-11.1433
▁김명민	-11.1433
▁탕웨이	-11.1433
▁한쿡영화	-11.1433
똑똑	-11.1433
▁모성애	-11.1433
▁정신나간	-11.1433
▁못생겼	-11.1433
▁아이러니	-11.1433
▁유지태	-11.1434
▁그들만의	-11.1434
▁거슬리	-11.1434
▁플레이	-11.1434
▁위대함	-11.1435
파이팅	-11.1436
▁안타깝네요	-11.1436
▁증말	-11.1436
앵글	-11.1436
▁고인의	-11.1437
88	-11.1438
▁원작소설	-11.1439
2005	-11.1442
▁끝날때	-11.1443
▁에릭	-11.1448
▁대표적인	-11.1448
▁딱딱	-11.145
▁태양	-11.145
▁선정적	-11.1451
▁필요없음	-11.1452
▁웃어야	-11.1453
▁재료	-11.1455
▁소중하	-11.1477
재미가없	-11.1498
번씩	-11.1502
▁다시보고싶은	-11.1504
ᄍᄍᄍ	-11.1524
뻐	-11.1526
▁읽어보	-11.1529
▁사라져	-11.1544
라기보다	-11.1581
▁악평	-11.1633
▁환상적이	-11.1661
대단히	-11.1672
낙	-11.1677
카메라	-11.1678
훌륭한	-11.1679
진정한	-11.1683
시간낭비	-11.1684
조용히	-11.1701
젼	-11.1761
률	-11.1777
톨	-11.1778
▁임권택	-11.1778
룸	-11.1778
쏙	-11.1778
파라노말	-11.1778
▁모티브	-11.1778
▁양동근	-11.1778
▁키아누	-11.1778
▁뚝뚝	-11.1778
▁아프리카	-11.1778
▁박신양	-11.1778
▁기분좋게	-11.1778
▁조승우	-11.1778
▁신세경	-11.1778
▁장동건	-11.1778
▁멘붕	-11.1778
▁뉴욕	-11.1778
^.^	-11.1778
▁떨어졌	-11.1778
▁2003	-11.1779
▁납치	-11.1779
▁어울려	-11.1779
▁어지간	-11.1779
▁신민아	-11.1779
▁활용	-11.1779
▁흡사	-11.1779
▁퍼즐	-11.178
▁묘미	-11.178
▁안타까워	-11.178
▁가끔씩	-11.178
▁눈요기	-11.1782
▁죽기전에	-11.1783
▁돈낭비	-11.1784
▁어딜	-11.1784
▁바꾼	-11.1786
up	-11.1786
▁그럼에도	-11.1787
▁찾아볼수	-11.1789
and	-11.179
▁꺼져	-11.179
▁지나친	-11.1791
▁황금	-11.1793
▁않았을까	-11.1794
▁빠져들었	-11.1798
▁머리속	-11.1799
▁드문	-11.1799
▁돌려줘	-11.1805
팬이지만	-11.1863
▁터져	-11.1866
죽이는	-11.1868
▁초중반	-11.187
▁봐왔	-11.1875
▁잃어	-11.1901
▁사랑스럽	-11.2027
▁맞지않	-11.2043
OST	-11.2049
블랙	-11.205
이쁘고	-11.2054
슈퍼	-11.2057
흐름	-11.2058
잔인하	-11.2103
쎄	-11.2133
쌈	-11.2135
ᄊ	-11.2135
▁강렬하	-11.2135
▁고스란히	-11.2135
▁뮤직비디오	-11.2135
▁슬래셔	-11.2135
▁오리지널	-11.2135
▁움직이는	-11.2135
▁인터뷰	-11.2135
▁초등학교때	-11.2135
▁클리셰	-11.2135
▁클린트	-11.2135
▁파워레인저	-11.2135
긔	-11.2135
껍	-11.2135
룹	-11.2135
빤	-11.2135
▁똑바로	-11.2135
▁매트릭스	-11.2135
▁미야자키	-11.2135
▁재발견	-11.2135
륵	-11.2135
mbc	-11.2135
▁원주율	-11.2135
묵직한	-11.2135
▁2013	-11.2135
▁중학교때	-11.2135
▁엉엉	-11.2135
▁큐브	-11.2135
즐거워	-11.2135
▁강지환	-11.2135
▁혹평	-11.2136
▁불후의	-11.2136
▁사기꾼	-11.2136
▁더럽다	-11.2137
▁에로틱	-11.2137
귀요미	-11.2137
▁일깨워주는	-11.2137
all	-11.2138
▁그지없	-11.2138
▁흥미롭고	-11.2139
▁미치도록	-11.214
배속으로	-11.214
▁특징	-11.214
▁모르겟다	-11.2141
▁스콧	-11.2141
▁알았더니	-11.2143
▁접근	-11.2144
▁잔인하기만	-11.2144
▁비롯	-11.2144
▁바랬	-11.2146
▁은퇴	-11.2146
▁말할것도	-11.2149
버젼	-11.2152
▁주관적	-11.2158
따윈	-11.2158
▁공감가는	-11.2161
이아니라	-11.2165
싶을때	-11.2241
▁광팬	-11.2324
어수선	-11.2372
▁비극적	-11.2373
꽝	-11.2432
낳	-11.2432
감사합니다	-11.2434
몸매	-11.2439
그릇	-11.2447
▁맞추기	-11.2477
넼	-11.2505
↓	-11.2505
▁두근두근	-11.2505
▁어설픔	-11.2505
▁인종차별	-11.2505
▁펭귄	-11.2505
댕	-11.2505
뺨	-11.2505
쏠	-11.2505
췄	-11.2505
탭	-11.2505
핳	-11.2505
.,.,.,.	-11.2505
▁놀래키	-11.2505
▁불필요한	-11.2505
▁에일리언	-11.2505
샷	-11.2505
콕	-11.2505
툰	-11.2505
핏	-11.2505
ᅦ	-11.2505
▁다운로드	-11.2505
▁졸업작품	-11.2505
릉	-11.2505
어마어마	-11.2505
▁미장센	-11.2505
▁시간때우	-11.2505
q	-11.2505
▁절제된	-11.2505
▁레이첼	-11.2505
▁애국심	-11.2505
▁불면증	-11.2505
▁어떨까	-11.2505
▁김강우	-11.2505
▁삽입	-11.2505
▁관람불가	-11.2505
▁하이킥	-11.2505
▁어려울	-11.2505
▁잘어울리	-11.2505
▁자세히	-11.2506
씨리즈	-11.2506
▁레이싱	-11.2506
뽑	-11.2833
깁	-11.2888
펑	-11.289
쯧	-11.289
닦	-11.289
욜	-11.289
촉	-11.289
쿄	-11.289
엎	-11.289
흙	-11.289
꼇	-11.289
픔	-11.3271
뿔	-11.3281
뭇	-11.3289
쵝	-11.329
#	-11.329
꿨	-11.329
짬	-11.329
ᆞ	-11.329
Z	-11.329
뒀	-11.329
샬	-11.329
슐	-11.329
칩	-11.329
텀	-11.329
괘	-11.329
꺄	-11.329
됴	-11.329
밴	-11.3694
씁	-11.3704
죤	-11.3707
훼	-11.3707
훌	-11.3707
댐	-11.3707
륙	-11.3707
ᄑ	-11.3707
꽂	-11.3707
됌	-11.3707
젓	-11.3707
·	-11.3707
냅	-11.3707
캬	-11.4138
톰	-11.4138
줍	-11.414
렘	-11.414
륭	-11.4141
씌	-11.4141
샹	-11.4141
숫	-11.4141
쌀	-11.4141
쌔	-11.4141
쑤	-11.4141
엌	-11.4141
뻘	-11.4596
엣	-11.4596
탔	-11.4596
퍽	-11.4596
힛	-11.4596
뇨	-11.4596
댈	-11.4596
뤘	-11.4596
뺀	-11.4596
얹	-11.4596
좁	-11.4596
쬐	-11.4596
햄	-11.4596
횽	-11.4596
끊	-11.4606
빅	-11.4613
웬	-11.4614
밝	-11.4615
꽤	-11.4616
씽	-11.5072
’	-11.5072
돕	-11.5072
쌤	-11.5072
쨩	-11.5072
캅	-11.5072
듀	-11.5072
훅	-11.5072
똑	-11.5149
떤	-11.5543
찢	-11.5564
\	-11.5572
○	-11.5572
귓	-11.5572
덥	-11.5572
ᅭ	-11.5572
깬	-11.5572
댔	-11.5572
밭	-11.5572
샌	-11.5572
짖	-11.5572
쪄	-11.5572
쫙	-11.5572
퀼	-11.5572
팡	-11.5572
펄	-11.5572
윙	-11.5572
쩐	-11.6
걱	-11.6097
캔	-11.6098
힙	-11.6098
Q	-11.6098
꼼	-11.6098
롬	-11.6098
몹	-11.6098
꺅	-11.6098
늠	-11.6098
뚤	-11.6098
뜰	-11.6098
붐	-11.6098
썽	-11.6098
얕	-11.6098
욧	-11.6098
켠	-11.6098
횡	-11.6098
쟝	-11.6098
힝	-11.6098
얻	-11.6197
짠	-11.6197
늑	-11.6653
뭥	-11.6654
|	-11.6654
‘	-11.6654
뤽	-11.6654
짭	-11.6654
췌	-11.6654
샴	-11.6654
핍	-11.6654
ᅣ	-11.6654
뎈	-11.6654
잭	-11.6784
[	-11.6785
밌	-11.7236
옵	-11.724
쩡	-11.7241
슌	-11.7242
곸	-11.7242
밸	-11.7242
뱃	-11.7242
셰	-11.7242
썅	-11.7242
갸	-11.7242
낰	-11.7242
낱	-11.7242
윗	-11.7242
쿼	-11.7242
햐	-11.7242
쾅	-11.7242
ᅧ	-11.7242
갤	-11.7242
훨	-11.7408
뀌	-11.7864
붉	-11.7865
뷔	-11.7866
찜	-11.7867
“	-11.7867
붓	-11.7867
쁠	-11.7867
섰	-11.7867
얌	-11.7867
웁	-11.7867
퀘	-11.7867
텍	-11.7867
→	-11.7867
굼	-11.7867
뛴	-11.7867
욘	-11.7867
캣	-11.7867
겜	-11.7867
뵈	-11.7867
헬	-11.8076
푹	-11.8077
솜	-11.8507
펼	-11.8527
뭍	-11.8534
빔	-11.8534
빽	-11.8534
얔	-11.8534
乃	-11.8534
갚	-11.8534
꾀	-11.8534
꿉	-11.8534
뇬	-11.8534
댁	-11.8534
댜	-11.8534
떴	-11.8534
쉘	-11.8534
쑈	-11.8534
엥	-11.8534
욯	-11.8534
웹	-11.8534
젬	-11.8534
죵	-11.8534
쿤	-11.8534
숴	-11.8534
곧	-11.879
땜	-11.9169
펙	-11.9241
촬	-11.9243
無	-11.9248
돠	-11.9248
땟	-11.9248
싯	-11.9248
뿍	-11.9248
쏜	-11.9248
쵸	-11.9248
킷	-11.9248
팜	-11.9248
핰	-11.9248
、	-11.9248
甲	-11.9248
맬	-11.9248
벡	-11.9248
뷁	-11.9248
뺐	-11.9248
읎	-11.9248
쟤	-11.9248
짚	-11.9248
챔	-11.9248
퉷	-11.9248
뤠	-11.9248
쨔	-11.9248
끗	-11.9999
첼	-12.0017
됀	-12.0017
됏	-12.0017
얍	-12.0017
쪙	-12.0017
첸	-12.0017
칵	-12.0017
”	-12.0017
넛	-12.0017
룻	-12.0017
뮬	-12.0017
찼	-12.0017
꿰	-12.0018
겉	-12.0393
헛	-12.0393
썹	-12.0851
냔	-12.0851
끽	-12.0851
넉	-12.0851
웡	-12.0851
잌	-12.0851
챈	-12.0851
툴	-12.0851
♬	-12.0851
넴	-12.0851
큘	-12.0851
훤	-12.0851
휙	-12.0851
꺽	-12.0851
넥	-12.0851
홉	-12.0851
끙	-12.176
샵	-12.176
곀	-12.176
꽈	-12.176
줏	-12.176
쫑	-12.176
텨	-12.176
』	-12.176
꼐	-12.176
눕	-12.176
뎃	-12.176
돔	-12.176
멧	-12.176
볶	-12.176
섀	-12.176
잰	-12.176
귄	-12.176
켰	-12.2736
봅	-12.2758
잎	-12.2758
{	-12.276
}	-12.276
겔	-12.276
슥	-12.276
춥	-12.276
륨	-12.276
멕	-12.276
믓	-12.276
뺑	-12.276
읭	-12.276
졷	-12.276
쨰	-12.276
킁	-12.276
헴	-12.276
『	-12.276
굽	-12.276
벳	-12.276
왁	-12.276
퐁	-12.276
쫓	-12.3413
뻗	-12.3871
갘	-12.3871
딛	-12.3871
멱	-12.3871
쏭	-12.3871
쒯	-12.3871
앰	-12.3871
짰	-12.3871
꺠	-12.3871
뿡	-12.3871
쎈	-12.3871
툼	-12.3871
혓	-12.3871
흣	-12.3871
깟	-12.3871
떵	-12.3871
욥	-12.3871
쫘	-12.3871
깼	-12.3871
컥	-12.5118
$	-12.5121
닛	-12.5121
잦	-12.5121
괸	-12.5121
슝	-12.5121
읊	-12.5121
좃	-12.5121
쳣	-12.5121
펭	-12.5121
갯	-12.5121
넨	-12.5121
놉	-12.5121
눅	-12.5121
눔	-12.5121
렙	-12.5121
쑥	-12.5121
챦	-12.5121
컵	-12.5121
팰	-12.5121
헥	-12.5121
랖	-12.5121
헿	-12.5121
넝	-12.5121
뒈	-12.5121
옛	-12.6089
뒷	-12.6093
》	-12.6549
×	-12.6549
⊙	-12.6549
퀵	-12.655
낑	-12.655
딥	-12.655
쒸	-12.655
ᆪ	-12.655
⌒	-12.655
궤	-12.655
깸	-12.655
떙	-12.655
뤼	-12.655
븅	-12.655
빴	-12.655
뺄	-12.655
졉	-12.655
찟	-12.655
캄	-12.655
띨	-12.655
앱	-12.655
옼	-12.655
쥰	-12.655
껌	-12.655
롸	-12.655
먀	-12.655
뭄	-12.655
뽐	-12.655
녜	-12.655
휠	-12.655
꿧	-12.655
킵	-12.8213
■	-12.8215
※	-12.8216
ᄈ	-12.8216
끅	-12.8216
룽	-12.8216
멌	-12.8216
몃	-12.8216
─	-12.8216
뇽	-12.8216
됄	-12.8216
띤	-12.8216
렜	-12.8216
뮈	-12.8216
믈	-12.8216
벵	-12.8216
뽁	-12.8216
死	-12.8216
냇	-12.8216
웍	-12.8216
냠	-12.8216
랔	-12.8216
밈	-13.0216
둡	-13.2711
텝	-13.5999
탤	-13.605
밓	-14.0908
몆	-14.0909
랗	-14.091
뛸	-14.0911
궂	-14.0912
̄	-14.0913
챘	-14.0914
짊	-14.0915
엾	-14.0916
숟	-14.0917
벚	-14.0918
냨	-14.0919
훠	-14.092
헠	-14.0921
햏	-14.0922
츈	-14.0923
촛	-14.0924
잴	-14.0925
썪	-14.0926
쌉	-14.0927
뿅	-14.0928
땔	-14.0929
닠	-14.093
뀜	-14.0931
흩	-14.0932
훑	-14.0933
햅	-14.0934
씸	-14.0935
뉜	-14.0936
껑	-14.0937
홥	-14.0938
콱	-14.0939
쥑	-14.094
윅	-14.0941
옜	-14.0942
멎	-14.0943
뒹	-14.0944
덱	-14.0945
꺾	-14.0946
굶	-14.0947
괞	-14.0948
횟	-14.0949
츤	-14.095
쳇	-14.0951
앍	-14.0952
놧	-14.0953
낍	-14.0954
괄	-14.0955
큽	-14.0956
좔	-14.0957
뵙	-14.0958
뀔	-14.0959
겅	-14.096
핥	-14.0961
폄	-14.0962
콥	-14.0963
샐	-14.0964
쁩	-14.0965
딪	-14.0966
걔	-14.0967
휩	-14.0968
촘	-14.0969
씻	-14.097
뺴	-14.0971
낡	-14.0972
앳	-14.0973
긁	-14.0974
휼	-14.0975
펏	-14.0976
융	-14.0977
릎	-14.0978
핡	-14.0979
쥔	-14.098
닳	-14.0981
녔	-14.0982
깽	-14.0983
굵	-14.0984
퀀	-14.0985
샀	-14.0986
솟	-14.0987
셸	-14.0988
왼	-14.0989
눠	-14.099
픕	-14.0991
꿋	-14.0992
뀐	-14.0993
꽥	-14.0994
욬	-14.0995
뱉	-14.0996
뭡	-14.0997
넋	-14.0998
딨	-14.0999
쫒	-14.1
앓	-14.1001
끓	-14.1002
빚	-14.1003
얽	-14.1004
쨋	-14.1005
땠	-14.1006
헷	-14.1007
틋	-14.1008
멤	-14.1009
쌓	-14.101
뤄	-14.1011
홧	-14.1012
컸	-14.1013
둠	-14.1014
핸	-14.1015
옮	-14.1016
빕	-14.1017
맑	-14.1018
팠	-14.1019
툭	-14.102
쫄	-14.1021
쨌	-14.1022
틸	-14.1023
깍	-14.1024
껐	-14.1025
왤	-14.1026
쏟	-14.1027
겪	-14.1028
뻤	-14.1029
섯	-14.103
닙	-14.1031
딧	-14.1032
튀	-14.1033
앉	-14.1034
펐	-14.1035
듭	-14.1036
섞	-14.1037
슷	-14.1037
획	-14.1038
쁨	-14.1039
됩	-14.104
늦	-14.1041
볍	-14.1042
렬	-14.1043
찝	-14.1044
굉	-14.1045
랐	-14.1046
깊	-14.1047
떻	-14.1048
렇	-14.1049
봤	-14.105
