<unk>	0
<s>	0
</s>	0
.	-3.43839
▁	-3.49659
..	-4.31758
▁영화	-4.53542
...	-4.56358
이	-4.58089
의	-4.71353
도	-4.83839
,	-4.83939
가	-4.85584
는	-4.9107
을	-5.05926
▁"	-5.15511
에	-5.1555
?	-5.26395
은	-5.31777
고	-5.35415
다	-5.39573
▁너무	-5.46438
지	-5.49352
!	-5.56331
를	-5.58556
▁정말	-5.61027
▁이	-5.69123
만	-5.69995
한	-5.7278
로	-5.79691
▁진짜	-5.80407
~	-5.87282
"	-5.91768
나	-5.91962
게	-5.98402
영화	-6.00844
과	-6.04881
점	-6.17736
으로	-6.25241
하고	-6.25325
▁잘	-6.28887
."	-6.29036
▁그	-6.3206
▁왜	-6.3207
▁더	-6.33935
와	-6.35237
▁1	-6.36025
!!	-6.37653
인	-6.37956
▁수	-6.38393
기	-6.38584
▁다	-6.39244
▁이런	-6.39844
라	-6.41266
에서	-6.42098
....	-6.44241
▁안	-6.47051
▁그냥	-6.48652
어	-6.5044
아	-6.51056
네	-6.51138
서	-6.53141
요	-6.5424
▁아	-6.56401
리	-6.57582
들	-6.59197
하는	-6.60692
▁드라마	-6.62234
▁보고	-6.63924
▁10	-6.65089
해	-6.66736
▁본	-6.66758
거	-6.68301
▁영화를	-6.70329
▁평점	-6.73223
▁좀	-6.74411
▁연기	-6.74658
자	-6.7848
면	-6.81619
▁한	-6.83934
▁내	-6.8477
네요	-6.84997
▁봤는데	-6.85944
야	-6.8688
지만	-6.89151
▁영화는	-6.89652
▁ᄏᄏ	-6.90155
수	-6.90349
니	-6.90368
▁없는	-6.91007
▁참	-6.91535
▁영화가	-6.91583
▁이거	-6.9215
▁최고의	-6.92717
대	-6.93125
▁쓰레기	-6.93299
▁내가	-6.94429
▁완전	-6.96172
이다	-6.96375
▁없다	-6.96827
▁최고	-6.98877
▁있는	-7.00047
▁이건	-7.00265
일	-7.00548
ᄏᄏ	-7.03081
▁스토리	-7.03103
▁좋은	-7.03646
▁2	-7.04894
사	-7.053
까지	-7.05636
진	-7.05932
음	-7.0599
보다	-7.07208
하게	-7.07212
스	-7.07478
함	-7.07519
!!!	-7.07573
▁이렇게	-7.07691
시	-7.08139
데	-7.09754
▁다시	-7.10359
▁보는	-7.10765
▁못	-7.11088
▁이게	-7.11571
해서	-7.12592
▁3	-7.12643
임	-7.13808
하	-7.14696
▁것	-7.16714
할	-7.17412
들이	-7.18446
구	-7.19763
듯	-7.20052
▁많이	-7.20638
랑	-7.20893
▁평점이	-7.21109
ᄏ	-7.21185
^^	-7.21459
여	-7.2146
건	-7.21852
▁난	-7.22436
냐	-7.22775
주	-7.23052
하다	-7.23715
▁개	-7.23888
미	-7.2402
는데	-7.24049
안	-7.24395
우	-7.24939
정	-7.26628
~~	-7.28605
▁그리고	-7.28814
▁역시	-7.29284
▁나	-7.3027
▁작품	-7.31382
보고	-7.31598
던	-7.32038
전	-7.32235
중	-7.33204
인데	-7.33259
진짜	-7.33618
적	-7.34063
▁하는	-7.34706
상	-7.35462
??	-7.36063
▁뭐	-7.36087
▁재밌게	-7.36305
▁넘	-7.37102
'	-7.37792
▁볼	-7.38325
▁또	-7.38517
성	-7.39168
;;	-7.4019
▁마지막	-7.40668
년	-7.40951
▁재미	-7.41505
1	-7.41542
▁없고	-7.42165
▁별로	-7.43014
치	-7.43157
▁아깝다	-7.43241
신	-7.43386
▁꼭	-7.43762
마	-7.44573
2	-7.4586
질	-7.46047
장	-7.46452
오	-7.46501
▁ᄏᄏᄏ	-7.47358
▁감동	-7.47415
▁하나	-7.48398
▁말	-7.49344
▁무슨	-7.49834
세	-7.50638
것	-7.5064
▁보면	-7.50999
ᅲᅲ	-7.5139
같은	-7.51577
▁전	-7.51773
내	-7.52223
용	-7.52321
분	-7.52602
▁이야기	-7.53081
드	-7.5315
▁가장	-7.53291
너무	-7.53475
정말	-7.53501
비	-7.53506
라고	-7.54353
▁감독	-7.54892
개	-7.56131
▁만든	-7.56423
그	-7.56696
)	-7.57633
▁저	-7.58212
입니다	-7.58792
▁지	-7.59013
ᄏᄏᄏ	-7.59178
▁지금	-7.59711
급	-7.59755
보	-7.59834
▁중	-7.60693
▁오	-7.61342
▁별	-7.61384
좀	-7.61643
라는	-7.62474
하지	-7.63271
▁ᅲᅲ	-7.63339
▁다른	-7.63584
했다	-7.6366
때	-7.6382
▁ᄏ	-7.6395
▁할	-7.64521
▁액션	-7.64703
부	-7.653
된	-7.65312
트	-7.65556
▁영화다	-7.65909
적인	-7.66757
소	-7.67009
▁명작	-7.67951
란	-7.68962
▁같은	-7.69041
원	-7.69065
▁끝까지	-7.69085
;	-7.6941
ᅲ	-7.69511
씨	-7.70174
▁하	-7.70332
드라마	-7.70607
▁ᅳᅳ	-7.71005
▁연출	-7.71117
▁느낌	-7.71637
▁보	-7.71898
습니다	-7.71902
부터	-7.72047
▁말이	-7.72266
더	-7.72429
없는	-7.72459
3	-7.73064
물	-7.73156
▁'	-7.73274
말	-7.73451
화	-7.73477
이나	-7.74158
▁생각	-7.74332
처럼	-7.74395
▁주	-7.74751
걸	-7.75244
에게	-7.75817
▁배우	-7.75843
▁하지만	-7.75916
선	-7.76688
▁시간	-7.76797
려	-7.78261
▁처음	-7.78395
군	-7.78405
▁좋다	-7.7858
▁와	-7.79042
▁대한	-7.79069
있는	-7.79166
▁있다	-7.79195
▁전혀	-7.79809
▁같다	-7.7988
▁사랑	-7.79903
▁내용	-7.79969
▁봤다	-7.80208
(	-7.80221
편	-7.80733
무	-7.8166
▁솔직히	-7.81698
▁한국	-7.81816
ᅳᅳ	-7.83361
▁때	-7.83423
한다	-7.83752
▁아주	-7.84036
▁봐도	-7.84309
▁뭔가	-7.84432
인지	-7.85057
▁아니	-7.85616
▁많은	-7.85847
두	-7.8586
영	-7.8629
긴	-7.86428
▁사	-7.87111
▁기대	-7.87462
히	-7.87495
▁ᄒᄒ	-7.87519
▁계속	-7.87742
때문에	-7.87911
▁짱	-7.88474
유	-7.88613
호	-7.88631
▁재밌다	-7.88759
본	-7.8885
▁굿	-7.89476
인가	-7.89741
▁일	-7.89771
▁모두	-7.8987
어요	-7.90049
러	-7.90198
▁내용이	-7.90457
▁내내	-7.90773
단	-7.90828
▁재미있게	-7.91278
당	-7.91553
▁코미디	-7.92403
▁최악	-7.9242
린	-7.92444
▁두	-7.92523
조	-7.92629
감	-7.92917
▁않고	-7.9338
▁대	-7.93517
▁나오는	-7.93597
식	-7.93865
▁정	-7.94457
▁어떻게	-7.94468
타	-7.94899
이랑	-7.94925
▁자	-7.9531
동	-7.95312
▁거	-7.95549
▁돈	-7.9585
▁4	-7.96078
▁그래도	-7.96231
모	-7.96248
▁일본	-7.96359
▁이걸	-7.96394
하지만	-7.96864
▁아니라	-7.96983
▁줄	-7.97448
▁대박	-7.97549
-	-7.97854
▁재미없다	-7.97918
면서	-7.97992
▁무	-7.9813
▁최악의	-7.9814
잘	-7.98571
난	-7.98598
심	-7.98679
▁배우들	-7.98897
명	-7.99006
▁아니다	-7.99633
디	-7.99775
▁하고	-7.99874
▁비	-7.99906
▁한번	-7.99928
▁제	-8.00146
▁여자	-8.00259
며	-8.00293
▁듯	-8.0039
▁만드는	-8.00415
점도	-8.00421
▁아닌	-8.00502
▁김	-8.01003
류	-8.01217
들의	-8.01236
▁유	-8.01312
살	-8.0142
엔	-8.01789
제	-8.01808
▁연기가	-8.01827
줄	-8.02049
합니다	-8.02279
하면	-8.02592
▁주인공	-8.02761
연	-8.02874
바	-8.02979
▁해	-8.03199
▁그런	-8.03808
▁보기	-8.04129
위	-8.04174
길	-8.04404
▁딱	-8.04411
했던	-8.04776
이라	-8.04862
▁후	-8.04882
▁모든	-8.0558
▁알	-8.05771
▁5	-8.05904
남	-8.05989
연기	-8.06265
▁연기도	-8.06364
▁조	-8.06577
▁제일	-8.06794
▁사람	-8.06833
▁아름다운	-8.06992
▁7	-8.07073
▁근데	-8.0711
구나	-8.07518
래	-8.08074
▁않은	-8.08668
▁감독이	-8.09045
없이	-8.09101
노	-8.09828
되는	-8.09866
이라는	-8.10214
운	-8.10651
▁나는	-8.10661
▁미	-8.10745
작	-8.10985
▁아니고	-8.11155
▁반	-8.11316
ᄒᄒ	-8.11512
▁않는	-8.11517
▁보다가	-8.11583
▁8	-8.11889
민	-8.12025
준	-8.12043
▁시	-8.12854
방	-8.13073
죠	-8.136
▁제대로	-8.13985
~~~	-8.14011
▁이제	-8.14023
▁이영화	-8.1418
르	-8.14322
한테	-8.1437
▁내용도	-8.14782
▁우리	-8.15207
▁보다	-8.15643
▁스토리가	-8.16284
▁요즘	-8.16453
들은	-8.16563
생	-8.16618
▁0	-8.16888
▁영화라고	-8.16901
날	-8.16997
▁때문에	-8.17286
▁시간이	-8.17292
시간	-8.17385
▁싶다	-8.17551
재	-8.17556
▁스릴러	-8.17651
▁수준	-8.17698
하나	-8.17723
봤는데	-8.17807
크	-8.17811
▁OO	-8.18614
까	-8.18918
년대	-8.19002
,,	-8.19151
짱	-8.19263
보는	-8.19646
번	-8.19798
▁영화의	-8.19799
울	-8.19877
으면	-8.1996
이고	-8.20683
▁실망	-8.20843
▁어	-8.21023
▁나름	-8.21125
▁주는	-8.21228
♥	-8.21247
님	-8.21533
▁차라리	-8.21625
▁아직도	-8.21724
▁아까운	-8.21882
▁엄청	-8.22069
▁인생	-8.22305
▁특히	-8.22368
▁절대	-8.22407
▁되는	-8.22437
!!!!	-8.22465
▁반전	-8.22802
▁진심	-8.22943
보면	-8.22958
▁신	-8.23013
간	-8.23045
이란	-8.23143
""""	-8.23355
▁재밌어요	-8.23434
▁개봉	-8.23537
▁좋아	-8.24086
▁영화입니다	-8.2411
루	-8.24273
▁장면	-8.24419
▁좋았다	-8.24482
▁애	-8.24753
카	-8.2481
▁보면서	-8.24815
▁스	-8.24894
▁좋고	-8.24898
관	-8.2503
이라고	-8.25459
▁재미도	-8.25493
지는	-8.25578
▁남자	-8.25906
었다	-8.25952
발	-8.26025
레	-8.26031
ᅳ	-8.26057
▁추천	-8.26449
10	-8.26595
▁스토리도	-8.26641
워	-8.26823
▁여운이	-8.26865
ᄒ	-8.27223
왜	-8.27305
프	-8.27399
적으로	-8.27407
그냥	-8.27424
▁도대체	-8.27611
▁기	-8.27854
판	-8.27866
박	-8.28181
경	-8.28205
▁감독의	-8.28479
▁소	-8.28505
▁애니	-8.28659
후	-8.28927
점은	-8.28961
▁구	-8.29048
..."	-8.29162
인듯	-8.29239
▁걍	-8.29368
▁남는	-8.29402
▁만들어	-8.29418
▁조금	-8.29499
다가	-8.29942
▁9	-8.29956
산	-8.30009
▁뻔한	-8.3003
저	-8.30187
하네요	-8.30471
니까	-8.30527
▁좋아하는	-8.307
으	-8.30777
차	-8.30781
▁봤습니다	-8.30822
▁없음	-8.30826
점이	-8.3086
▁이해	-8.31055
▁나도	-8.31167
참	-8.31615
4	-8.31621
▁나온	-8.31989
▁결말	-8.322
▁영화에	-8.32239
이런	-8.32241
들을	-8.32471
▁마지막에	-8.32472
▁모	-8.32505
▁전개	-8.328
▁공포영화	-8.32996
▁ᄏᄏᄏᄏ	-8.3311
▁건	-8.33175
▁오랜만에	-8.33194
피	-8.33245
스토리	-8.3354
▁음악	-8.33737
▁부	-8.33768
애	-8.33814
▁눈물	-8.33881
생각	-8.34054
▁이해가	-8.34763
버	-8.34799
▁마	-8.3499
.."	-8.35188
▁지루한	-8.35198
희	-8.35353
현	-8.35454
라도	-8.35552
▁봤던	-8.35584
▁남	-8.35758
▁이상	-8.35852
했는데	-8.35883
▁생각이	-8.36193
▁막장	-8.36339
▁지루하고	-8.36432
▁어떤	-8.36519
하네	-8.36678
반	-8.37089
ᅮᅮ	-8.37305
▁멋진	-8.37474
코	-8.37557
▁함께	-8.37563
▁최고다	-8.37787
???	-8.38294
▁OOO	-8.38441
▁ᅲ	-8.38713
없다	-8.38878
▁큰	-8.39365
다니	-8.3941
▁없이	-8.39542
지도	-8.39615
▁싶은	-8.3971
▁뭘	-8.39814
▁배우들의	-8.39842
▁된	-8.39864
평점	-8.39952
▁20	-8.39952
는게	-8.40214
▁눈	-8.40327
밖에	-8.4068
▁우리나라	-8.40808
▁사람이	-8.41226
▁^^	-8.41246
ᄏᄏᄏᄏ	-8.41299
즈	-8.41395
하기	-8.41498
키	-8.41553
/	-8.41579
▁노	-8.41797
▁정도	-8.42041
국	-8.42141
▁못한	-8.42154
▁시작	-8.42245
▁보는내내	-8.42262
만큼	-8.42262
실	-8.42347
▁B	-8.425
배우	-8.42513
되	-8.42567
▁걸	-8.42807
파	-8.42818
▁재미가	-8.42845
▁되	-8.42866
▁기억	-8.42871
▁몇	-8.42902
▁공포	-8.4306
▁개인적으로	-8.4312
못	-8.43131
▁"""	-8.4323
▁막	-8.43264
티	-8.43274
▁영화로	-8.4329
▁괜찮은	-8.43346
터	-8.43348
토	-8.43377
정도	-8.43487
▁장	-8.43496
▁공감	-8.43713
▁6	-8.43986
▁시리즈	-8.44022
▁얼마나	-8.44044
5	-8.44416
▁보세요	-8.44501
해도	-8.44576
▁그렇게	-8.44612
▁속	-8.44789
림	-8.44889
▁애니메이션	-8.44972
겨	-8.45222
태	-8.45298
▁그저	-8.45453
▁바	-8.45521
중에	-8.45722
▁될	-8.45766
▁수작	-8.45846
▁재밌는	-8.45931
감독	-8.4599
▁오늘	-8.46063
▁지루하다	-8.46211
더라	-8.46347
문	-8.46479
▁졸작	-8.46667
▁캐릭터	-8.46692
였다	-8.46762
▁원	-8.46957
최고	-8.47377
▁표현	-8.47388
불	-8.47426
~!	-8.47473
!"	-8.47511
;;;	-8.47556
져	-8.47587
든	-8.47985
▁연기는	-8.48262
▁강	-8.48296
탄	-8.48305
▁아무리	-8.48504
▁기억에	-8.48984
배	-8.49013
▁뭔	-8.49218
▁제발	-8.49431
따	-8.49542
▁피	-8.49829
▁안되는	-8.50209
▁우	-8.50648
▁것이	-8.50832
건지	-8.50901
s	-8.50982
▁모르겠다	-8.51058
것도	-8.51322
▁가슴	-8.51443
▁사람들	-8.52084
▁연기력	-8.52251
▁쓰	-8.52273
▁좋아요	-8.52275
공	-8.5242
해요	-8.52427
▁""""	-8.52464
▁영	-8.5248
사랑	-8.52788
사람	-8.52906
▁알바	-8.52933
▁같이	-8.53003
▁날	-8.53187
▁극장에서	-8.53397
▁원작	-8.53699
작품	-8.53725
▁인간	-8.53737
▁미국	-8.53884
▁매우	-8.54093
달	-8.54447
회	-8.54611
속	-8.54615
넘	-8.54687
▁불	-8.55166
▁있고	-8.55233
▁시나리오	-8.55345
▁기분	-8.55447
는거	-8.55527
▁재밌음	-8.55532
▁준	-8.55813
종	-8.5592
망	-8.55995
매	-8.56174
▁대사	-8.56179
어서	-8.56194
하면서	-8.5655
▁결국	-8.56774
▁봤어요	-8.57005
▁하나도	-8.57068
형	-8.57211
▁보게	-8.57542
▁않는다	-8.57734
극	-8.57755
병	-8.57901
▁지루함	-8.57948
▁박	-8.58019
▁세	-8.58107
구만	-8.58175
▁강추	-8.58611
▁만들	-8.58756
금	-8.59005
▁마음이	-8.591
역	-8.59334
▁위한	-8.5973
▁긴장감	-8.6016
▁위해	-8.60186
▁한다	-8.602
▁눈물이	-8.60422
하며	-8.60485
▁ᄒ	-8.60494
▁여	-8.60895
봄	-8.61287
감동	-8.61378
있다	-8.61405
는지	-8.61604
양	-8.61789
▁느낌이	-8.62112
▁찾아	-8.62378
▁않	-8.62492
김	-8.62583
이지만	-8.62607
▁공	-8.6263
등	-8.62697
▁노래	-8.62712
▁매력	-8.62965
▁너무나	-8.63082
겠다	-8.63193
7	-8.63246
▁훨씬	-8.634
그리고	-8.63582
려고	-8.63715
점을	-8.63729
▁한국영화	-8.63772
▁알고	-8.638
▁대체	-8.63818
체	-8.63979
담	-8.64317
쳐	-8.64772
6	-8.64917
▁갈수록	-8.64977
완전	-8.65242
봤다	-8.65259
초	-8.65259
이야	-8.65496
ᅮ	-8.6562
강	-8.6565
▁예	-8.65691
▁발	-8.65808
▁보지	-8.6581
장면	-8.65869
▁않다	-8.66008
업	-8.66299
▁입	-8.66301
▁영화네요	-8.66315
▁존나	-8.66376
쓰레기	-8.66392
▁차	-8.66401
던데	-8.66442
▁그나마	-8.66752
이거	-8.67114
o	-8.6719
▁밖에	-8.67407
뿐	-8.67458
▁ᅮᅮ	-8.67545
+	-8.67661
▁기억이	-8.67687
이었다	-8.67717
거야	-8.6774
▁재밌	-8.67899
▁끝	-8.67926
이네	-8.67958
▁억지	-8.68318
▁배	-8.68404
갈	-8.68472
▁보여주는	-8.68525
▁살	-8.68534
했음	-8.68599
뭐	-8.69049
악	-8.69201
▁로맨스	-8.69292
▁내용은	-8.6965
"""	-8.69664
녀	-8.69859
▁문제	-8.69867
▁재미없음	-8.6996
▁가슴이	-8.69997
t	-8.70034
▁전쟁	-8.70155
하는데	-8.70436
▁초	-8.70514
▁미친	-8.70603
입	-8.70686
▁그래서	-8.70711
▁없었다	-8.7103
▁연기를	-8.71121
내용	-8.71128
군요	-8.71219
▁현실	-8.71224
▁그만	-8.71582
이네요	-8.71607
▁영상	-8.71666
▁게	-8.71715
▁결말이	-8.71877
이건	-8.71925
▁머	-8.72033
▁사실	-8.72063
포	-8.72164
알	-8.72241
▁애들	-8.72364
▁꽤	-8.72542
▁누가	-8.72565
▁울	-8.7257
?"	-8.72726
▁쓰레기영화	-8.72772
▁없어	-8.72819
주는	-8.73124
▁파	-8.73144
꺼	-8.73187
,,,	-8.73324
▁걸작	-8.7333
▁만화	-8.73353
▁성	-8.73712
통	-8.73718
▁서	-8.73976
영화는	-8.74077
▁것을	-8.74108
e	-8.74114
▁욕	-8.74231
▁매	-8.74233
▁필요	-8.74369
점대	-8.74388
▁마음	-8.74441
▁감동이	-8.74527
론	-8.74628
▁대해	-8.74648
라면	-8.7472
▁재밌고	-8.74729
예	-8.74739
석	-8.75057
▁중국	-8.75291
▁음	-8.75338
▁있을	-8.75611
▁바로	-8.7563
▁심	-8.75685
너	-8.75994
▁영화중	-8.76358
▁소재	-8.76653
집	-8.76865
▁어설픈	-8.76912
▁영화였다	-8.76925
▁동	-8.77418
▁상	-8.7743
▁단	-8.77453
계	-8.77474
▁감동도	-8.77587
▁선	-8.77698
천	-8.78014
▁자기	-8.78176
▁같아요	-8.782
▁별점	-8.78262
▁있	-8.78307
▁사람들이	-8.78323
▁재	-8.78422
▁진	-8.78425
력	-8.78461
재미	-8.7847
봐도	-8.78515
창	-8.78624
▁죽	-8.78656
이지	-8.78712
▁CG	-8.78774
▁다큐	-8.78802
글	-8.78859
액션	-8.78918
능	-8.78945
빠	-8.78994
이상	-8.79063
▁다들	-8.79244
▁주고	-8.79263
될	-8.79326
영화가	-8.79331
▁시즌	-8.79366
볼	-8.79412
▁영화관에서	-8.79418
봐	-8.79603
▁모습	-8.79672
▁주연	-8.79673
먹	-8.79724
기는	-8.79947
▁가족	-8.80014
▁것도	-8.80341
내가	-8.8041
▁더빙	-8.80595
된다	-8.80609
▁당시	-8.80633
▁아쉽다	-8.80892
▁상당히	-8.81018
머	-8.8117
▁뿐	-8.8122
에도	-8.81267
▁코믹	-8.8128
▁생각보다	-8.81326
▁감동적인	-8.81334
승	-8.81494
▁몰입도	-8.8151
▁야	-8.81891
기도	-8.81923
인줄	-8.82007
편이	-8.82045
이야기	-8.82116
느낌	-8.8212
▁볼만한	-8.82161
▁노잼	-8.82239
었는데	-8.82247
▁아님	-8.8252
년이	-8.82541
▁-	-8.82796
▁얼굴	-8.82926
▁간만에	-8.82968
여자	-8.82989
▁잔잔한	-8.83118
▁친구	-8.83238
▁30	-8.83255
8	-8.83257
▁생각을	-8.83296
▁점수	-8.83451
▁약간	-8.83478
▁후회	-8.83599
▁캐스팅	-8.83705
▁작가	-8.83737
▁재미있다	-8.83767
▁발연기	-8.83794
짐	-8.83932
릴	-8.84124
이라도	-8.842
▁재미있는	-8.84424
▁좋은데	-8.84564
▁그대로	-8.84637
대로	-8.84668
수준	-8.84708
▁맘에	-8.84803
평	-8.85069
근	-8.8513
증	-8.85329
건가	-8.85468
▁허	-8.85512
리는	-8.85712
▁제목	-8.85737
▁중간에	-8.85913
않	-8.85992
▁있을까	-8.8603
없고	-8.86246
▁준다	-8.86415
▁스토리는	-8.865
색	-8.86538
테	-8.86613
▁거의	-8.86631
▁뭐야	-8.86648
▁마음에	-8.86721
했지만	-8.86785
해야	-8.86811
학	-8.8694
▁했는데	-8.87123
▁네이버	-8.87171
기에	-8.87321
▁치	-8.87392
▁등	-8.8742
▁같은데	-8.87565
▁너	-8.87748
▁있지만	-8.87846
▁적	-8.87928
▁판타지	-8.87959
▁정도로	-8.88043
▁없	-8.88061
▁재미있어요	-8.88079
온	-8.88098
▁얘기	-8.88099
▁진정한	-8.88131
▁인	-8.88316
▁보니	-8.88575
▁손	-8.88576
죽	-8.88596
▁감동을	-8.88597
열	-8.88883
▁물	-8.89095
▁나와서	-8.8934
▁나오	-8.8945
또	-8.89456
격	-8.89722
슨	-8.89813
▁저런	-8.89825
▁총	-8.89841
거지	-8.90071
▁굉장히	-8.90276
▁봤지만	-8.90341
▁재밌네요	-8.90524
▁이영화를	-8.90559
남자	-8.90696
돈	-8.90714
영화를	-8.90746
▁재미없는	-8.90833
▁뭐지	-8.90876
움	-8.90899
▁맞	-8.90957
▁배우들이	-8.91247
▁들	-8.91249
나오는	-8.91297
▁정신	-8.91323
▁설정	-8.91455
쓰	-8.91489
아니	-8.92026
d	-8.92218
▁스릴	-8.9238
보단	-8.92424
OO	-8.92477
▁재미는	-8.92495
나는	-8.92599
잼	-8.92966
잇	-8.93012
구요	-8.93056
▁전부	-8.93209
없음	-8.93327
▁봐서	-8.93434
절	-8.93657
편은	-8.93837
별	-8.93959
▁영화임	-8.94038
▁존	-8.94156
왕	-8.94231
됨	-8.94231
▁생각하게	-8.94392
이게	-8.9448
▁들어	-8.94534
소리	-8.94659
▁장면이	-8.94737
▁줄거리	-8.94792
▁제가	-8.94795
교	-8.95032
▁방송	-8.95079
잡	-8.95184
▁타	-8.95204
스러운	-8.95288
투	-8.95306
▁봐야	-8.95395
직	-8.95429
보니	-8.95514
▁토	-8.95518
다고	-8.9553
▁했다	-8.9567
▁평점을	-8.95929
▁열	-8.95938
▁엔딩	-8.95963
▁있어서	-8.96058
>	-8.96105
▁영화인데	-8.96216
▁영화도	-8.96218
▁엄마	-8.96282
▁뭐냐	-8.96321
있고	-8.96559
▁극	-8.96626
▁나의	-8.96793
▁갑자기	-8.96835
난다	-8.96861
▁이딴	-8.96878
진다	-8.96882
길래	-8.96918
▁대단한	-8.97026
허	-8.97047
▁혼자	-8.97198
거나	-8.97225
▁훌륭한	-8.97308
좋아	-8.97469
▁말도	-8.97482
▁아직	-8.97486
듯한	-8.97491
▁구성	-8.97601
▁항상	-8.97734
보기	-8.9793
근데	-8.9808
▁평	-8.98418
각	-8.98425
▁평가	-8.98744
▁번	-8.98758
▁화	-8.98765
▁아이	-8.98774
▁여주인공	-8.98806
눈	-8.98834
▁어디서	-8.98892
▁망	-8.9894
브	-8.98979
D	-8.98999
▁예술	-8.99021
▁좋	-8.99124
▁해서	-8.99221
았	-8.99303
▁장난	-8.99376
▁여기	-8.99731
~!!	-8.99755
나요	-8.99849
것이	-8.99961
▁행복	-9.00145
땜에	-9.00171
▁자체가	-9.00219
들에게	-9.00312
▁새로운	-9.00554
▁그런지	-9.00659
씬	-9.00676
▁변	-9.00724
▁봐라	-9.00777
▁카	-9.00826
ᄋ	-9.00882
커	-9.01171
있	-9.01203
▁봄	-9.01284
▁봤음	-9.01366
a	-9.01375
▁꿀잼	-9.01383
거다	-9.01433
했	-9.01475
9	-9.01505
▁빨리	-9.01657
는건	-9.01678
다는	-9.01722
▁어느	-9.01742
▁화면	-9.01761
▁하지	-9.01812
▁충분히	-9.01818
목	-9.01912
▁딸	-9.01951
▁감	-9.01974
기를	-9.02032
▁안된다	-9.02054
혜	-9.02119
▁옛날	-9.02139
▁간	-9.02264
맨	-9.02278
▁포스터	-9.02298
▁TV	-9.02327
▁각본	-9.02341
▁된다	-9.02495
▁호	-9.02502
▁아이들	-9.02639
웃	-9.02658
▁악	-9.02694
▁뭐가	-9.02756
채	-9.0288
▁코	-9.03075
▁그러나	-9.03098
▁있는데	-9.0334
환	-9.0336
케	-9.03382
▁따라	-9.03461
을까	-9.03481
▁못하는	-9.03515
▁주인공이	-9.03588
좋	-9.03627
친	-9.03671
▁출연	-9.03884
▁90	-9.03916
▁tv	-9.03916
외	-9.03976
▁비해	-9.0398
b	-9.04096
다시	-9.04096
▁글	-9.04112
▁자체	-9.04129
기대	-9.04189
같이	-9.04196
▁사람은	-9.04216
♡	-9.0427
▁없어서	-9.04308
▁힘	-9.04371
▁흥행	-9.04383
▁가지고	-9.04391
라서	-9.04483
▁분	-9.04485
▁만	-9.0454
▁처음부터	-9.04596
▁원작을	-9.04686
▁최	-9.04805
수가	-9.04829
▁ᅳ	-9.0486
해라	-9.04878
년전	-9.04932
짜	-9.04957
훈	-9.05103
스트	-9.0512
할때	-9.05182
▁하다	-9.05464
설	-9.05469
▁점점	-9.05549
0	-9.05589
▁편	-9.0559
거냐	-9.05626
▁백	-9.05912
▁good	-9.05941
▁길	-9.06132
역시	-9.0619
더니	-9.06488
복	-9.06584
좋은	-9.06596
▁지루	-9.0668
▁좋은영화	-9.0693
▁아무	-9.0699
▁언제	-9.07108
마지막	-9.0731
▁외	-9.07467
놓고	-9.07481
겠지	-9.0764
▁아까움	-9.07687
▁똥	-9.07697
▁쳐	-9.07814
▁분위기	-9.07894
▁좋네요	-9.07906
욕	-9.07925
▁유치	-9.07958
▁더욱	-9.0799
▁그때	-9.08171
에선	-9.08211
▁잼	-9.08254
주의	-9.08301
▁좋겠다	-9.08512
라니	-9.08584
▁약	-9.08661
▁책	-9.08668
▁높은	-9.0867
치고	-9.08727
순	-9.08751
▁저는	-9.08758
▁잘못	-9.08769
권	-9.08806
▁시절	-9.09089
▁너무너무	-9.0914
가는	-9.09158
▁슬픈	-9.09293
연출	-9.09395
▁삼류	-9.09497
▁짜증	-9.09633
▁맛	-9.09723
▁ᄍᄍ	-9.09904
락	-9.10285
▁100	-9.1036
출	-9.10444
기만	-9.10449
뻔	-9.10482
▁개연성	-9.10485
▁없네	-9.10499
▁사람들은	-9.10609
린다	-9.1072
척	-9.10823
백	-9.10842
에는	-9.10879
▁허접	-9.10985
▁뒤	-9.1102
범	-9.11066
▁여주	-9.11087
었던	-9.11192
▁따뜻한	-9.11195
-_-	-9.11263
▁엄청난	-9.11448
만한	-9.11465
▁그닥	-9.11524
▁연	-9.11584
▁한마디로	-9.11595
철	-9.11643
▁것은	-9.11659
세요	-9.11845
▁있었다	-9.12004
막	-9.12023
▁두번	-9.12041
언	-9.12074
니다	-9.12082
▁잡	-9.12272
추	-9.12317
▁낫다	-9.12327
▁나올	-9.12338
▁감독님	-9.1239
▁봤	-9.12455
▁낮은	-9.1249
▁있어	-9.12645
을때	-9.12688
▁오래	-9.12771
▁봐	-9.12805
▁망작	-9.12833
▁극장판	-9.12857
▁배경	-9.12893
▁일단	-9.1322
들도	-9.13261
▁합니다	-9.13336
지금	-9.13357
▁보는데	-9.13498
▁이영화는	-9.13605
▁첫	-9.13625
했어요	-9.13812
▁목소리	-9.13996
▁볼만	-9.14141
▁다시봐도	-9.14194
▁재밌었다	-9.14198
행	-9.14216
▁재밌는데	-9.14323
▁비교	-9.14431
효	-9.14436
처음	-9.14439
법	-9.14464
▁재미없어	-9.14468
별로	-9.14557
▁순간	-9.14587
▁어릴때	-9.1468
퍼	-9.1474
슴	-9.14783
▁비디오	-9.1492
▁전개가	-9.15006
▁멜로	-9.15007
것같다	-9.15031
이라면	-9.1506
되고	-9.15081
월	-9.15114
▁방	-9.15335
▁자꾸	-9.15392
▁그리	-9.15421
▁감정	-9.15502
▁편집	-9.15531
표	-9.15557
▁잠	-9.15588
▁모르고	-9.15629
이라니	-9.15801
▁감독은	-9.1581
하냐	-9.15824
▁추억	-9.15879
▁사랑을	-9.15989
▁원래	-9.16003
▁모르는	-9.16074
향	-9.16165
▁지금까지	-9.16228
대박	-9.16315
었	-9.16362
▁이것도	-9.16418
많이	-9.16453
시리즈	-9.16496
▁(	-9.16526
▁졸	-9.16529
년도	-9.16589
▁역사	-9.16796
▁돈주고	-9.17059
정도로	-9.17077
▁이상한	-9.17102
▁도저히	-9.17156
▁의미	-9.17158
n	-9.17186
나오	-9.17194
▁이런영화	-9.17219
▁헐	-9.17223
,"	-9.17262
▁숨	-9.17296
플	-9.1746
이냐	-9.17519
▁무조건	-9.17519
찬	-9.17613
▁요	-9.17699
보다는	-9.17859
▁병맛	-9.17887
▁만족	-9.18152
▁달	-9.18164
▁더럽게	-9.18266
츠	-9.18457
▁대한민국	-9.18485
놈	-9.18499
▁가는	-9.18547
▁그러	-9.18553
되어	-9.18612
삼	-9.1868
▁80	-9.18701
건데	-9.18703
그래도	-9.18716
▁완벽한	-9.18817
슬	-9.18873
년에	-9.18893
▁짜	-9.18967
▁유치한	-9.1898
▁실	-9.18998
▁있음	-9.19028
할수	-9.19037
약	-9.19089
▁좋음	-9.19132
▁갈	-9.19234
▁나왔	-9.19405
▁인간의	-9.19411
▁삼	-9.19519
▁그게	-9.19549
,,"	-9.19588
먼	-9.19775
배우들	-9.19816
▁소설	-9.19834
▁없을	-9.19882
▁평점은	-9.20065
_	-9.2015
▁세계	-9.20175
명작	-9.20243
▁천	-9.2025
▁불륜	-9.20256
▁해도	-9.20284
▁어디	-9.20396
쉬	-9.20414
▁알게	-9.20471
▁과거	-9.20502
▁개그	-9.2051
▁좋았어요	-9.20586
▁올	-9.20753
▁아쉬운	-9.20882
였는데	-9.20898
▁지루해	-9.20965
조차	-9.20998
했습니다	-9.21037
▁믿고	-9.21038
▁놀	-9.21068
▁느낄	-9.21106
듬	-9.21176
새	-9.21192
▁괜히	-9.21192
y	-9.2124
▁베	-9.21261
▁여배우	-9.21336
▁오히려	-9.214
▁아닌가	-9.21455
전개	-9.21514
▁웃	-9.21605
도록	-9.21688
▁봤네요	-9.21748
▁명	-9.21833
▁없네요	-9.21845
끝	-9.21947
▁우연히	-9.22015
메	-9.2214
▁관객	-9.22181
▁나이	-9.22234
▁알았다	-9.22268
치는	-9.22326
▁것이다	-9.22368
:	-9.22446
▁연출이	-9.22573
▁굳	-9.22583
▁부족	-9.22587
잖아	-9.22745
사람들	-9.22759
▁비슷한	-9.22766
름	-9.22779
▁부족한	-9.22837
▁억지로	-9.22865
▁성룡	-9.22883
했고	-9.23144
베	-9.23145
▁초딩	-9.23149
▁재밌어	-9.2332
▁예전에	-9.23373
▁이야기를	-9.23412
무슨	-9.23726
술	-9.23932
없	-9.24017
▁돌	-9.24085
침	-9.24355
좋다	-9.244
▁느끼게	-9.2445
▁아무것도	-9.24461
▁뭔지	-9.24463
▁노력	-9.2451
▁순	-9.2454
여서	-9.24604
▁이미	-9.24633
▁수가	-9.24646
▁휴	-9.24657
▁소리	-9.24712
▁선택	-9.2498
쯤	-9.25007
▁버	-9.25027
g	-9.2509
▁초반	-9.25117
▁귀	-9.25145
▁모습이	-9.25197
▁깨	-9.25276
봐서	-9.25452
▁SF	-9.25706
었음	-9.25706
▁댓글	-9.25773
▁힘든	-9.25885
싶	-9.2591
분들	-9.25936
▁먹	-9.26129
................	-9.2614
틀	-9.26152
▁코메디	-9.26173
것이다	-9.26203
▁힘들	-9.2621
▁평점에	-9.26548
▁인정	-9.2655
▁이런거	-9.2655
▁배우가	-9.26771
▁반전이	-9.26772
^	-9.26784
아깝다	-9.26914
만으로도	-9.27197
올	-9.27236
▁전형적인	-9.27373
같다	-9.2738
▁화이팅	-9.27409
▁듯한	-9.27556
▁본다	-9.2756
▁당	-9.2758
처	-9.27717
▁이정도	-9.27754
굿	-9.27775
▁머리	-9.2789
▁연출력	-9.28036
보다가	-9.28041
규	-9.28097
짓	-9.28118
▁쓴	-9.2812
▁결혼	-9.28131
▁알았는데	-9.28155
▁액션도	-9.2828
어야	-9.28299
▁역	-9.2847
▁포	-9.2848
보는데	-9.28537
▁돈이	-9.28558
▁재밋	-9.28572
▁몰입	-9.28573
익	-9.28613
▁맞는	-9.28686
▁다음	-9.28712
였음	-9.2874
였	-9.28774
재밌	-9.28857
▁사회	-9.28905
윤	-9.28949
▁감성	-9.28954
한거	-9.28962
▁기대하고	-9.28967
강추	-9.28976
나라	-9.28992
~~~~	-9.29064
독	-9.2917
간다	-9.29261
▁존재	-9.29316
▁액션영화	-9.29378
인거	-9.29575
▁제작	-9.29585
▁처음으로	-9.29682
▁볼수	-9.29834
▁b	-9.29859
▁좋았습니다	-9.29889
른	-9.29896
존	-9.29914
▁물론	-9.30058
가서	-9.30076
▁예상	-9.3021
▁목	-9.3022
▁프랑스	-9.30322
▁충격	-9.30375
▁웃음	-9.30431
광	-9.30471
겠지만	-9.30573
▁ost	-9.30631
▁살아	-9.30652
▁나라	-9.30788
▁참고	-9.30805
▁않을	-9.30866
▁재미있고	-9.30883
책	-9.31001
련	-9.3101
어도	-9.31056
봐라	-9.31069
▁사랑이	-9.31199
▁앞으로	-9.31239
께	-9.31257
▁장면은	-9.31258
영화다	-9.31291
▁이름	-9.3142
▁어렸을때	-9.31422
곡	-9.31443
시대	-9.31445
말이	-9.31458
▁왕	-9.31501
억	-9.31531
스타	-9.31748
▁지나	-9.31773
▁대단하다	-9.31788
▁흠	-9.31814
▁첨	-9.31844
▁특유의	-9.31864
▁영화였습니다	-9.31918
▁성우	-9.31941
▁팬	-9.32049
빈	-9.32122
▁왜이리	-9.32187
▁유치하고	-9.32268
숙	-9.32311
k	-9.32314
▁문	-9.32349
▁대작	-9.32406
▁재미없고	-9.32425
점준다	-9.32528
풍	-9.32581
이면	-9.32631
▁깊은	-9.32747
▁촬영	-9.32762
▁하면	-9.3292
▁영화보다	-9.33001
▁어린	-9.33076
▁말고	-9.33154
봤	-9.33276
▁복수	-9.33376
▁아이들이	-9.33393
▁좋았고	-9.33398
▁만점	-9.33488
▁같네요	-9.335
버린	-9.33648
▁무서운	-9.3368
아이	-9.3369
▁저도	-9.33697
▁만들지	-9.3376
▁속편	-9.33763
▁삶	-9.33936
▁지금도	-9.33969
덕	-9.33992
점짜리	-9.34048
▁꿈	-9.34059
▁저질	-9.34145
▁영화라	-9.34163
▁천재	-9.34174
▁별루	-9.34178
▁윤	-9.34222
으니	-9.34238
▁암	-9.34375
▁영상미	-9.34383
▁시청률	-9.34398
끼	-9.34418
▁실제	-9.34464
반전	-9.34559
▁명작이다	-9.34651
해지는	-9.34687
▁무엇보다	-9.34692
▁스토리에	-9.34718
▁생	-9.34911
을듯	-9.34933
▁경	-9.34996
▁진행	-9.34998
▁보여준	-9.35023
▁ᄒᄒᄒ	-9.35073
마다	-9.35122
▁나온다	-9.35182
▁그렇고	-9.3525
적이	-9.3525
으나	-9.35396
혀	-9.3541
▁감사	-9.35525
▁상상	-9.35558
▁아니지만	-9.35564
최고의	-9.3559
▁이리	-9.35635
▁노출	-9.35717
▁중에	-9.35729
▁지난	-9.35979
▁재밌었어요	-9.36123
▁집중	-9.36192
▁시간낭비	-9.36236
▁이유	-9.36257
▁화려한	-9.36263
다면	-9.36289
▁현재	-9.36332
▁영화에서	-9.36342
u	-9.36422
이제	-9.3646
▁이런걸	-9.3647
코미디	-9.36478
▁최악이다	-9.36494
졌	-9.36543
분이	-9.36553
▁데	-9.36554
들과	-9.36558
▁먼저	-9.36706
맞	-9.36794
느	-9.36804
▁새	-9.36817
▁아닐까	-9.36831
▁보고나서	-9.36833
일까	-9.36919
▁부분이	-9.37034
귀	-9.37071
▁그래픽	-9.37099
▁레	-9.37103
션	-9.37185
▁C	-9.37242
▁보여주	-9.37245
였던	-9.37336
r	-9.37474
▁전체적으로	-9.37482
▁바보	-9.37487
하던	-9.37498
청	-9.37544
▁여성	-9.37657
▁종	-9.37667
방송	-9.37679
▁비추	-9.37683
▁모습을	-9.37713
▁만들었다	-9.37717
▁나쁜	-9.37821
▁재미없	-9.37915
▁있다는	-9.381
▁졸라	-9.38198
▁마음을	-9.38211
▁누구	-9.38234
한번	-9.38235
결	-9.3828
▁생각한다	-9.38336
품	-9.38391
들어	-9.38405
▁....	-9.38473
▁작품이	-9.38628
h	-9.38682
▁깊이	-9.38775
맛	-9.38797
블	-9.38812
▁위	-9.38937
▁사건	-9.38992
▁많	-9.39072
합	-9.39128
▁평론가	-9.39232
▁추	-9.39283
▁하는데	-9.39289
ᄏᄏᄏᄏᄏᄏᄏᄏᄏᄏᄏᄏᄏᄏᄏᄏ	-9.39319
▁떠나	-9.39329
▁또한	-9.39372
▁삶을	-9.39456
특히	-9.39577
탈	-9.39594
벌	-9.39602
이에요	-9.39611
습	-9.39613
▁있었	-9.39676
▁왠지	-9.39846
리고	-9.3989
거임	-9.39929
겟	-9.39956
▁너무나도	-9.39976
하는거	-9.39986
▁나만	-9.40076
▁실화	-9.40083
되지	-9.40362
~^^	-9.40367
▁끝나	-9.40421
▁낮	-9.40443
▁왜이렇게	-9.40456
▁이번	-9.40466
▁귀신	-9.40474
▁않음	-9.40529
가족	-9.40559
▁메	-9.40664
ᅲᅲᅲ	-9.40668
▁이야기가	-9.40695
▁귀여운	-9.40702
적이고	-9.40798
▁그런데	-9.40845
▁좋았음	-9.40904
▁자신의	-9.40904
▁내인생	-9.40995
▁진부한	-9.41008
였습니다	-9.41013
▁일본영화	-9.41027
했으면	-9.41101
,,,"	-9.4115
낸	-9.41239
▁관람	-9.4126
▁양	-9.41261
▁지루하지	-9.41275
i	-9.41279
▁같습니다	-9.41311
웃음	-9.41401
▁해주는	-9.41419
나서	-9.4143
▁끝내	-9.41437
▁잘봤습니다	-9.41492
최악	-9.41542
꼭	-9.41705
겠	-9.41763
사람이	-9.41785
▁경찰	-9.41792
▁나와	-9.41813
▁못하고	-9.41819
▁입니다	-9.41858
▁리	-9.41868
셔	-9.41896
▁허접한	-9.41925
음악	-9.41948
▁느껴지는	-9.41971
▁겁나	-9.42063
졌다	-9.42081
애니	-9.4213
▁영웅	-9.42162
▁M	-9.42201
▁질	-9.42392
▁흥미	-9.4246
▁써	-9.42483
▁장르	-9.42507
있게	-9.42521
찍	-9.4254
▁영화중에	-9.42669
▁좀비	-9.42692
▁아빠	-9.42825
료	-9.43002
하니	-9.43014
▁보이는	-9.43085
▁죽음	-9.43093
▁범죄	-9.43205
보면서	-9.4335
손	-9.43373
▁낭비	-9.434
▁미화	-9.43437
▁진실	-9.43511
▁이젠	-9.43535
▁있었던	-9.43552
감독이	-9.43574
▁청춘	-9.43587
성이	-9.43618
▁재미있	-9.43673
지고	-9.43836
▁꼬	-9.43912
▁좋았는데	-9.43917
▁않았다	-9.43947
▁전기세	-9.44141
▁드라마를	-9.44169
도없고	-9.44242
더군요	-9.44268
▁여자가	-9.44269
이렇게	-9.44382
▁아버지	-9.44384
▁마치	-9.4445
▁든다	-9.4456
▁다소	-9.44614
▁확실히	-9.44626
▁눈이	-9.44639
▁유쾌한	-9.44684
했을	-9.44684
하여	-9.44781
아닌	-9.44786
▁감사합니다	-9.44934
한데	-9.44973
▁바람	-9.44977
▁하게	-9.44981
▁기분이	-9.45044
▁훨	-9.45093
▁19	-9.45123
▁감상	-9.4513
▁서로	-9.45252
▁액션이	-9.45253
써	-9.45336
▁자연	-9.45364
▁질질	-9.45411
쿠	-9.45481
▁상황	-9.45497
혹	-9.45531
▁매력적인	-9.45627
▁싫어	-9.4563
▁지금봐도	-9.45671
▁아니면	-9.45675
▁드는	-9.458
▁리메이크	-9.45804
▁슬프다	-9.45821
실망	-9.4586
▁어색한	-9.45893
▁이영화가	-9.45988
▁이런게	-9.46004
▁마무리	-9.46019
잔	-9.46028
▁프로그램	-9.46104
▁안되	-9.46112
▁부분	-9.46114
▁드	-9.46131
▁킬링타임용	-9.46203
f	-9.46221
▁완성도	-9.46255
▁아름답다	-9.46289
▁까	-9.46293
▁나를	-9.46294
▁카메라	-9.4634
리가	-9.46351
시간이	-9.46376
▁별로다	-9.46382
동안	-9.4646
▁감탄	-9.46475
▁고민	-9.46495
▁트	-9.46516
완	-9.46543
▁온	-9.46594
▁한계	-9.46708
걸까	-9.46719
▁보지마세요	-9.46764
▁이후	-9.46778
l	-9.46911
▁상영	-9.47026
빨	-9.47049
▁아닌데	-9.47225
▁여전히	-9.47294
햇	-9.47306
▁-_-	-9.4732
▁급	-9.47388
▁통	-9.47391
▁처음이다	-9.47403
▁설	-9.47493
딱	-9.47584
▁로맨틱	-9.47609
▁어이없는	-9.47673
속에	-9.47676
(?)	-9.47708
▁찍	-9.47858
▁눈을	-9.47898
▁형	-9.4805
팔	-9.4809
▁세상에	-9.48272
하는게	-9.48295
레이	-9.48398
▁예쁜	-9.48448
▁스토리와	-9.48497
@	-9.48547
려는	-9.48617
만든	-9.48717
다른	-9.48725
▁아름답고	-9.4874
▁애들이	-9.48754
▁매력이	-9.48771
▁아들	-9.48819
▁프로	-9.48895
▁나오고	-9.48909
송	-9.48932
킹	-9.48979
나온	-9.4905
▁OST	-9.49101
▁감동적이	-9.49264
런	-9.4934
▁소재를	-9.49343
셨	-9.49356
▁인물	-9.49396
▁몸	-9.4943
▁법	-9.49595
▁그래	-9.49631
▁보고싶다	-9.49662
작가	-9.4969
p	-9.49699
ᄂ	-9.49835
▁끌	-9.49862
▁대충	-9.4992
▁같음	-9.49927
▁키	-9.4993
립	-9.50007
시켜	-9.5002
▁살인	-9.50045
재미없다	-9.50052
▁아놔	-9.50076
이며	-9.5013
하긴	-9.50282
전에	-9.50299
▁웃긴	-9.50338
▁감동적이고	-9.50465
엇	-9.50551
m	-9.50568
튼	-9.50593
▁수준이	-9.5067
내요	-9.50676
패	-9.50704
것은	-9.50776
▁마라	-9.50814
▁cg	-9.50944
▁나서	-9.50996
▁해준	-9.51
▁확	-9.51012
▁ᄉᄇ	-9.51045
돌	-9.51084
함을	-9.51107
잉	-9.51113
▁떨어지는	-9.51133
▁역대	-9.51209
▁사는	-9.51243
▁했지만	-9.51296
스럽다	-9.51371
▁잘만든	-9.51428
뜨	-9.51474
▁돌려	-9.5148
▁사람을	-9.51515
▁내용을	-9.51562
▁같	-9.51596
▁드라마가	-9.51664
c	-9.51734
록	-9.51828
야지	-9.51855
▁싫다	-9.51867
▁끝나고	-9.5189
▁15	-9.51915
▁크	-9.51945
▁저예산	-9.51953
▁ᄏᄏᄏᄏᄏ	-9.51992
▁그들의	-9.52011
▁게임	-9.52157
▁찍은	-9.5223
▁아저씨	-9.52257
쪽	-9.52275
다운	-9.52341
자가	-9.52365
칠	-9.52467
네여	-9.52506
▁굳이	-9.52513
스런	-9.52585
▁사극	-9.52605
으며	-9.5262
▁스토리를	-9.52623
▁용서	-9.52667
드는	-9.5267
▁연기력이	-9.5269
▁이유가	-9.52696
받	-9.52754
지루	-9.52889
▁늘	-9.52901
까진	-9.52994
▁리얼	-9.53011
=	-9.53041
▁아까워	-9.53075
▁되어	-9.53097
없어	-9.53137
는것	-9.53194
▁만들었	-9.5322
일뿐	-9.53271
~"	-9.53285
▁심리	-9.53299
결말	-9.53332
재밌게	-9.53339
주인공	-9.53417
▁영화이다	-9.53423
▁통해	-9.5344
▁느끼	-9.53504
▁몰입감	-9.5359
유치	-9.53608
인이	-9.53685
준다	-9.53747
렌	-9.53825
▁짜증나는	-9.53828
▁독립영화	-9.53842
▁과연	-9.53867
▁그의	-9.53892
쇼	-9.53967
영상	-9.53993
주고	-9.54082
*	-9.5411
던지	-9.54189
그러	-9.54208
▁처	-9.54219
▁용	-9.54231
▁패	-9.5431
▁전에	-9.54385
캐릭터	-9.54444
▁남는다	-9.54477
▁기대를	-9.54482
▁빠져	-9.54482
▁순수한	-9.54484
을텐데	-9.54489
▁그런가	-9.54535
▁ᅮ	-9.54552
▁독특한	-9.54659
▁작	-9.5469
▁재미있음	-9.54702
오빠	-9.54788
들아	-9.54865
노잼	-9.54875
▁그럭저럭	-9.54905
▁나에게	-9.54915
▁웃기	-9.55245
랄	-9.55251
▁있다면	-9.55275
▁젤	-9.55301
▁난다	-9.55331
취	-9.5535
▁성공	-9.55391
▁여운	-9.55416
가지	-9.55476
▁가진	-9.55537
하세요	-9.55567
▁찾	-9.55589
▁설명	-9.55592
황	-9.55615
▁재미를	-9.55663
▁으	-9.55783
▁가서	-9.5592
▁역시나	-9.55948
▁연기에	-9.55999
▁살짝	-9.5608
%	-9.56091
▁완벽	-9.56099
▁좋을	-9.56111
ᄉ	-9.56165
▁답답	-9.56182
▁꼴	-9.56229
▁알아	-9.56265
놀	-9.56297
대사	-9.56503
하자	-9.56565
▁아는	-9.56568
▁관	-9.56654
▁등장	-9.56737
▁평범한	-9.56772
▁생각합니다	-9.56788
암	-9.56788
많은	-9.56829
엄마	-9.56853
함이	-9.56878
▁춤	-9.56886
▁티비	-9.569
▁성장	-9.56915
▁평생	-9.56986
평점이	-9.5699
▁연애	-9.57015
▁긴	-9.57166
▁사랑하는	-9.57184
▁캐	-9.57222
▁권	-9.57269
▁나중에	-9.57301
▁나왔으면	-9.57427
재밋	-9.57458
▁안되고	-9.5746
▁했던	-9.57465
▁보는게	-9.57469
????	-9.57562
▁그림	-9.57588
▁앞	-9.57689
그런	-9.57699
보이	-9.57789
▁봤었는데	-9.57819
재밌다	-9.57907
▁저렇게	-9.58004
▁보기엔	-9.5807
▁공감이	-9.58107
앗	-9.58114
인생	-9.58144
▁싸	-9.58155
▁라는	-9.58184
▁소재는	-9.58196
▁신선한	-9.58218
▁만들어진	-9.5823
기가	-9.58346
시키는	-9.58377
▁짜증나	-9.584
▁집	-9.5842
▁받	-9.58534
▁관계	-9.58629
팬	-9.58642
마저	-9.58703
▁남주	-9.5881
만으로	-9.58822
▁독	-9.58844
▁볼때마다	-9.5889
딸	-9.5892
▁그랬	-9.58933
만화	-9.58978
페	-9.59023
▁예고편	-9.59036
▁ᄃᄃ	-9.59041
공포	-9.59043
▁볼만함	-9.59066
있음	-9.5912
▁잼있	-9.59141
보세요	-9.5917
엄	-9.59178
▁희망	-9.59277
았다	-9.59397
20	-9.59398
▁재밌었는데	-9.59436
▁아깝	-9.595
▁다행	-9.59532
▁동화	-9.59576
▁분명	-9.59615
▁현	-9.59644
낮	-9.59694
ᄍᄍ	-9.5971
▁귀엽고	-9.59749
▁안됨	-9.59766
▁s	-9.59813
앙	-9.59838
릿	-9.59882
▁개판	-9.59889
하면서도	-9.59929
▁없지만	-9.6
▁예전	-9.60009
▁접	-9.60021
▁행동	-9.60031
▁작품성	-9.60034
내용도	-9.60048
▁봤다가	-9.60053
거리	-9.60143
▁잼있게	-9.60155
였어요	-9.60159
T	-9.60222
거같다	-9.60313
가지고	-9.60318
▁티비에서	-9.60337
▁함	-9.60386
▁재밌습니다	-9.60392
▁벌	-9.6042
견	-9.6066
하시	-9.6067
▁가지	-9.60817
▁재밌었음	-9.6086
▁보시길	-9.60901
ᄒᄒᄒ	-9.60915
▁추천합니다	-9.60922
▁아오	-9.60953
▁여러	-9.61016
찌	-9.61024
▁몰입이	-9.61034
▁되었다	-9.61065
한국	-9.61076
▁밑에	-9.61106
아주	-9.61128
엉	-9.61251
▁정치	-9.61254
흘	-9.61257
▁표절	-9.61259
득	-9.61285
할듯	-9.61332
변	-9.61335
▁알바들	-9.61339
▁뻔	-9.61431
성을	-9.61516
▁일상	-9.61559
번째	-9.61575
겠네	-9.61586
▁연기와	-9.61609
▁덜	-9.6161
▁우정	-9.61646
갑	-9.61669
었어요	-9.6183
▁음악이	-9.6184
애들	-9.61848
▁주인공의	-9.61861
▁스타일	-9.61976
봉	-9.62
▁필요없는	-9.62012
A	-9.62022
▁유머	-9.6204
일본	-9.6208
▁진심으로	-9.62082
▁있지	-9.62113
▁인기	-9.62159
▁액션은	-9.62159
에겐	-9.6219
▁안하고	-9.62244
ᄆ	-9.6231
▁산	-9.62316
▁가끔	-9.62361
▁있습니다	-9.624
▁많다	-9.62425
▁분들	-9.62535
▁군대	-9.62539
▁같아	-9.62557
▁디	-9.62728
▁나가	-9.62747
봐야	-9.62773
▁영화지만	-9.62799
▁높	-9.62823
▁자막	-9.62845
▁분노	-9.62865
소재	-9.62886
▁멋지다	-9.62898
지마라	-9.62981
추천	-9.63033
▁생각해	-9.63067
▁세상	-9.63098
해주는	-9.6313
꼬	-9.6313
▁볼수록	-9.63195
염	-9.63315
▁사랑과	-9.63321
는걸	-9.63339
주세요	-9.63369
▁얼	-9.63464
▁만나	-9.63494
▁<	-9.6356
령	-9.63585
급영화	-9.63604
▁재미없네	-9.63682
죄	-9.63722
본다	-9.63841
▁어릴적	-9.63869
▁몸매	-9.63871
▁싶어	-9.63928
▁어색	-9.63978
!!"	-9.64007
▁봤으면	-9.64126
내용이	-9.64136
원작	-9.64152
▁황당	-9.64155
▁둘	-9.64185
C	-9.64268
▁이어	-9.64282
▁희생	-9.64312
부분	-9.64319
▁힐링	-9.6432
▁병	-9.64427
▁만든다	-9.64636
▁이건뭐	-9.64677
▁말로	-9.64683
▁재밋게	-9.64707
▁느끼는	-9.64743
▁되게	-9.64804
▁영화보고	-9.64814
▁아닌듯	-9.64838
▁사랑에	-9.64877
▁좋습니다	-9.64886
▁생각나는	-9.64939
▁흐	-9.64941
▁소재로	-9.64952
▁이유는	-9.64985
▁묘사	-9.65101
▁가볍게	-9.65105
▁크게	-9.65117
머리	-9.65125
씨가	-9.65126
에서는	-9.65141
▁제목이	-9.65163
▁단순	-9.65169
▁무지	-9.65221
▁더이상	-9.65251
▁인상	-9.65292
제목	-9.65312
▁재밌네	-9.65324
▁홍보	-9.6558
."""	-9.65599
▁봐야할	-9.65634
없네	-9.65704
▁됐	-9.65711
멘	-9.6581
▁열심히	-9.65818
▁하루	-9.65846
스릴러	-9.65864
▁종교	-9.65916
▁담	-9.66
▁후반부	-9.66015
▁북한	-9.66017
한듯	-9.66158
▁상상력	-9.6623
▁추억의	-9.66288
드라	-9.66333
▁되지	-9.66369
▁영화냐	-9.66372
걸로	-9.66443
답	-9.66449
▁뮤지컬	-9.66456
▁높다	-9.66488
인간	-9.66596
족	-9.66611
친구	-9.66653
있어	-9.66654
▁만큼	-9.66678
▁성인	-9.66712
▁빠	-9.66738
싸	-9.66774
▁미래	-9.66783
▁감동과	-9.66861
▁그걸	-9.66864
▁이정도면	-9.66908
세기	-9.67025
▁드라마는	-9.67037
▁슬프고	-9.67091
났	-9.67165
▁그린	-9.67185
진심	-9.67224
곤	-9.67226
▁한편	-9.67227
▁다만	-9.67233
한영화	-9.67254
▁홍콩	-9.67308
▁주인공들	-9.67321
끄	-9.67323
▁아마	-9.67362
점주는	-9.67399
▁쉽게	-9.67409
&	-9.67417
하려는	-9.67487
시절	-9.6752
▁딴	-9.67551
▁극장	-9.6757
▁재밋다	-9.67581
요즘	-9.67783
량	-9.6782
속에서	-9.67848
▁태	-9.67848
▁떠	-9.67881
▁볼만하다	-9.67963
솔직히	-9.67974
▁좋았던	-9.67988
인가요	-9.68061
▁시대	-9.68065
▁돌아가	-9.68069
▁언제나	-9.68269
▁표현한	-9.68349
▁제작진	-9.68369
▁갑	-9.6839
▁시간을	-9.68454
▁맨	-9.68469
빵	-9.68493
S	-9.68496
▁현실성	-9.68508
▁악역	-9.68543
▁아깝지	-9.68602
▁끝나는	-9.68629
▁어찌	-9.68647
▁디즈니	-9.6869
▁지루해서	-9.68735
▁소름	-9.68795
▁필요없다	-9.68814
;;;;	-9.68837
춘	-9.68878
첨	-9.69009
▁스케일	-9.69021
▁잊혀지지	-9.69058
필	-9.69206
▁채	-9.69292
▁만들고	-9.69423
▁있나	-9.69439
▁못했다	-9.69483
▁재미있네요	-9.69518
킬	-9.69554
에대한	-9.69569
었으면	-9.69646
프로	-9.6977
▁교	-9.69784
▁투	-9.698
힌	-9.6992
▁중요한	-9.69987
밀	-9.70025
▁남을	-9.70035
▁거지	-9.70038
▁이쁜	-9.70057
▁없나	-9.70298
▁찍어	-9.70316
▁답	-9.70362
ᄃ	-9.70376
▁복	-9.70434
갔	-9.70511
북	-9.70625
떠	-9.70681
▁싸구려	-9.70757
더라구요	-9.70849
▁평이	-9.70883
▁골	-9.70943
에요	-9.70976
▁금	-9.7099
▁그다지	-9.71089
로써	-9.71174
시는	-9.71229
하는지	-9.71267
봣는데	-9.71286
▁여기서	-9.71291
▁비주얼	-9.7131
람	-9.71311
영화중	-9.71421
▁맥	-9.71454
▁죄다	-9.71474
▁포장	-9.71512
낼	-9.71525
▁팔	-9.71611
▁전달	-9.71634
차라리	-9.71795
때마다	-9.71827
or	-9.71833
▁섹스	-9.71835
▁짱짱	-9.71836
욱	-9.71932
▁뛰어난	-9.71961
▁어이가	-9.7204
▁발전	-9.7205
싱	-9.72101
▁유치함	-9.72225
먹고	-9.72237
▁중간중간	-9.72244
▁40	-9.72293
▁소재가	-9.72294
클	-9.72339
▁반전도	-9.72354
▁처음엔	-9.72366
ᄀ	-9.72447
▁;;	-9.72454
노래	-9.72497
와서	-9.72518
▁티	-9.72551
▁올리	-9.72586
버렸다	-9.72597
씩	-9.72723
▁재미있었다	-9.72815
던가	-9.72816
충	-9.72832
▁리뷰	-9.72846
▁않게	-9.72881
총	-9.72904
▁어제	-9.72948
고싶다	-9.72989
중의	-9.7299
▁고전	-9.73079
에서도	-9.73085
▁벌써	-9.73099
▁압권	-9.73101
▁어른	-9.73137
▁쓰래기	-9.73158
▁둘다	-9.73167
▁배우의	-9.73179
▁보았다	-9.73264
▁광고	-9.73352
▁건지	-9.73403
▁사기	-9.73417
깨	-9.73443
ᄏᄏᄏᄏᄏ	-9.73459
▁삶의	-9.73461
▁되었	-9.73561
▁다르	-9.7363
전쟁	-9.73648
▁긴장	-9.73698
▁엉성한	-9.73749
▁않아	-9.73803
▁말을	-9.73817
얼	-9.73848
▁빈	-9.73863
점준	-9.74083
보는내내	-9.74093
왔	-9.7411
▁연출도	-9.74175
▁몰라도	-9.7419
▁말하는	-9.74209
▁폭력	-9.74213
▁다큐멘터리	-9.74225
계속	-9.74227
땐	-9.74251
는건지	-9.74292
▁불구하고	-9.74304
것을	-9.74328
연기도	-9.74356
였지만	-9.74384
▁괴물	-9.7443
▁웃겨	-9.74489
하려고	-9.74499
▁끌어	-9.74522
▁범인	-9.74557
▁네	-9.74566
▁헐리우드	-9.74589
▁드럽게	-9.748
▁다시한번	-9.748
정신	-9.74834
▁우리가	-9.74863
"""""""	-9.74909
몰	-9.74964
나고	-9.74964
무비	-9.7502
▁몰	-9.75029
좋고	-9.75035
▁어려운	-9.75112
▁12	-9.75129
▁아쉬움	-9.75159
눈물	-9.75251
▁신선	-9.75282
일이	-9.75296
▁좋아서	-9.75359
시고	-9.75392
편보다	-9.7542
▁초반에	-9.75498
▁있게	-9.755
십	-9.75536
▁스타	-9.75545
풀	-9.75562
오는	-9.75616
로서	-9.75693
▁최근	-9.75698
하려	-9.75874
▁고생	-9.75923
▁벗	-9.75996
▁신기	-9.76018
모든	-9.76023
▁판	-9.76059
▁짓	-9.76092
▁모르	-9.76151
▁웃기고	-9.76166
▁떠나서	-9.76201
▁사이	-9.7621
▁있어요	-9.76225
▁의심	-9.7623
년전에	-9.76328
링	-9.7633
▁보이	-9.7637
우리	-9.76408
▁이제야	-9.76514
릭	-9.76516
ᅡ	-9.76545
▁틀	-9.76556
▁A	-9.7664
예요	-9.76708
▁인생을	-9.7671
▁현실적인	-9.76713
▁있으면	-9.7678
▁낮아서	-9.76786
응	-9.76819
▁올해	-9.76843
▁"""""""	-9.76887
▁장면에서	-9.76896
접	-9.76899
▁글쎄	-9.76923
▁니	-9.77052
▁역할	-9.77055
▁결말도	-9.77108
텔	-9.77113
]	-9.77113
▁광	-9.77142
아서	-9.77156
▁생애	-9.77161
▁음악도	-9.77184
▁죄	-9.77258
놓은	-9.77291
▁전편	-9.77354
▁캐릭터들	-9.77361
얘기	-9.7742
▁보고싶은	-9.77423
▁교훈	-9.77465
묘	-9.77576
▁사람의	-9.7759
▁나옴	-9.77599
니깐	-9.77663
▁각	-9.77671
▁그렇다	-9.77679
j	-9.77684
영화라고	-9.77717
▁직	-9.77719
▁단연	-9.7778
▁열정	-9.77796
▁무섭	-9.77803
▁시걸	-9.77928
▁산으로	-9.77942
옥	-9.78026
아님	-9.78046
▁어쩔	-9.78053
▁지금은	-9.78137
더만	-9.7815
▁뒷	-9.7821
▁회	-9.78228
▁시각	-9.78255
▁돌아	-9.78277
버리는	-9.78285
▁마세요	-9.78309
▁되고	-9.78318
▁유치하다	-9.78327
시작	-9.78339
거라	-9.7838
잼있	-9.78471
▁나왔다	-9.78502
▁잔인한	-9.78508
이걸	-9.78613
▁좀더	-9.7862
골	-9.78629
▁하네요	-9.7866
▁그렇다고	-9.78663
▁많아	-9.78701
▁하는지	-9.78702
엘	-9.78702
개봉	-9.78741
택	-9.78769
점수	-9.78777
▁이러	-9.78802
▁그럼	-9.78837
▁시선	-9.78885
겁니다	-9.78885
▁환상	-9.78954
▁아름다움	-9.79045
▁생각없이	-9.7908
탕	-9.79091
▁오버	-9.79098
▁포기	-9.79122
▁반성	-9.79128
▁눈빛	-9.79145
킨	-9.79182
▁점수를	-9.79246
▁뻔하고	-9.79265
▁쵝오	-9.79336
▁줌	-9.79339
▁전작	-9.7941
▁동생	-9.79442
▁단순한	-9.79505
▁무섭다	-9.79513
▁남편	-9.79598
▁에로	-9.79598
▁표	-9.79661
▁탄탄한	-9.79713
▁기본	-9.79744
▁보여	-9.79795
B	-9.79807
▁왜케	-9.79815
▁취	-9.79854
▁조연	-9.7987
▁자유	-9.79875
으로서	-9.79896
▁동물	-9.79937
▁에휴	-9.79956
▁민	-9.79964
▁내려	-9.79972
▁해야	-9.79974
설정	-9.79977
▁멀	-9.80023
▁미드	-9.80077
.......	-9.80118
사는	-9.80226
▁옛날에	-9.80262
▁조폭	-9.80292
▁영화에요	-9.80305
▁절	-9.80315
▁결말은	-9.80419
▁높아	-9.80509
▁불편	-9.80514
▁귀엽	-9.80519
만들	-9.80522
▁어머니	-9.8059
▁사랑스러운	-9.80689
하구	-9.80713
▁표정	-9.80742
▁느와르	-9.80747
▁눈에	-9.80762
▁게이	-9.80767
▁흥미진진	-9.80808
▁모든게	-9.80872
▁돋	-9.80922
놈들	-9.80935
그래	-9.81084
폐	-9.81151
같	-9.81194
▁못한다	-9.81215
재밌음	-9.81274
--	-9.81327
▁제작비	-9.81436
▁허세	-9.81467
▁인생의	-9.81471
▁하면서	-9.81482
▁않나	-9.81485
웠	-9.81485
▁무엇을	-9.81488
▁중간	-9.8157
배우들의	-9.81571
▁먼	-9.81577
▁생각하고	-9.81646
짝	-9.81652
▁뜻	-9.81656
▁느낌을	-9.81659
▁이후로	-9.81684
▁멍청한	-9.81686
▁방금	-9.8173
시즌	-9.81758
나올	-9.8176
▁싶네요	-9.81796
▁싶	-9.81828
뭔가	-9.81838
▁의리	-9.8184
▁폭	-9.81902
▁청	-9.81906
▁누구나	-9.81914
▁있네요	-9.81978
▁연속	-9.8198
했네	-9.8205
▁주제	-9.82055
♥♥	-9.82178
있네	-9.82201
영화의	-9.82219
▁끝이	-9.82238
만들어	-9.82283
관계	-9.82329
▁인간이	-9.82369
▁넘어	-9.82421
▁젊은	-9.82463
▁힘들다	-9.82501
째	-9.82541
제발	-9.82542
하라	-9.82606
모르	-9.82612
▁알았	-9.8263
x	-9.82641
▁눈물을	-9.82819
▁연예인	-9.82831
▁피해자	-9.8293
▁즐겁게	-9.82982
표현	-9.83012
기엔	-9.83037
▁없는데	-9.83123
려서	-9.83136
편을	-9.83152
나와	-9.83239
▁없었	-9.8325
님들	-9.83269
휴	-9.83284
▁못해	-9.83336
한다는	-9.83395
시킨	-9.83502
▁대부분	-9.83562
말고	-9.83566
같음	-9.83572
▁이쁘고	-9.83622
▁능력	-9.83688
연기력	-9.83738
▁에피소드	-9.8388
▁따	-9.83894
▁않지만	-9.83937
봤던	-9.84001
▁죽는	-9.8404
▁울고	-9.84042
힐	-9.84188
▁더불어	-9.842
했네요	-9.8421
▁의미를	-9.84316
▁집에서	-9.8435
르는	-9.84389
▁남아	-9.8442
감독의	-9.84557
▁나오지	-9.8466
▁작가가	-9.8468
▁맨날	-9.84832
▁했	-9.84833
▁잔잔하고	-9.84875
▁시대를	-9.84878
▁명작이	-9.84924
▁극치	-9.84979
▁의도	-9.85054
짜증나	-9.85061
▁정말로	-9.85079
닥	-9.85116
▁이해할	-9.85182
▁시트콤	-9.85242
11	-9.85256
▁엉성	-9.85352
놓	-9.85372
봤음	-9.85401
봐요	-9.85414
O	-9.85424
▁철	-9.85429
▁70	-9.85446
사람은	-9.85476
▁빼고	-9.85512
▁시사회	-9.85523
사이	-9.85534
오늘	-9.85586
▁한데	-9.85611
▁운	-9.85638
▁보니까	-9.85661
▁이거보고	-9.85685
연기가	-9.85699
▁ᅲᅲᅲ	-9.85709
자는	-9.85733
▁악당	-9.85781
▁지루할	-9.85802
재밌어요	-9.85862
줌	-9.85892
▁못할	-9.85896
▁견자단	-9.85901
▁베스트	-9.86001
인것	-9.86006
재미있	-9.8604
엿	-9.86098
▁더러운	-9.86109
만드는	-9.86112
▁+	-9.86121
▁하나하나	-9.86122
땅	-9.86129
▁아나	-9.8613
▁궁금	-9.86141
한다면	-9.86182
이었음	-9.86266
▁야한	-9.86268
이니	-9.86298
둘	-9.86306
끝까지	-9.86312
▁죽어	-9.86366
▁남겨	-9.86376
▁울었다	-9.86392
나와서	-9.86397
▁밥	-9.86419
▁스스로	-9.86429
지마	-9.86445
▁봣는데	-9.86487
▁몇번을	-9.86519
보자	-9.86543
껏	-9.8655
했다는	-9.86625
w	-9.86714
▁주변	-9.86718
▁무비	-9.86748
보지	-9.86778
▁살고	-9.86823
▁몰랐	-9.86833
▁안타깝다	-9.86856
▁친	-9.86917
사회	-9.86921
▁칼	-9.8696
▁발로	-9.87092
▁웃음이	-9.87107
▁쫌	-9.87113
대는	-9.87119
▁아이돌	-9.87124
지말고	-9.87128
▁생각하는	-9.87169
▁경험	-9.87172
▁바라	-9.87203
롱	-9.87205
▁학교	-9.87206
▁그렇	-9.87256
쓴	-9.87334
........	-9.87337
▁코난	-9.87385
▁정서	-9.87406
E	-9.87421
^^"	-9.87449
형님	-9.87474
▁우주	-9.87483
▁수도	-9.87485
▁속에	-9.87494
▁I	-9.87508
하다니	-9.87524
▁훌륭	-9.8753
▁잊지	-9.87531
▁헐리웃	-9.87548
▁최고입니다	-9.87585
막장	-9.87625
er	-9.87632
ᄃᄃ	-9.8766
▁지루하게	-9.87676
▁본다면	-9.87681
것만	-9.87683
▁명품	-9.87713
▁전체	-9.87751
▁S	-9.87791
▁쩐다	-9.87843
▁대화	-9.87847
▁덕분에	-9.87863
려면	-9.87917
▁the	-9.87938
▁읽	-9.87958
한게	-9.87959
▁다룬	-9.87969
▁딱히	-9.87984
만의	-9.88001
▁보인다	-9.88048
▁아쉽네요	-9.88054
▁작은	-9.88073
님의	-9.88078
▁국	-9.8808
▁킬링타임	-9.88088
되서	-9.88111
▁국내	-9.8814
▁기대했는데	-9.88141
▁이런영화가	-9.88196
▁히	-9.88202
따라	-9.88311
▁시도	-9.88327
▁같아서	-9.88347
했어	-9.88431
공감	-9.88468
▁한참	-9.88496
▁안보고	-9.88503
웅	-9.88511
좋아요	-9.88524
떄	-9.88571
▁펑펑	-9.88578
▁페	-9.88607
▁후반	-9.88646
▁식	-9.88648
▁빼	-9.8866
▁고통	-9.88705
▁몰입해서	-9.8872
▁영화였어요	-9.88734
▁개연성이	-9.88742
잠	-9.8875
웃기	-9.88771
▁공부	-9.88811
있나	-9.88825
▁ᄋᄋ	-9.88857
▁작품이다	-9.88864
▁헤	-9.88917
▁그럴	-9.88945
▁한심	-9.88964
▁밀	-9.88977
▁신선하고	-9.89007
▁대사가	-9.89018
▁이미지	-9.89094
이런영화	-9.89103
씨의	-9.89122
돼	-9.89171
▁안돼	-9.89196
▁갈등	-9.89197
▁취향	-9.89291
▁남자가	-9.89364
리스	-9.89405
영화임	-9.89439
최	-9.89517
▁동안	-9.89613
▁어린이	-9.89728
▁보내	-9.89744
▁조합	-9.89757
▁노답	-9.89832
▁양심	-9.89848
엠	-9.89856
현실	-9.89866
▁그녀	-9.89889
▁짠	-9.89911
▁단지	-9.89921
▁모르겠고	-9.89927
▁외모	-9.9002
▁따뜻해지는	-9.90037
▁가치	-9.90086
▁달라	-9.90109
▁쓸	-9.90189
었습니다	-9.90192
▁재미없어요	-9.90195
▁자신	-9.90217
▁미모	-9.90248
▁굿굿	-9.90266
▁c	-9.90272
▁싸이코	-9.90273
▁긴장감도	-9.90286
언니	-9.90289
문제	-9.90325
▁씨	-9.90396
▁붙	-9.90416
▁이해하기	-9.90417
▁폴	-9.90454
영화로	-9.90501
▁직접	-9.90514
▁현대	-9.90516
답답	-9.90529
▁볼게	-9.90539
구성	-9.90573
▁흐름	-9.90591
▁위대한	-9.90594
▁사랑이야기	-9.90633
ing	-9.90655
했는지	-9.90673
▁박수를	-9.90733
쥐	-9.90742
났다	-9.908
갔다	-9.90984
장난	-9.91016
▁대단	-9.91038
▁김기덕	-9.91088
▁게다가	-9.91152
ᅵ	-9.9116
받고	-9.9117
▁진리	-9.91186
▁연결	-9.91188
새끼	-9.91197
▁영어	-9.91201
▁의외로	-9.91218
▁어휴	-9.9124
와는	-9.91248
장면이	-9.91275
징	-9.91282
재미없	-9.9131
한건	-9.91358
마지막에	-9.91422
▁십	-9.91575
기분	-9.91617
똑	-9.9166
▁영화인듯	-9.9166
인의	-9.91707
▁청소년	-9.91712
▁말하고	-9.91733
▁재밌을	-9.91736
착	-9.91749
▁메시지	-9.91763
지를	-9.91767
▁흔한	-9.91789
▁부모	-9.91792
▁순수	-9.91811
▁관심	-9.91823
▁짝퉁	-9.91828
▁채널	-9.91854
하신	-9.91859
흐	-9.91881
▁호러	-9.91891
▁홍	-9.91913
하지도	-9.91927
감이	-9.92003
▁사랑은	-9.92014
감독님	-9.92081
하셨	-9.9209
▁유쾌	-9.92102
어떻게	-9.92109
시다	-9.92111
배경	-9.92156
▁엉망	-9.92162
▁꺼	-9.92169
있는데	-9.92216
그래서	-9.92272
▁보길	-9.92313
▁빼고는	-9.9233
랜	-9.92341
▁재미있었어요	-9.92373
▁배우들도	-9.92392
▁문화	-9.92644
였고	-9.92734
롭	-9.92735
▁봤더니	-9.92745
▁풍	-9.92768
밥	-9.92785
▁넘치는	-9.92816
모습	-9.92894
▁좋지만	-9.92967
▁그렇지	-9.93002
▁50	-9.93005
으면서	-9.93011
▁18	-9.93026
▁한국인	-9.93038
▁이쁘다	-9.93044
르고	-9.93046
▁좋아할	-9.93055
이라서	-9.93072
편의	-9.93237
▁터	-9.93256
▁우와	-9.93285
▁행복한	-9.93286
버리	-9.93349
▁부족하다	-9.93374
▁여행	-9.93448
▁자살	-9.93451
봅니다	-9.93474
하다가	-9.935
력이	-9.93566
들만	-9.93586
▁쓰레기다	-9.93592
▁푹	-9.93615
▁뭐라	-9.93719
▁출	-9.93772
닝	-9.9381
▁레전드	-9.93819
▁이것	-9.93835
▁오바	-9.93843
▁감정을	-9.93883
▁영국	-9.93914
▁작품을	-9.93922
▁지구	-9.94016
▁유쾌하고	-9.94017
▁즐거운	-9.94018
ar	-9.94054
▁카리스마	-9.9406
▁죽은	-9.9407
▁사랑의	-9.94113
▁아픔	-9.94129
▁필요한	-9.94134
▁마이너스	-9.94166
삶	-9.94174
▁이하	-9.94185
▁음악과	-9.94216
버리고	-9.94259
▁죽여	-9.94339
▁누	-9.94354
▁풀	-9.94386
▁속에서	-9.94397
▁암튼	-9.94411
지않고	-9.94447
▁국민	-9.9447
▁받았	-9.94473
칙	-9.94494
▁실패	-9.94522
나가는	-9.94533
▁웃김	-9.94582
괴	-9.94589
▁들었다	-9.94614
▁섹시	-9.9463
져서	-9.94643
▁뛰어	-9.94686
▁슬픔	-9.94743
▁이연걸	-9.94866
▁비판	-9.94867
▁좋아하는데	-9.94876
자의	-9.94916
▁실제로	-9.9496
▁꿈을	-9.94985
?!	-9.94991
텐	-9.95071
▁007	-9.95078
율	-9.95096
▁먹고	-9.95158
▁멋있다	-9.95159
함과	-9.95174
넹	-9.95174
부작	-9.95178
▁씬	-9.95213
▁느낀	-9.95229
▁나오면	-9.95241
▁완전히	-9.95254
▁모르겠지만	-9.95259
▁좋았지만	-9.9528
▁남자의	-9.95396
▁제로	-9.95505
▁주기	-9.95515
I	-9.95571
▁나쁘지	-9.95579
세계	-9.95646
▁질리지	-9.95761
▁한마디	-9.95767
▁없었던	-9.95786
▁좋았으나	-9.95868
▁송	-9.95869
▁느껴진다	-9.95871
님이	-9.96069
그리	-9.96163
▁어쩌	-9.96167
▁계	-9.96179
▁커	-9.96311
▁않을까	-9.9632
긴한데	-9.96354
▁소녀	-9.96368
▁ᄋ	-9.96369
▁논	-9.964
▁용기	-9.96424
▁안보	-9.9644
으론	-9.96462
▁안나오	-9.96508
렁	-9.96549
▁살려	-9.96561
▁지루했다	-9.96599
▁없지	-9.96648
상황	-9.96691
▁로봇	-9.96732
누	-9.96736
이였다	-9.96749
▁군	-9.96799
▁쓰레기같은	-9.9682
만큼은	-9.96837
▁클	-9.96846
보게	-9.96882
▁월	-9.9697
▁달리	-9.96982
받는	-9.97014
더빙	-9.9703
▁부터	-9.97034
순간	-9.97083
▁간다	-9.97114
▁관한	-9.97164
▁있던	-9.97183
▁이유를	-9.9726
▁퀄리티	-9.97268
▁괴	-9.97299
▁재밌다고	-9.97314
▁짜증난다	-9.97328
▁보여준다	-9.97333
▁말할	-9.9746
씬은	-9.97467
▁반개도	-9.97576
▁할까	-9.97659
▁무섭지도	-9.97704
ᄌ	-9.9771
샤	-9.97714
▁보며	-9.97715
▁쇼	-9.9772
▁많고	-9.97803
▁꽝	-9.97873
스럽	-9.97897
▁끝난	-9.97898
▁와우	-9.97958
▁루	-9.97976
▁역대급	-9.98052
▁연기자들	-9.98209
▁풀어	-9.98228
홍	-9.98247
▁보았	-9.98268
▁뒤로	-9.9828
▁비극	-9.98283
자들	-9.98322
▁보지마	-9.98373
시간에	-9.98376
▁똑같은	-9.98392
▁어이없	-9.98396
▁찡	-9.98442
얼굴	-9.98451
▁빠진	-9.98455
▁힘이	-9.98512
▁한명	-9.98554
▁손발이	-9.98563
▁봤을때	-9.9865
딩	-9.98651
▁고양이	-9.98663
부족	-9.9868
▁보고나면	-9.9869
▁학교에서	-9.98712
▁망한	-9.98717
▁좋게	-9.98814
▁안나	-9.98885
▁"1	-9.98911
▁해주	-9.9895
봣	-9.99016
▁커플	-9.99042
▁따로	-9.99042
▁보긴	-9.99098
▁무서워	-9.99105
▁대해서	-9.99128
꼴	-9.99137
▁좋아해서	-9.99163
▁미안	-9.99177
절대	-9.99184
▁잔	-9.99214
▁좋겠어요	-9.99248
껄	-9.99282
탁	-9.99283
▁잼있다	-9.9929
▁개뿔	-9.99333
▁아이가	-9.99348
겟다	-9.99379
▁밤	-9.99382
생활	-9.99384
줬	-9.99402
▁일품	-9.9943
▁좋았	-9.99436
▁느낄수	-9.99463
▁됨	-9.99468
사건	-9.99468
들고	-9.99487
▁야동	-9.99495
▁황	-9.99584
▁무협	-9.9959
▁시청	-9.99664
▁로그인	-9.99678
▁없다는	-9.99695
▁흥미로운	-9.99708
▁받아	-9.99716
▁영화관	-9.99733
필요	-9.99738
▁주성치	-9.99747
▁연기력도	-9.99747
▁필름	-9.99754
▁포르노	-9.99813
다음	-9.99891
젤	-9.99901
▁설레	-9.9994
▁긴장감이	-9.99981
▁레알	-9.99999
소설	-10.0001
▁왠만하면	-10.0004
▁괜찮	-10.0006
▁관객들	-10.0006
▁우리의	-10.0009
▁시리즈중	-10.0016
었지만	-10.0019
사람들이	-10.0033
▁받는	-10.0035
▁홍콩영화	-10.0041
▁잠깐	-10.0044
폭	-10.0049
▁합	-10.0051
▁이제서야	-10.0057
▁볼거리	-10.0057
끈	-10.0062
혁	-10.0065
OOO	-10.0072
▁투자	-10.0072
모두	-10.0072
할까	-10.0075
▁:	-10.0076
껴	-10.0077
▁풍경	-10.0078
좌	-10.0079
▁할머니	-10.0087
▁알수	-10.0089
▁재밌었	-10.0099
엔딩	-10.0103
▁모르게	-10.0112
▁크리스마스	-10.0114
▁차이	-10.0122
▁괜찮다	-10.0125
중에서	-10.0129
똥	-10.0132
▁소름이	-10.0133
온다	-10.0134
▁유명	-10.0135
▁그려	-10.0136
M	-10.0138
▁우울	-10.0148
닉	-10.0151
힘	-10.0154
an	-10.0161
▁있었지만	-10.0163
▁해석	-10.0164
세상	-10.0165
있어서	-10.0169
됬	-10.017
시길	-10.0177
수록	-10.0182
▁지켜	-10.0185
줘	-10.0187
▁본영화	-10.0198
▁인해	-10.02
▁받을	-10.0202
▁라고	-10.0202
아까움	-10.0203
▁뜨	-10.021
으니까	-10.0213
떨어	-10.0214
▁자주	-10.0214
▁겨우	-10.0225
▁진정	-10.0228
▁지나치게	-10.023
까지는	-10.0233
▁팬이	-10.0236
도아니고	-10.0239
하기만	-10.0243
버릴	-10.0244
▁재미잇	-10.0245
나게	-10.0247
▁화가	-10.0248
곳	-10.0248
▁악마	-10.0249
▁가득	-10.0251
//	-10.0251
▁둘이	-10.0255
초반	-10.0269
▁드립니다	-10.0275
▁답답한	-10.0276
▁개막장	-10.0281
▁혼	-10.0283
▁13	-10.0288
▁사람들의	-10.029
압	-10.0295
감정	-10.0301
좋아하는	-10.0302
▁가슴에	-10.0303
볼만	-10.0305
내는	-10.0308
가슴	-10.0308
▁내면	-10.0312
▁개봉한	-10.032
였어	-10.0324
누나	-10.033
지도않고	-10.0337
▁임	-10.0346
했나	-10.0353
분은	-10.0359
끝나	-10.0363
▁기대안하고	-10.0365
팅	-10.0366
▁멋있	-10.0367
ᄅ	-10.0369
▁평범	-10.037
▁까지	-10.0375
▁슈퍼	-10.0375
▁싫	-10.0382
스의	-10.0383
▁작품은	-10.0385
명의	-10.039
▁없어요	-10.0393
▁떨어진다	-10.0393
▁출연진	-10.0395
빨리	-10.0396
▁남녀	-10.04
해진	-10.0403
▁유명한	-10.0404
이해	-10.0404
▁좋았을	-10.0405
▁어린시절	-10.0414
▁왜이래	-10.0414
▁멍청	-10.0417
▁졸리	-10.0417
한것	-10.0418
명이	-10.0423
▁탈	-10.0424
N	-10.0429
▁하는거	-10.0431
▁바꾸	-10.0431
점줌	-10.0432
으로써	-10.0435
▁반복	-10.0436
▁있어야	-10.0439
▁보기에	-10.044
편도	-10.0444
없어서	-10.0445
▁케이블	-10.0445
`	-10.0446
층	-10.0447
▁적당	-10.0451
▁착한	-10.0452
▁형님	-10.0457
▁가치가	-10.0461
지않는	-10.0463
▁삶에	-10.0463
▁보았습니다	-10.0466
▁싶지	-10.0467
▁일이	-10.0468
지가	-10.0468
▁잊을	-10.0469
30	-10.047
▁쩝	-10.0473
▁있는지	-10.0481
▁평점보고	-10.0482
▁철학	-10.049
봤지만	-10.049
했었는데	-10.0495
시키	-10.0495
▁재미없게	-10.0499
알바	-10.0513
▁갖	-10.0517
자체가	-10.0517
▁이런영화를	-10.0519
포스터	-10.0522
점이다	-10.0526
▁짝이	-10.0526
기억	-10.0528
보이는	-10.0531
▁뭉클	-10.0535
안에	-10.0536
안되	-10.0538
▁아픈	-10.0541
▁자신이	-10.0547
▁왠	-10.0549
년도에	-10.055
멜	-10.0556
▁T	-10.0557
▁영화보는	-10.0558
짜증	-10.0559
▁높게	-10.0561
센	-10.0561
겠습니다	-10.0564
▁D	-10.0567
스키	-10.057
것같아요	-10.0573
▁스트레스	-10.058
속의	-10.0583
▁요소	-10.0588
만이	-10.0593
놨	-10.0597
하기도	-10.0597
▁싶은데	-10.0598
캐	-10.0598
▁생각하면	-10.0599
▁실력	-10.0599
편에	-10.06
▁웃기다	-10.06
어린	-10.0601
▁알겠는데	-10.0604
▁웃기지도	-10.0605
▁감히	-10.0609
▁재미와	-10.0618
사가	-10.0621
이자	-10.0622
치곤	-10.0622
▁이쁘	-10.0626
▁DVD	-10.0627
▁필	-10.0629
든다	-10.0636
해준	-10.0637
▁기다려	-10.0637
상을	-10.0638
나온다	-10.0641
▁아예	-10.0652
봤어요	-10.0653
▁뿐이다	-10.0657
헤	-10.0658
▁보여주고	-10.0671
싶다	-10.0674
▁색다른	-10.0675
▁없습니다	-10.0677
▁캐릭터가	-10.0679
관객	-10.0681
▁위해서	-10.0685
하시는	-10.0687
거같아요	-10.0689
아무리	-10.0689
▁생각함	-10.069
▁전쟁영화	-10.0694
▁넣	-10.0697
텐데	-10.0699
▁훈훈한	-10.0699
▁발견	-10.07
▁정의	-10.0703
스타일	-10.0706
▁비하면	-10.0706
▁대본	-10.0708
▁원작의	-10.0711
때부터	-10.0714
개도	-10.0722
▁탑	-10.0725
▁감동적	-10.073
영화에	-10.073
,,,,	-10.0738
▁친구들	-10.0739
▁그거	-10.074
▁도전	-10.0741
▁형사	-10.0743
▁괜찮은데	-10.0743
▁안타까운	-10.0751
아니다	-10.0755
▁해결	-10.0758
사람들은	-10.0761
▁있구나	-10.0763
▁하늘	-10.0766
지않은	-10.0769
보니까	-10.0771
▁못함	-10.0773
억지	-10.0776
거같은데	-10.0777
▁앞으로도	-10.078
스토리도	-10.078
▁심하게	-10.0785
냈다	-10.0786
식이	-10.0787
▁11	-10.0787
▁독특	-10.0788
▁점수가	-10.0794
▁선생님	-10.0797
당시	-10.0798
▁개연성도	-10.0801
▁할말이	-10.0802
▁우리는	-10.0804
▁가능	-10.0811
▁모르겠음	-10.082
▁말도안되는	-10.0826
납니다	-10.0829
▁훌륭하다	-10.083
▁문제가	-10.0832
하기에	-10.0842
혼	-10.0849
▁못하다	-10.085
▁답답하고	-10.0852
찾	-10.0853
자리	-10.0854
▁재밌던데	-10.086
▁그녀의	-10.0861
▁이래	-10.0861
▁흑인	-10.0862
!!!!!	-10.0863
▁조작	-10.0865
▁진부하고	-10.0866
▁조화	-10.0881
수있는	-10.0886
▁척	-10.0889
▁변태	-10.0892
도대체	-10.0895
▁여자들	-10.0896
▁마이클	-10.0896
뒤	-10.0898
협	-10.0898
▁치고	-10.0899
▁효과	-10.09
▁영화들	-10.0901
빡	-10.0904
▁장르가	-10.0904
롤	-10.0907
▁메세지	-10.0909
해진다	-10.0912
▁원작이	-10.0913
거면	-10.0916
ᅲᅲᅲᅲ	-10.0917
줘서	-10.0918
간의	-10.0918
▁색감	-10.0923
하는건	-10.0926
건가요	-10.0927
▁아줌마	-10.0929
▁기자	-10.0929
자신	-10.0929
▁놓	-10.0975
▁잼나	-10.0976
▁똑같	-10.0981
▁멋	-10.0983
v	-10.0983
z	-10.0985
★	-10.0985
픈	-10.0988
▁무엇인지	-10.0988
▁나은	-10.0991
류의	-10.0994
~!!!	-10.0998
▁만들면	-10.1003
엇다	-10.1005
▁감동적이다	-10.1005
미국	-10.1005
버림	-10.1019
▁어렸을	-10.1023
▁맹	-10.1024
한다고	-10.1029
▁통쾌	-10.1031
▁묻	-10.1034
▁거짓말	-10.1034
만들었	-10.1036
▁바꿔	-10.1037
▁빵점	-10.1038
▁명작입니다	-10.1043
▁추억이	-10.1043
▁낮아	-10.1046
▁웃고	-10.1049
▁야구	-10.105
▁그것	-10.1052
▁욕망	-10.1056
생겼	-10.1062
▁낚시	-10.1062
▁술	-10.1064
▁깨닫게	-10.107
▁잘하고	-10.1071
뜻	-10.1072
▁편견	-10.1077
▁보려고	-10.1078
▁맞아	-10.1078
▁보통	-10.1082
▁한국영화는	-10.1086
▁샤	-10.1086
줬다	-10.1087
▁연출과	-10.1088
스가	-10.109
▁최초	-10.1091
▁정도의	-10.1094
물이	-10.1096
▁예쁘고	-10.1096
용으로	-10.1098
했으나	-10.1099
▁죽는줄	-10.1099
았던	-10.1104
옴	-10.1106
▁방식	-10.1108
▁한심한	-10.1109
▁느껴	-10.111
▁몇몇	-10.1115
▁낮게	-10.1117
▁않네요	-10.1118
▁작가님	-10.1122
냥	-10.1123
좋음	-10.1123
▁분위기가	-10.1126
▁이때	-10.1126
인건	-10.1132
▁놀라	-10.1138
랄까	-10.1142
가요	-10.1142
넣	-10.1142
▁자신을	-10.1143
년만에	-10.1145
▁여러가지	-10.1147
있었	-10.1153
▁죽이는	-10.1154
▁f	-10.1163
해주세요	-10.1163
긴장감	-10.1164
나옴	-10.1167
하겠다	-10.1171
줘야	-10.1172
▁에이	-10.118
▁찍었	-10.1184
▁집에	-10.1186
켜	-10.1187
▁영원히	-10.119
두고	-10.1195
▁사진	-10.12
▁노래도	-10.1201
하길	-10.1202
▁불쾌	-10.1202
나오고	-10.1208
임에도	-10.1209
당한	-10.1209
▁하나의	-10.1212
살아	-10.1212
혹은	-10.1217
▁싶을	-10.1221
▁빠지	-10.1222
옹	-10.1224
▁그건	-10.1224
스럽고	-10.1225
▁소중한	-10.1226
▁최강	-10.1229
▁잼있어요	-10.1231
이름	-10.1232
▁운명	-10.1241
▁살면서	-10.1242
▁불러	-10.1244
높	-10.1244
늘	-10.1245
이었습니다	-10.1247
▁갖고	-10.1249
▁여름	-10.125
▁있었는데	-10.1254
는것도	-10.1262
▁찬	-10.1272
▁근	-10.1273
끼리	-10.1278
▁느꼈다	-10.1282
▁나머지	-10.1294
그만	-10.1296
▁생각나서	-10.131
▁남자주인공	-10.1313
▁전개도	-10.1314
▁할수	-10.1314
▁쓰는	-10.132
로만	-10.132
▁보지마라	-10.1324
▁하나같이	-10.1324
▁당시에	-10.1324
▁허무	-10.1328
값	-10.1328
시나리오	-10.1332
▁빌려	-10.1333
▁체	-10.1333
▁세상을	-10.1335
▁구성이	-10.1337
▁핵	-10.1338
럽	-10.1338
▁외국	-10.1338
뻔한	-10.1339
▁막장드라마	-10.1339
로운	-10.1339
19	-10.1343
조금	-10.1349
▁본거	-10.1351
▁기다리	-10.136
▁낮다	-10.1389
▁잔뜩	-10.1389
▁배우를	-10.1389
졸	-10.1392
▁무척	-10.1394
▁비밀	-10.14
끌	-10.1408
▁불쌍	-10.141
쏘	-10.1414
봤네요	-10.1415
▁ᄏᄏᄏᄏᄏᄏ	-10.1416
▁듣고	-10.1416
큰	-10.1417
▁여운을	-10.1422
▁아닙니다	-10.1423
▁액션씬	-10.1426
▁자식	-10.1433
▁분들은	-10.1434
▁추리	-10.1435
▁이기	-10.1438
혼자	-10.1439
기위해	-10.1452
▁핵노잼	-10.1452
장르	-10.1454
▁무술	-10.146
▁어쩜	-10.1464
▁공포물	-10.1465
▁수준의	-10.1465
스러움	-10.1465
▁볼때	-10.1466
▁모두가	-10.1467
▁비디오로	-10.1474
▁21	-10.1476
▁죽을	-10.1478
▁몇번	-10.1481
▁열연	-10.1482
듯이	-10.1485
▁살아가는	-10.1487
햇다	-10.1488
▁명화	-10.1495
폰	-10.1499
어이없	-10.1502
▁영혼	-10.1504
▁한국에서	-10.1504
많	-10.1508
▁웬	-10.151
▁보고싶	-10.1513
현실을	-10.1517
▁블랙	-10.1521
▁이상하게	-10.1524
▁끄	-10.1526
▁무시	-10.1531
자나	-10.1536
▁만들다니	-10.1537
▁위로	-10.1544
▁앤	-10.1547
▁돈을	-10.1548
▁젠장	-10.1548
▁떨	-10.1548
▁관객을	-10.1548
ᄇ	-10.155
솔	-10.1552
▁단어	-10.1552
▁다양한	-10.1555
▁특별한	-10.1556
▁외계인	-10.1564
랜드	-10.1566
▁오래된	-10.1568
▁엄	-10.1574
▁낚였다	-10.1577
▁최고임	-10.1578
▁결	-10.1579
것들	-10.1581
▁후속작	-10.1584
몽	-10.1585
붙	-10.1588
기에는	-10.1591
재미없음	-10.1604
▁최고였다	-10.1605
▁패러디	-10.1606
큐	-10.1616
▁볼수있	-10.1618
지루함	-10.1618
빼고	-10.1621
하지마	-10.1622
▁해라	-10.1637
혈	-10.1638
년작	-10.164
▁바랍니다	-10.164
▁감정이	-10.164
▁극장가서	-10.164
▁결코	-10.1641
▁집착	-10.1642
▁억지스러운	-10.1644
▁반전은	-10.1644
▁옷	-10.1645
하진	-10.1646
▁이것이	-10.1647
▁죽이고	-10.1648
하더라	-10.1656
▁잘만들었	-10.1662
쳤	-10.1663
항	-10.1664
▁끼	-10.1666
쓸	-10.1674
▁소소한	-10.1674
덜	-10.1675
▁교육	-10.1677
▁깜짝	-10.1685
▁다르다	-10.1687
▁sf	-10.1694
▁국가	-10.1696
생각이	-10.1698
▁자체는	-10.1699
웠다	-10.17
▁비슷	-10.1707
♥♥♥	-10.1709
▁풍자	-10.171
▁아내	-10.1711
▁퍼	-10.1713
▁시청률이	-10.1716
했다고	-10.1717
▁시원	-10.1719
▁가슴을	-10.1719
▁주인공은	-10.1721
슈	-10.1722
▁퇴	-10.1722
▁부모님	-10.1724
▁업	-10.1726
▁출연한	-10.173
학년	-10.173
▁두번째	-10.1731
했다면	-10.174
▁죽이	-10.175
▁아쉽	-10.1751
▁노래가	-10.1751
▁잼나게	-10.1753
내고	-10.1753
▁특수효과	-10.1757
▁안습	-10.1758
▁설마	-10.176
▁d	-10.176
궁	-10.1761
계의	-10.1764
커플	-10.1766
▁썩	-10.177
요소	-10.177
▁격	-10.1773
끔	-10.1775
▁빨	-10.1778
럼	-10.1779
st	-10.178
정이	-10.178
▁곳	-10.1782
▁남은	-10.1783
▁신경	-10.1783
드리	-10.1786
다는게	-10.1789
▁탄생	-10.1791
되면	-10.1793
▁탄탄	-10.1793
▁돌리	-10.1797
▁에로영화	-10.1798
▁본방사수	-10.1799
꾸	-10.1805
럭	-10.1809
▁방영	-10.1819
스럽게	-10.1819
였으면	-10.1822
▁재미있습니다	-10.1824
▁만한	-10.1825
기로	-10.1827
▁캬	-10.1829
▁a	-10.1833
▁배역	-10.1835
아빠	-10.1836
▁싸우는	-10.1836
▁두고	-10.184
▁재미없었다	-10.1842
주제	-10.1843
▁넌	-10.1845
수있	-10.1846
▁빼면	-10.1846
▁그것도	-10.1848
▁어릴	-10.1849
▁색	-10.1849
걍	-10.1852
▁봅니다	-10.1853
..;;	-10.1858
▁살린	-10.1858
▁쥐	-10.186
▁전문가	-10.186
▁중반	-10.186
▁지나도	-10.1861
▁참신한	-10.1865
▁뭘까	-10.1866
▁강한	-10.1869
거리는	-10.1872
이든	-10.1878
▁최근에	-10.1879
▁중에서	-10.1881
▁불쌍하다	-10.1883
▁감동의	-10.1884
공포영화	-10.1892
▁내용인지	-10.1898
▁연극	-10.1901
▁낫	-10.1902
올리	-10.1903
▁의문	-10.1904
▁다운	-10.191
▁애들은	-10.1914
▁필요없	-10.1916
▁평론가들	-10.1916
랬	-10.1918
▁쉬	-10.1923
▁생각했는데	-10.1923
▁영상이	-10.1923
여주	-10.1923
매력	-10.1927
▁만든영화	-10.193
▁아직까지	-10.1935
G	-10.1938
점이상	-10.1938
주연	-10.1939
팀	-10.1939
▁막판에	-10.194
캐스팅	-10.194
아저씨	-10.1941
웨	-10.1942
▁제임스	-10.1942
▁부르	-10.195
▁가족영화	-10.1951
▁영화보면서	-10.1955
▁대중	-10.1955
후회	-10.1956
▁첫사랑	-10.1959
▁멍	-10.196
▁충격적	-10.1962
.........	-10.1962
줄이야	-10.1964
었고	-10.1964
▁식상한	-10.1973
▁2014	-10.1973
겠네요	-10.1981
점대는	-10.1982
겠음	-10.1983
되었다	-10.1992
기까지	-10.1994
재미도	-10.1997
▁어설프고	-10.2
▁재미도없고	-10.2001
▁자극	-10.2007
면서도	-10.2016
좋았	-10.2018
▁현실적이	-10.2019
▁별로임	-10.2023
▁지루하	-10.2024
▁조선	-10.2025
▁잭	-10.2027
▁누군가	-10.2027
때매	-10.203
흠	-10.2031
하는것	-10.2036
▁소년	-10.2045
▁만들었는지	-10.2051
▁결말을	-10.2053
▁무리	-10.2053
▁모험	-10.2057
▁길게	-10.2068
뽕	-10.2069
▁돼	-10.207
▁많아서	-10.2073
▁연기력은	-10.2073
▁아이디어	-10.2074
겠죠	-10.2075
쓰레기영화	-10.2077
▁변화	-10.2078
▁기술	-10.2078
▁손에	-10.208
집니다	-10.208
▁처럼	-10.2083
▁거기에	-10.2085
▁기대이상	-10.2086
듯하다	-10.2088
▁만남	-10.2089
▁킬링타임용으로	-10.2095
했지	-10.2095
뭔	-10.2098
즘	-10.2099
▁짜증나서	-10.21
▁얼마	-10.2102
틴	-10.2102
▁신파	-10.2104
▁만들수	-10.2105
▁어울리는	-10.2108
▁해피엔딩	-10.211
▁이런건	-10.2111
▁짜임새	-10.2112
▁의미가	-10.2115
▁초등학생	-10.2119
는듯	-10.212
수도	-10.2121
▁괜찮았다	-10.2122
▁마지막까지	-10.2125
▁현실이	-10.2127
▁생각할	-10.2128
멋	-10.2131
▁예쁘	-10.2137
▁엘	-10.214
▁챙겨	-10.2147
몇	-10.2154
▁데리고	-10.2156
▁따뜻하고	-10.2164
▁이따위	-10.2164
▁섬	-10.2165
▁이래서	-10.2176
따위	-10.2177
▁좀비영화	-10.2181
아이들	-10.2181
▁블록버스터	-10.2185
이었던	-10.2188
확	-10.2189
왔다	-10.2193
▁매력을	-10.2205
▁갔다	-10.2208
▁가정	-10.2208
주면	-10.2209
0%	-10.2212
▁심지어	-10.2213
갑니다	-10.2214
▁주제를	-10.2216
▁기독교	-10.2218
영화인데	-10.222
영화라	-10.2224
감을	-10.2224
▁ᄀ	-10.2229
▁사상	-10.223
▁헤어	-10.2239
▁참신	-10.2242
▁등등	-10.2246
▁짧은	-10.2248
▁아까웠다	-10.2249
▁아무런	-10.225
야한다	-10.2253
▁다시는	-10.2259
▁보던	-10.2259
▁대놓고	-10.226
덕에	-10.2264
▁결정	-10.2268
▁동성애	-10.2269
▁보다니	-10.2274
▁정작	-10.2278
▁뽑	-10.2278
흔	-10.2281
▁여자의	-10.2286
▁몰랐다	-10.2291
▁떨어지고	-10.2291
또한	-10.23
푸	-10.2305
▁주기도	-10.232
극장	-10.2322
더라면	-10.2325
친다	-10.2331
마음	-10.2331
▁즐기	-10.2332
▁그자체	-10.2336
있었다	-10.2336
▁싸움	-10.2344
▁맘	-10.2346
▁좋겠네요	-10.2347
▁잇	-10.2349
▁어렵다	-10.2349
▁했으면	-10.2354
▁목적	-10.2354
▁보기에는	-10.2356
▁갔	-10.2357
▁아름답게	-10.2358
▁조절	-10.2365
▁엉성하고	-10.2366
re	-10.2367
럴	-10.2368
▁생긴	-10.2371
▁수많은	-10.2371
▁반대	-10.2373
▁새벽에	-10.2375
것같은	-10.2376
▁아니야	-10.2378
나름	-10.238
▁돋보이는	-10.2386
▁썼	-10.2387
▁먼가	-10.2388
왔는데	-10.2388
▁몰입도가	-10.2392
▁행	-10.2393
이유	-10.2395
▁영화인	-10.2395
이죠	-10.2397
할만한	-10.2398
▁다운받아	-10.2399
꿈	-10.2399
냈	-10.2402
해야지	-10.2403
느라	-10.2405
▁하는게	-10.2405
극장에서	-10.2408
관람	-10.241
▁많은데	-10.2415
▁O	-10.2416
▁전설의	-10.2418
씨는	-10.2421
▁넘게	-10.2422
객	-10.2423
▁모를	-10.2425
핑	-10.2428
▁유일하게	-10.2428
▁동시에	-10.2429
▁보자	-10.2431
떨	-10.2438
▁교훈을	-10.244
보다도	-10.2443
▁봤을까	-10.2448
▁보러	-10.245
▁부분도	-10.2455
..........	-10.2456
▁상대	-10.2456
주기	-10.2457
▁인간들	-10.2457
▁요리	-10.2457
쓰고	-10.246
▁아래	-10.2464
인물	-10.2465
▁생각나	-10.2474
믿	-10.2475
▁당신은	-10.2476
톤	-10.248
▁놈	-10.2481
트리	-10.2482
먹는	-10.2492
분위기	-10.2494
▁하나로	-10.2494
▁낳	-10.25
인데도	-10.2503
▁오빠	-10.2507
겹	-10.2512
▁재난영화	-10.2514
▁봤네	-10.2522
▁자리	-10.2523
▁충분	-10.2527
▁동양	-10.2529
▁살리	-10.2531
▁그만큼	-10.2531
▁영상과	-10.254
▁집중해서	-10.254
▁정말이지	-10.2543
▁순수함	-10.2544
▁북	-10.2544
▁조카	-10.2544
▁등장인물	-10.2547
아직도	-10.2551
▁살다살다	-10.2552
▁낮네	-10.2559
▁한번도	-10.2563
논	-10.2564
본영화	-10.2567
..^^	-10.257
만하다	-10.2571
▁인물들	-10.2571
둥	-10.2572
▁예쁘다	-10.2575
▁어이	-10.2576
▁생각으로	-10.2578
▁부부	-10.2586
깔	-10.2586
우리나라	-10.2591
▁보려	-10.2591
안되는	-10.2594
괜찮	-10.2597
보는게	-10.2599
▁심장	-10.2608
▁시리즈는	-10.2611
셋	-10.2613
ᅥ	-10.2613
▁교과서	-10.2613
▁재능	-10.262
▁답이	-10.262
▁[	-10.2621
▁괜찮음	-10.2624
▁상처	-10.2629
▁어느정도	-10.2632
▁가면	-10.2632
고싶은	-10.2635
▁주말	-10.2635
▁반전을	-10.2637
▁내용과	-10.2642
▁예능	-10.2645
▁짜집기	-10.2646
▁아프	-10.2656
짜리	-10.2657
▁안맞	-10.2659
대가	-10.2659
것처럼	-10.2663
▁뭐하나	-10.2665
특	-10.2675
▁결과	-10.2678
▁잼잇	-10.2678
▁집중이	-10.2679
개인적으로	-10.2685
90	-10.2687
▁엿	-10.2691
언제	-10.2697
▁이용	-10.2699
거죠	-10.2703
▁들고	-10.2703
▁낮지	-10.2705
▁러시아	-10.2706
받은	-10.2706
▁보지말	-10.2707
▁찌	-10.271
▁명작을	-10.2717
▁아쉽지만	-10.2718
▁올라	-10.2718
▁궁금하다	-10.2719
▁또다른	-10.272
▁삶이	-10.272
▁나에겐	-10.2721
것만으로도	-10.2721
되었	-10.2721
뿌	-10.2725
▁독일	-10.2726
내용은	-10.2726
재미있게	-10.2726
▁여러분	-10.2729
▁케이블에서	-10.273
▁놓고	-10.2732
▁있다니	-10.2732
스터	-10.2735
▁검색	-10.2736
▁확인	-10.2737
멜로	-10.2737
▁승리	-10.2739
▁그립다	-10.274
▁어색하고	-10.2743
어색	-10.2746
▁아류작	-10.275
▁느낌의	-10.275
▁많은걸	-10.2755
▁일반	-10.2756
▁아니지	-10.2762
▁시간가는줄	-10.2767
도안	-10.2768
▁그저그런	-10.2769
▁인상적	-10.2774
▁내가본	-10.2777
▁어쩔수	-10.2778
갓	-10.2781
▁가져	-10.2783
받았	-10.2784
▁심심	-10.2784
▁수입	-10.2789
▁줄수	-10.2792
▁보다는	-10.2794
찔	-10.2801
▁가벼운	-10.2801
영화입니다	-10.2801
▁소설을	-10.2802
몰입	-10.2803
▁올려	-10.2805
▁많았	-10.2806
▁로코	-10.2807
▁장면들	-10.2808
더라도	-10.281
▁개인	-10.2813
▁내용전개	-10.2813
▁하길래	-10.2814
역사	-10.2815
▁난리	-10.2816
▁됩니다	-10.2817
▁60	-10.2818
▁꼬마	-10.2821
▁역사를	-10.2823
▁생활	-10.2826
냐고	-10.2826
▁옥	-10.2826
거같음	-10.2827
▁빌	-10.283
꿀잼	-10.2833
같은영화	-10.2834
on	-10.2838
▁모든걸	-10.2841
▁볼수있는	-10.2844
었을	-10.2844
▁모르겠	-10.2846
▁소재도	-10.285
▁처음에	-10.2859
▁재미없어서	-10.2859
▁못보겠	-10.2863
헐	-10.288
▁방법	-10.2881
▁쓰고	-10.2881
▁때문	-10.2883
목소리	-10.2885
▁할아버지	-10.2886
보인다	-10.2895
컨	-10.2895
▁플롯	-10.2896
▁유일한	-10.2896
▁모른다	-10.2897
▁느꼈	-10.2898
▁놀라운	-10.2899
▁가수	-10.29
수없는	-10.2904
▁빵	-10.2904
▁만드	-10.291
겠어요	-10.2917
출연	-10.2919
ᄋᄋ	-10.292
사를	-10.292
▁러닝타임	-10.2923
▁이상해	-10.2924
▁애기	-10.293
▁꽃	-10.293
▁재미로	-10.2933
!!!!!!!!!!!!!!!!	-10.2935
ᅲᅮ	-10.2937
읽	-10.2939
▁명장면	-10.294
▁재미있어	-10.294
▁당연히	-10.2942
▁만든거	-10.2944
▁먹먹	-10.2946
▁재밌어서	-10.2948
▁ᄍᄍᄍ	-10.2951
▁놀랍다	-10.2968
굴	-10.2969
재밌어	-10.2971
▁남네요	-10.2972
L	-10.2978
촌	-10.2978
비디오	-10.2979
코믹	-10.298
범죄	-10.2981
부분이	-10.2989
긴하지만	-10.299
지요	-10.2991
빗	-10.2992
▁제이슨	-10.2992
▁임팩트	-10.2992
셈	-10.2992
▁착각	-10.2993
▁폭풍	-10.2993
게임	-10.2996
▁시시	-10.2997
낫	-10.2997
어진	-10.3
▁잘봤어요	-10.3004
에대해	-10.3006
▁이딴걸	-10.3008
▁끈	-10.3012
안됨	-10.3013
학교	-10.302
▁배트맨	-10.3024
▁조니뎁	-10.3024
▁/	-10.3024
보시	-10.3025
좋은영화	-10.3025
▁봤을	-10.3028
▁이상하고	-10.3034
▁적당히	-10.3041
▁톰	-10.3042
본영화중	-10.3042
씀	-10.3048
▁싶었	-10.3052
하지마라	-10.3056
▁감동은	-10.3058
▁이상의	-10.306
돋	-10.3063
적은	-10.3067
것같	-10.3074
벨	-10.3077
▁이해를	-10.3082
▁울컥	-10.3084
사실	-10.3085
▁아닐	-10.3086
▁처음에는	-10.3087
▁매력적	-10.309
▁디테일	-10.3091
▁일부러	-10.3095
▁있네	-10.3099
일듯	-10.31
▁설정이	-10.3101
▁과정	-10.3101
든지	-10.3106
▁욕심	-10.311
▁불편한	-10.3111
▁아까운영화	-10.3112
새끼들	-10.3112
스러워	-10.3114
80	-10.3114
▁높아서	-10.3115
▁받은	-10.3118
아쉽	-10.312
▁안맞는	-10.312
▁머리가	-10.3122
▁싶어요	-10.3123
▁내게	-10.3126
▁케릭터	-10.313
있으면	-10.3133
▁설득력	-10.3134
틱	-10.3135
▁끝에	-10.3136
▁여자주인공	-10.3136
▁클레멘타인	-10.3139
워서	-10.314
▁장국영	-10.3143
▁시청자	-10.3144
▁여주가	-10.3156
좋았다	-10.316
▁마지막장면	-10.316
▁당신	-10.3165
▁아까울	-10.3172
▁잊	-10.3174
빛	-10.3175
헌	-10.3176
▁맞지	-10.3178
▁사고	-10.3178
하실	-10.3179
평가	-10.3182
▁유치해	-10.3183
▁선물	-10.3183
꾼	-10.3184
웃김	-10.3186
▁여러번	-10.3193
▁디워	-10.3193
▁거북	-10.3194
▁틀어	-10.3195
전혀	-10.3198
▁바다	-10.3204
▁이야기는	-10.3207
▁귀여워	-10.3207
▁잼있음	-10.3208
▁옛	-10.3212
▁검	-10.3215
있던	-10.3216
▁난잡	-10.3216
있습니다	-10.3217
▁끔찍	-10.3222
▁뱀파이어	-10.3223
▁숨겨진	-10.3223
▁코미디영화	-10.3224
▁시간아깝다	-10.3225
▁컴퓨터	-10.3226
됐	-10.3231
▁영환데	-10.3231
축	-10.3235
▁봣	-10.3241
▁장면도	-10.3243
)"	-10.3245
육	-10.3246
▁인도	-10.3254
▁헛	-10.3254
▁할말	-10.3255
▁스토리의	-10.3255
▁찾는	-10.326
없는영화	-10.3261
개그	-10.3262
쓰는	-10.3262
▁언니	-10.3263
▁원작에	-10.3266
▁연출은	-10.3269
▁엄마가	-10.3269
콘	-10.3279
케이	-10.3279
고요	-10.328
▁짜증이	-10.3282
싸움	-10.3283
▁떨어지	-10.3283
불쌍	-10.3283
무섭	-10.3285
보시길	-10.3286
학생	-10.3286
▁내생에	-10.3287
예술	-10.3287
버려	-10.3295
▁그당시	-10.3298
▁나름대로	-10.3298
▁보았는데	-10.33
장이	-10.33
▁응	-10.3301
▁줬	-10.3302
▁들어가	-10.3302
▁짜증만	-10.3303
▁않아서	-10.3306
▁영화화	-10.3308
▁미소	-10.3311
▁이보다	-10.3312
▁매니아	-10.3316
연기는	-10.3319
▁꽤나	-10.3321
▁테러	-10.3325
▁갑니다	-10.3327
▁망친	-10.3329
▁꾸	-10.3331
▁p	-10.3332
▁매일	-10.3332
▁잔인	-10.3341
▁친구가	-10.3341
▁대단하	-10.3349
▁한번쯤	-10.3351
▁엔딩이	-10.3353
않다	-10.3357
려나	-10.3363
▁공감할	-10.3363
▁식상	-10.3366
▁배경음악	-10.3369
낚	-10.337
쳐서	-10.337
구리	-10.3373
▁삼류영화	-10.3377
스토리가	-10.3379
▁한편의	-10.338
자를	-10.338
▁마음으로	-10.3382
이러	-10.3382
▁재밋어요	-10.3382
F	-10.3383
할수있	-10.3384
엽	-10.3384
않은	-10.3385
칼	-10.3385
▁아깝고	-10.3386
^-^	-10.3386
룩	-10.3386
▁반드시	-10.3386
짱짱	-10.3388
돌아	-10.3388
▁인내심	-10.3389
▁같고	-10.339
다큐	-10.339
▁영화인가	-10.3391
▁힘들었	-10.3392
▁약간의	-10.3393
▁판단	-10.3394
화이팅	-10.3394
라스	-10.3394
▁느	-10.3401
▁다시보니	-10.3402
문화	-10.3403
치고는	-10.3411
▁승	-10.3421
제가	-10.3423
않음	-10.3426
▁주제가	-10.3427
▁맛이	-10.3428
▁특이	-10.3428
▁어른이	-10.3431
▁본게	-10.3432
▁앞뒤	-10.3439
100	-10.3443
에서의	-10.3446
▁여주인공이	-10.3448
▁이루	-10.3453
▁듣	-10.3456
▁^	-10.3459
▁멋졌	-10.3461
▁태어나서	-10.3466
▁일어나	-10.3469
차이	-10.3471
▁이해할수	-10.3473
▁짜증남	-10.3474
▁장난치	-10.3478
▁네티즌	-10.3487
▁뒤에	-10.3488
P	-10.3488
번은	-10.3489
▁근래	-10.3491
▁멋있는	-10.3493
할것	-10.3494
아무	-10.3498
▁봐도봐도	-10.3506
▁봐야하는	-10.3515
▁줘야	-10.3515
▁dvd	-10.3517
▁적어도	-10.3526
▁인터넷	-10.3527
▁낙	-10.3531
하니까	-10.3534
ᅮᅲ	-10.3536
▁심형래	-10.354
가면서	-10.3544
▁음식	-10.355
▁나오네	-10.3551
▁걱정	-10.3552
▁수작이다	-10.3554
▁알겠다	-10.3555
▁진수	-10.3556
▁어디에	-10.3556
▁ᄏᄏᄏᄏᄏᄏᄏ	-10.3556
동생	-10.3558
▁아니라고	-10.3558
▁최고로	-10.356
느껴	-10.3563
▁실수	-10.3563
임을	-10.3565
▁잡아	-10.3575
▁창	-10.3576
▁망치	-10.3579
▁포스터가	-10.3581
▁샘	-10.3581
▁뭐니	-10.3586
▁별로고	-10.3589
▁주윤발	-10.3589
▁호기심	-10.3589
▁떨어짐	-10.3589
▁웃으면서	-10.3592
뭘	-10.3595
▁사라지	-10.3598
▁그야말로	-10.36
쟁이	-10.3608
▁없었음	-10.3608
아프	-10.3613
▁믿	-10.3615
▁본지	-10.362
▁잘하는	-10.3622
▁이런영화는	-10.3622
▁제니퍼	-10.3623
웨이	-10.3624
▁전설	-10.3624
▁아쉬움이	-10.3626
원이	-10.3629
▁쓸데없이	-10.3629
▁해리포터	-10.3629
▁초딩때	-10.3634
▁인생에	-10.3634
▁안간다	-10.3636
▁다르게	-10.3637
▁사운드	-10.3642
▁좋지	-10.3645
이여	-10.3646
▁진부	-10.3647
나도	-10.3647
▁볼만하	-10.3649
▁맞춰	-10.3649
▁언	-10.3653
보네	-10.3657
▁믿을	-10.3659
오브	-10.3663
살인	-10.3677
과는	-10.3678
▁탈출	-10.3679
맥	-10.369
있지	-10.3691
납	-10.3691
눌	-10.3692
▁리얼리티	-10.3692
신이	-10.3697
앤	-10.37
▁가족이	-10.3701
미가	-10.3705
노답	-10.3707
결국	-10.3707
▁아우	-10.3712
▁흥	-10.3713
▁절정	-10.3717
행복	-10.3718
▁책을	-10.3721
▁강렬한	-10.3721
▁흐르는	-10.3725
▁케	-10.3726
▁제목만	-10.3727
▁학	-10.3732
▁봤다면	-10.3737
제대로	-10.3739
배우가	-10.3739
▁연인	-10.3741
못하는	-10.3749
▁터미네이터	-10.3752
뭐냐	-10.3762
▁곧	-10.3762
나왔	-10.3767
였나	-10.3767
▁남기	-10.3772
보여	-10.3774
되네요	-10.378
▁소재와	-10.3781
▁재미있을	-10.3786
▁얼굴이	-10.3787
ᄏᄏᄏᄏᄏᄏᄏᄏᄏᄏᄏᄏᄏ	-10.3789
존나	-10.3791
▁귀엽다	-10.3792
▁you	-10.3796
▁로버트	-10.3797
▁실험	-10.3797
▁난해	-10.3798
▁육	-10.3801
▁극복	-10.3801
▁잔잔하게	-10.3801
가장	-10.3802
하는건지	-10.3802
▁본인	-10.3804
털	-10.3807
평론가	-10.3808
오랜만에	-10.3819
▁가득한	-10.3819
▁궁금해서	-10.382
었네요	-10.3824
▁재미없을	-10.3824
▁않았	-10.3824
점정도	-10.3831
갈수록	-10.3831
▁희망을	-10.3832
▁어른들	-10.3833
▁인형	-10.3833
▁본건데	-10.3839
▁액션을	-10.3843
▁최고의영화	-10.3846
▁G	-10.3847
ᅮᅮᅮ	-10.3848
▁영화라는	-10.3849
▁발상	-10.385
없나	-10.3854
▁버리	-10.3854
▁배우들은	-10.3857
잇는	-10.386
▁성격	-10.3863
▁액션과	-10.3863
▁레이	-10.3871
▁끊	-10.3873
▁사람들에게	-10.3874
▁으리	-10.3877
▁=	-10.3877
적이지	-10.3879
밤	-10.388
제작	-10.3885
▁읽고	-10.3887
는구나	-10.3887
적이다	-10.3887
▁푸	-10.3888
이후	-10.3892
▁들었	-10.3893
W	-10.3894
▁하네	-10.3895
어지는	-10.3895
▁불쌍한	-10.3898
▁아무도	-10.3899
ᄎ	-10.3902
▁오락영화	-10.3903
▁F	-10.3904
▁즐	-10.3905
떡	-10.3908
줄은	-10.3909
말도	-10.3909
▁울리는	-10.3912
▁서양	-10.3914
몸	-10.3914
▁이드라마	-10.3915
▁하품	-10.3915
▁분들이	-10.3916
▁봉	-10.392
▁서울	-10.392
▁생각난다	-10.392
▁찍는	-10.3921
영화도	-10.3928
▁장면을	-10.3929
자고	-10.393
▁스토리전개	-10.3931
▁하다가	-10.3934
▁잤다	-10.3935
장면은	-10.3936
▁없나요	-10.3937
었지	-10.3943
▁달려	-10.3945
▁있다고	-10.3946
▁감독을	-10.3948
▁가족들	-10.3949
▁멋지고	-10.3951
류영화	-10.3952
험	-10.3953
▁아냐	-10.3955
조연	-10.3959
최악의	-10.3962
▁우려먹	-10.3962
12	-10.3962
못하고	-10.3963
▁히어로	-10.3965
▁되네요	-10.3966
왔어요	-10.3967
뻐	-10.3967
▁현실감	-10.397
영이	-10.3971
▁대통령	-10.3973
▁먹는	-10.3974
▁기억나는	-10.3979
!!!"	-10.3983
답게	-10.3984
▁영화인지	-10.3985
▁유럽	-10.3987
▁잼없	-10.399
▁없게	-10.3993
같고	-10.3994
▁적당한	-10.3994
그렇게	-10.3994
▁다신	-10.3995
▁혹시	-10.4001
하거나	-10.4001
라지만	-10.4002
았음	-10.4003
▁할리우드	-10.4008
▁of	-10.4008
▁도무지	-10.4009
지지	-10.4012
▁짜증나고	-10.4014
할뿐	-10.402
▁이뻐서	-10.4021
놀이	-10.4021
R	-10.4025
▁말아야	-10.4026
굳	-10.4028
▁쿠	-10.4033
그럼	-10.4033
▁호구	-10.4041
자기	-10.4041
▁인상적이	-10.4047
▁나랑	-10.4048
^^*	-10.4049
하시길	-10.4052
▁타고	-10.4055
▁허술한	-10.4059
▁폐	-10.4061
▁세상이	-10.4065
턴	-10.4067
▁어처구니	-10.4072
▁이소룡	-10.4074
지나	-10.4075
.............	-10.4075
▁사투리	-10.408
인들	-10.4082
▁연기자	-10.4085
▁보게된	-10.4087
▁모르겠네요	-10.4087
▁여자는	-10.4088
▁첨엔	-10.409
▁상관없	-10.4092
▁사람도	-10.4095
아깝	-10.4101
▁쩔어	-10.4101
웃겨	-10.4101
▁시대에	-10.4107
있지만	-10.4114
분을	-10.4114
▁내리	-10.4116
▁담배	-10.4121
▁지겹다	-10.4121
▁잊고	-10.4122
하지말고	-10.4123
▁괜찮았는데	-10.4123
▁전체적인	-10.4124
있을	-10.4124
▁영화였음	-10.4126
▁보라	-10.4131
스를	-10.4133
▁개노잼	-10.4133
▁반담	-10.4134
▁사실을	-10.414
▁떼	-10.4141
제일	-10.4142
▁혹시나	-10.4143
빌	-10.4146
▁크리스	-10.4147
▁줍니다	-10.4148
▁박중훈	-10.4151
▁배우도	-10.416
▁부정	-10.4162
▁사랑해	-10.4166
뭐야	-10.4176
▁제외	-10.4178
▁희	-10.4178
▁씹	-10.4181
▁주연배우	-10.4183
▁오랫만에	-10.4186
▁이름이	-10.4186
->	-10.4186
▁단순히	-10.4187
됐다	-10.4188
바라	-10.4194
▁뭥미	-10.4195
너무너무	-10.4198
▁다시보고	-10.42
▁정도면	-10.42
▁이름을	-10.4202
▁ᄃᄃᄃ	-10.4209
쾌	-10.421
보구	-10.4211
보네요	-10.422
렉	-10.4221
놈이	-10.4221
▁재밋음	-10.4222
는거야	-10.4224
▁듭니다	-10.4224
▁영화라니	-10.4227
15	-10.4228
▁작품입니다	-10.423
▁이토록	-10.4233
▁것에	-10.4234
▁가고	-10.4235
▁박수	-10.4235
들에	-10.4235
▁쪽	-10.4236
▁존경	-10.4238
오르	-10.4239
▁영상미가	-10.4239
▁무엇인가	-10.424
▁안봐도	-10.4241
▁잘못된	-10.4243
햇는데	-10.4243
있어요	-10.4246
홀	-10.4248
▁어디가	-10.4248
TV	-10.4251
잊	-10.4252
▁가족의	-10.4252
▁멋지	-10.4252
씬이	-10.4253
▁앞에	-10.4257
▁전개와	-10.4259
▁사랑해요	-10.4265
▁감각	-10.4267
▁그동안	-10.4272
▁지겹	-10.4272
▁무섭지	-10.4273
bb	-10.4273
게하는	-10.4274
▁볼만했다	-10.4279
▁황당한	-10.428
보내	-10.4281
잃	-10.4281
▁안에	-10.4281
자체	-10.4286
했었	-10.4288
▁낚	-10.4293
▁전쟁의	-10.4294
▁한개도	-10.4295
▁인생이	-10.4295
빠진	-10.4297
▁배경이	-10.4297
-_-;	-10.4298
▁괜찮고	-10.4299
중국	-10.43
하겠	-10.4301
▁끌고	-10.4302
▁액션신	-10.4305
부터가	-10.4306
아들	-10.4307
~~^^	-10.4309
애들이	-10.4313
그러나	-10.4317
따뜻	-10.4319
스릴	-10.4319
X	-10.4323
▁쉽지	-10.4325
▁읽어	-10.4332
▁고뇌	-10.4334
▁나레이션	-10.4334
▁왤케	-10.4334
▁희대의	-10.4334
▁부실	-10.4337
답니다	-10.4339
▁담은	-10.4339
▁찍고	-10.434
배우들이	-10.434
버스	-10.434
▁만약	-10.4342
▁갖다	-10.4343
높은	-10.4348
▁재밌었던	-10.4351
▁울면서	-10.4354
▁최고봉	-10.4355
▁거장	-10.4356
않고	-10.4359
보고싶다	-10.4359
▁아이들과	-10.4362
▁않았던	-10.4364
▁마이	-10.4364
▁재미없다고	-10.4365
분만에	-10.4367
▁빨갱이	-10.4371
▁아깝네요	-10.4373
▁배우는	-10.4374
느끼	-10.4378
▁맡	-10.4379
스톤	-10.4382
▁스크린	-10.4382
▁받고	-10.4386
것보다	-10.4392
..1	-10.4393
흑	-10.4394
▁시나리오가	-10.4408
물을	-10.4408
▁아니잖아	-10.4411
지루하고	-10.4414
보임	-10.4414
보긴	-10.4415
▁생에	-10.4418
이긴	-10.4432
▁관점	-10.4433
▁폭발	-10.4438
▁무언가	-10.444
엑	-10.444
닷	-10.4445
▁혐오	-10.4445
▁명대사	-10.4448
▁한국영화의	-10.4449
▁그림체	-10.445
▁대신	-10.445
▁각색	-10.445
성의	-10.4452
▁없으면	-10.4453
맞고	-10.4456
▁파괴	-10.4459
▁오브	-10.4459
▁한다는	-10.446
분동안	-10.446
▁착	-10.446
▁재미있는데	-10.4473
벗	-10.4475
▁왔	-10.4476
포인트	-10.4478
▁정신병자	-10.4482
드립	-10.4489
하는영화	-10.449
수밖에	-10.4492
▁사랑합니다	-10.4492
재미있어요	-10.4493
▁나네요	-10.4495
▁아깝네	-10.4498
▁공짜로	-10.4498
▁베드신	-10.45
아야	-10.4504
▁궁	-10.4505
스러웠	-10.4505
...........	-10.4505
▁아들이	-10.4506
비가	-10.4509
▁빛을	-10.4509
것같은데	-10.4515
▁좋네	-10.4522
▁몰라	-10.4523
▁포인트	-10.4524
이었는데	-10.4528
뭐지	-10.4531
▁늘어	-10.4535
▁아름답	-10.4536
▁지루하기	-10.4544
▁반전에	-10.4544
▁소름돋	-10.4544
느낌이	-10.4545
▁신의	-10.4546
룡	-10.4546
▁화나	-10.4547
같아	-10.4551
in	-10.4552
▁실화를	-10.4554
힘들	-10.4556
멸	-10.4556
랩	-10.4558
쿵	-10.4558
뚱	-10.4558
▁깊게	-10.4558
▁개그맨	-10.4562
였지	-10.4566
받을	-10.457
▁정신없	-10.4574
▁김치	-10.4576
최고다	-10.4577
▁포스	-10.4582
▁탄탄하고	-10.4583
▁나오는데	-10.4585
it	-10.4589
▁하지원	-10.4591
널	-10.4592
▁현실과	-10.4592
칸	-10.4593
춤	-10.4594
엄청	-10.4594
탑	-10.4595
아름다운	-10.4596
옛날	-10.4597
▁쓸데없는	-10.4598
▁진지	-10.4601
았는데	-10.4605
▁답답함	-10.4607
성과	-10.4607
▁상어	-10.4608
▁홍상수	-10.4609
▁시간만	-10.461
▁뜬금없는	-10.4612
▁때려	-10.4616
해주고	-10.4617
▁벗어나	-10.462
▁평균	-10.4621
▁나이가	-10.4622
▁안볼	-10.4627
▁우뢰매	-10.4627
먹은	-10.4628
▁스포츠	-10.4628
▁안될	-10.4631
있네요	-10.4635
▁사용	-10.4635
▁흘러	-10.4638
빙	-10.4646
▁불안	-10.4646
소녀	-10.4649
▁생각도	-10.4652
하군	-10.4659
▁피해	-10.4661
섭	-10.4663
▁응원	-10.4665
▁내일	-10.4665
▁말자	-10.4669
었나	-10.467
보게되	-10.467
긋	-10.4671
▁웰메이드	-10.4671
▁흑백	-10.4672
▁축구	-10.4673
▁언제봐도	-10.4678
여배우	-10.4678
▁믿고보는	-10.4681
▁사랑한다	-10.4683
만큼이나	-10.4684
자마자	-10.4684
분의	-10.4694
▁놈들	-10.4694
▁하아	-10.4698
가며	-10.4699
맞는	-10.4701
신고	-10.4705
▁겨울	-10.4705
컷	-10.471
▁점수는	-10.4712
▁기대이하	-10.4713
▁기대없이	-10.4713
▁어울리지	-10.4713
▁생명	-10.4714
로맨스	-10.4714
▁죽고	-10.4717
▁아니었다	-10.4717
▁스티븐	-10.472
▁브루스	-10.472
▁팀	-10.4727
념	-10.4728
▁왜곡	-10.4729
각본	-10.473
▁귀여움	-10.4731
▁잠이	-10.4732
▁누군지	-10.4734
▁잘한다	-10.4744
▁흘리	-10.4747
▁벤	-10.4749
닌	-10.4749
까봐	-10.4764
주지	-10.4765
▁자극적인	-10.4766
~~!!	-10.4767
▁시간에	-10.4768
▁내용에	-10.477
▁보이지	-10.4773
▁환경	-10.4777
▁따지	-10.4779
▁알겠	-10.4781
처리	-10.4782
픽	-10.4782
▁빛	-10.4782
▁잘만들었다	-10.4786
ᄁ	-10.4786
U	-10.4786
▁풋풋한	-10.4786
▁이도저도	-10.4787
▁재개봉	-10.4789
▁재미있었습니다	-10.4791
▁진지한	-10.4792
▁진지하게	-10.4795
▁매력에	-10.4796
▁담긴	-10.4797
▁마약	-10.4799
▁알려	-10.4801
▁만들었을까	-10.4802
▁스릴도	-10.4802
▁만난	-10.4803
▁치유	-10.4807
▁봐야지	-10.4808
티비	-10.481
너무나	-10.4811
▁한국의	-10.4812
▁망했	-10.4813
▁강간	-10.4814
▁없냐	-10.4821
▁일본은	-10.4822
▁ᄌ	-10.4823
▁매력적이	-10.4823
▁매미	-10.4829
▁그것이	-10.4829
▁빛나는	-10.4831
▁안본다	-10.4831
애니메이션	-10.4833
▁우연	-10.4834
편에서	-10.4835
▁지키	-10.4836
점부터	-10.4836
▁땜에	-10.4842
소름	-10.4849
글자	-10.4853
▁등장인물들	-10.4853
▁몽	-10.4856
▁갠적으로	-10.4857
잔인	-10.4857
▁영원한	-10.4859
▁거기다	-10.486
자식	-10.4865
▁컨셉	-10.4868
보고나서	-10.4871
안돼	-10.4875
시간동안	-10.4882
▁유덕화	-10.4884
▁아진짜	-10.4894
윈	-10.4894
하자면	-10.4898
화가	-10.4898
▁개성	-10.4899
▁소장	-10.4899
역할	-10.4901
숭	-10.4902
핀	-10.4902
웟	-10.4902
▁드디어	-10.4902
발연기	-10.4903
▁역겨운	-10.4903
▁민폐	-10.4904
▁X	-10.4905
고싶어	-10.4907
▁엄청나게	-10.4907
▁가능한	-10.4909
▁기존	-10.4913
▁미쳤	-10.4913
▁이병헌	-10.4914
했을까	-10.4914
▁그것을	-10.4914
▁따위	-10.4918
하던데	-10.4919
▁싶었다	-10.4932
▁괜찮았	-10.4935
▁못보겠다	-10.4935
타임	-10.4936
미친	-10.4942
었네	-10.4943
<	-10.4945
▁충	-10.4945
▁이럴	-10.4945
▁결론은	-10.4947
▁아놀드	-10.4952
일단	-10.4953
어떤	-10.4958
지않아	-10.4959
▁안본	-10.4961
하시고	-10.4965
▁적절한	-10.4975
▁뛰어나	-10.4976
▁최소한	-10.4977
물론	-10.4978
찾아	-10.4978
편까지	-10.4986
셔야	-10.4987
간만에	-10.4988
쳤다	-10.4991
법한	-10.4993
▁유발	-10.4994
▁m	-10.4994
든가	-10.4996
검	-10.4997
▁의지	-10.5002
▁밤에	-10.5005
닐	-10.5005
▁좋을듯	-10.5012
렷	-10.5016
엇는데	-10.5018
묵	-10.502
벅	-10.502
랭	-10.502
쯔	-10.502
▁오프닝	-10.502
▁내생애	-10.502
▁정우성	-10.502
▁둘째치고	-10.5021
▁범	-10.5021
▁실망이	-10.5023
▁오랜만	-10.5024
▁요새	-10.5026
▁속았다	-10.5026
▁보시면	-10.503
▁억지감동	-10.5033
▁첨부터	-10.5035
야할	-10.5038
▁소중함을	-10.5039
▁만들어낸	-10.5042
아요	-10.5044
▁갓	-10.5045
▁다행이다	-10.5045
▁논리	-10.5048
▁시작부터	-10.506
아버지	-10.5063
▁좋다고	-10.5063
기법	-10.5063
▁정도가	-10.5064
콜	-10.5071
꽃	-10.5072
▁신비	-10.5075
수는	-10.5077
성우	-10.5079
▁어렵	-10.5079
▁하정우	-10.5082
▁이해불가	-10.5084
▁폐지	-10.5084
▁몰아	-10.5084
▁시작해서	-10.5086
렵	-10.5089
▁자동차	-10.5096
▁만화책	-10.5097
할수있는	-10.5101
▁재난	-10.5102
▁돈내고	-10.5107
지네요	-10.5109
▁동네	-10.511
편집	-10.5111
하기엔	-10.5113
▁기가	-10.5114
▁시대의	-10.5118
허접	-10.5119
맘	-10.5123
▁봤는데도	-10.5125
▁했음	-10.5125
............	-10.5126
▁살았	-10.5127
▁최소	-10.5127
찮	-10.5133
▁어디로	-10.5133
없네요	-10.5134
▁콩	-10.5136
▁냉	-10.5137
뚝	-10.5139
▁늦게	-10.5139
▁쏟아	-10.5139
엣	-10.5139
켄	-10.5139
▁가까운	-10.5139
덩어리	-10.5139
▁역량	-10.5141
▁무겁	-10.5143
▁장난하냐	-10.5144
광구	-10.5145
으려고	-10.5147
▁개콘	-10.5148
▁재미있었음	-10.5149
▁않은데	-10.5155
▁센스	-10.5156
기전에	-10.5158
▁배신	-10.5161
라는걸	-10.5162
▁보는거	-10.5162
▁예술영화	-10.5164
▁이뻐	-10.5166
▁말투	-10.5166
▁따라가	-10.5167
▁잠시	-10.5172
▁놓치	-10.5173
랫	-10.5178
▁마지막이	-10.5178
▁여자애	-10.5179
▁힘을	-10.518
▁괜찮게	-10.5183
맞추기	-10.5185
▁초등학교	-10.5185
흥	-10.5186
여주인공	-10.519
▁와닿	-10.519
▁어쩌면	-10.5194
▁짐캐리	-10.5197
CG	-10.5199
▁2000	-10.52
▁소화	-10.5205
▁양아치	-10.5205
바람	-10.5205
▁절로	-10.5206
남주	-10.5206
다니는	-10.5209
에다가	-10.5211
▁보아	-10.5211
당신	-10.5213
▁임창정	-10.5216
▁심한	-10.5218
al	-10.5221
시키고	-10.5222
례	-10.5223
▁100%	-10.5233
▁이번에	-10.5235
▁한방	-10.5236
▁무섭고	-10.524
▁돼지	-10.5244
▁감독과	-10.5247
겁	-10.5248
귀신	-10.5248
어쩌	-10.5249
싫어	-10.5251
▁헬	-10.5252
;;"	-10.5255
▁흘러가는	-10.5255
▁편안	-10.5256
측	-10.5258
셔서	-10.5258
▁깡패	-10.526
▁명복을	-10.526
▁비호감	-10.526
▁인간은	-10.526
▁허무한	-10.5261
▁왠만한	-10.5262
▁은근히	-10.5263
▁기대한	-10.5266
▁전반적으로	-10.5266
▁만들어서	-10.5268
하다고	-10.5269
▁탓	-10.5269
능력	-10.527
극히	-10.5281
▁제목을	-10.5286
아까웠	-10.5291
당시엔	-10.5291
00	-10.5294
▁의도가	-10.5299
▁친구랑	-10.5301
▁질질끌	-10.5311
추억	-10.5314
▁다루	-10.5316
▁기준	-10.5318
잖아요	-10.532
둔	-10.532
▁나무	-10.5321
▁말하고자	-10.5321
애들은	-10.5322
맹	-10.5322
찡	-10.5323
판타지	-10.5324
▁포스터에	-10.5326
▁슈	-10.5327
감독은	-10.5327
▁생기	-10.533
▁만점에	-10.533
졸작	-10.533
▁묻어	-10.5334
였다면	-10.5341
▁정보	-10.5342
▁워	-10.5344
;"	-10.5346
▁나와야	-10.5348
스토	-10.5353
상태	-10.5358
식으로	-10.5359
천원	-10.536
▁찾아서	-10.536
▁빵빵	-10.5363
부리	-10.5364
누구	-10.5365
려다가	-10.5369
▁돈아까워	-10.5371
▁아동	-10.5375
겼	-10.5377
▁사람이라면	-10.5379
ᅩ	-10.5381
아니면	-10.5381
컬	-10.5381
딘	-10.5381
。	-10.5381
▁놀랐다	-10.5382
▁명불허전	-10.5382
▁어두운	-10.5382
▁무거운	-10.5382
▁Good	-10.5382
돈주고	-10.5382
▁잃은	-10.5383
▁무대	-10.5388
▁요소가	-10.5389
▁괜찮았음	-10.5391
▁날아	-10.5393
▁인생은	-10.5394
사의	-10.5396
▁유쾌하게	-10.5398
▁살인마	-10.5398
▁마지막엔	-10.54
▁살리지	-10.5404
▁의사	-10.5406
▁이런류의	-10.541
▁울었	-10.541
▁느낌이다	-10.5414
▁놀란	-10.5416
▁마지막회	-10.542
▁송강호	-10.5422
영화보다	-10.5423
▁박진감	-10.5424
▁유치해서	-10.5436
▁보라고	-10.5437
▁슬	-10.5439
▁연출력이	-10.544
▁반영	-10.5443
▁망할	-10.5446
K	-10.5448
▁남성	-10.545
▁형제	-10.545
경찰	-10.5451
봤습니다	-10.5456
▁방해	-10.5456
▁목소리가	-10.5456
▁배경으로	-10.5462
데요	-10.5466
▁아프다	-10.5467
▁도시	-10.5467
▁맞추	-10.5468
브라	-10.5472
▁짜증나게	-10.5472
▁분량	-10.5475
▁불쌍해	-10.5476
▁뭐라고	-10.5477
어라	-10.5482
▁느낌은	-10.5483
▁책으로	-10.5487
▁땅	-10.5488
▁허술	-10.5493
성은	-10.5496
▁느껴지	-10.5502
벼	-10.5505
혔	-10.5505
없었	-10.5507
▁끝났	-10.5507
▁좋았을텐데	-10.5507
▁절망	-10.5509
▁L	-10.551
▁기획	-10.551
할지	-10.551
외엔	-10.5511
수준이	-10.5512
생각을	-10.5515
▁드림	-10.5517
▁이것보단	-10.5517
▁솔직	-10.5517
▁거품	-10.5518
여운이	-10.5519
▁넘어가	-10.5519
▁교훈도	-10.5521
▁여친	-10.5523
▁보았던	-10.5524
▁있으	-10.5525
▁생각해보게	-10.5525
▁가히	-10.5539
맞아	-10.5541
▁거지같은	-10.5541
▁만들어라	-10.5541
란다	-10.5542
▁참나	-10.5544
년대에	-10.5547
에게는	-10.5555
▁덤	-10.5558
알아	-10.5561
▁빅	-10.5562
▁아역	-10.5563
▁이만한	-10.5563
▁미국의	-10.5563
▁만들었나	-10.5565
▁한번더	-10.5566
▁탐	-10.5566
▁믿기지	-10.5567
쩌	-10.557
▁쩌는	-10.5571
덤	-10.5573
▁느끼고	-10.5579
었는지	-10.5582
▁H	-10.5585
였을	-10.5586
▁인류	-10.5586
▁명연기	-10.5586
내내	-10.5587
▁미스	-10.5596
허무	-10.5597
▁각자	-10.5597
재미없어	-10.5602
50	-10.5604
으로만	-10.5606
▁단편	-10.5607
▁겁	-10.5614
▁불쌍하	-10.5614
▁않았지만	-10.5614
광고	-10.5615
~~~~~~~	-10.5616
지루하다	-10.5617
었을까	-10.5618
거에요	-10.5618
▁영화예요	-10.562
▁포스터만	-10.5621
놨네	-10.5621
▁천국	-10.5625
▁것들	-10.5625
▁완	-10.5626
▁아무생각없이	-10.563
▁흡입력	-10.563
▁향연	-10.563
▁표현할	-10.5631
▁비행기	-10.5632
▁느껴졌다	-10.5632
해지고	-10.5633
ut	-10.5635
▁동영상	-10.5635
▁말그대로	-10.5635
▁꼭보세요	-10.564
▁모욕	-10.5641
▁싶었던	-10.5642
이즈	-10.5644
▁볼만합니다	-10.5644
▁잊을수	-10.5644
▁무서웠	-10.5645
했을때	-10.5652
▁알았음	-10.5652
▁심각	-10.5652
▁막장이	-10.5654
나보다	-10.566
끝나고	-10.5661
▁나을듯	-10.5661
▁휘	-10.5664
봐야지	-10.5664
시대에	-10.5664
▁감동적이네요	-10.5664
대체	-10.5665
느냐	-10.5669
▁러브	-10.5675
거라고	-10.5676
▁인상적인	-10.5677
▁캐릭터들이	-10.5682
상영	-10.5683
▁한국판	-10.5686
th	-10.5687
▁막판	-10.5688
▁땐	-10.569
▁당신이	-10.5691
▁좋아하지만	-10.5691
▁무엇	-10.5693
볼수	-10.5695
es	-10.5697
▁싫어하는	-10.5702
즐	-10.5705
시청률	-10.5708
▁슬픈영화	-10.5708
▁묘한	-10.5713
▁준비	-10.5715
▁알리	-10.5717
▁누나	-10.572
▁영화속	-10.5721
▁의상	-10.5723
▁특	-10.5727
▁재밌다는	-10.573
▁아담	-10.573
▁답답하다	-10.5731
주기도	-10.5733
여행	-10.5734
타고	-10.5735
▁만들어주	-10.5736
▁웃는	-10.5736
▁도망	-10.5736
▁일부	-10.5738
▁오락	-10.574
▁:)	-10.5741
늙	-10.5742
할수가	-10.5746
▁본듯	-10.5751
▁범죄자	-10.5754
▁짜리	-10.5755
en	-10.5756
셧	-10.5757
욤	-10.5757
▁애초에	-10.5757
▁감명깊게	-10.5757
▁예측	-10.5759
▁단점	-10.576
안된다	-10.5764
분들은	-10.5764
였네요	-10.5765
▁드라마입니다	-10.577
안나	-10.5772
▁공감도	-10.5775
▁모르지만	-10.578
▁안나온다	-10.5781
▁산만하고	-10.5781
▁괜찮네요	-10.5785
▁어설프다	-10.5788
우스	-10.579
점주	-10.5791
었어	-10.5791
▁순수하고	-10.5795
▁세월이	-10.5795
▁슬퍼	-10.5798
▁여인	-10.5799
▁200	-10.58
▁뭐고	-10.5802
레인	-10.5803
▁화장실	-10.5803
로드	-10.5809
▁신인	-10.5812
까요	-10.5814
▁어거지	-10.5819
못해	-10.5823
▁빠져들	-10.5824
▁보는것	-10.5825
000	-10.5825
조아	-10.5827
▁찌질	-10.5829
잡고	-10.5829
형제	-10.5831
자들의	-10.5832
▁말고는	-10.5833
는거지	-10.5836
농	-10.5838
몬	-10.5838
쩝	-10.5839
올라	-10.5839
그나마	-10.584
▁자아	-10.5841
▁뜬금없이	-10.5842
▁그렇지만	-10.5843
▁널	-10.5843
좀비	-10.5847
선택	-10.5849
▁백인	-10.5849
에비해	-10.5854
이예요	-10.5857
▁오글거리는	-10.5858
▁조연들	-10.586
▁미소가	-10.586
▁및	-10.5863
멋있	-10.5863
▁볼려고	-10.5865
잖	-10.5868
▁잘생겼	-10.5868
해놓고	-10.5874
도좋고	-10.5875
▁가족애	-10.5878
심이	-10.5878
▁이거보다	-10.5879
닫	-10.5884
ᅢ	-10.5885
▁하이틴	-10.5885
▁스타뎀	-10.5885
▁ᄒᄒᄒᄒ	-10.5887
▁2012	-10.5888
▁속이	-10.5889
▁좋겠습니다	-10.589
▁기적	-10.589
▁말씀	-10.5892
▁개나	-10.5894
▁별하나	-10.5896
하러	-10.5897
▁말하려는	-10.59
▁빼곤	-10.5901
으려	-10.5902
살이	-10.5904
▁신선함	-10.5904
▁빠졌	-10.5904
이어서	-10.591
하더니	-10.5914
▁옳	-10.5915
▁유지	-10.5916
▁원조	-10.5917
겠어	-10.5917
어른	-10.5918
!!!!!!	-10.5918
▁학생	-10.592
없구	-10.5921
▁읽는	-10.5921
감동적이	-10.5921
▁곰	-10.5928
활	-10.593
▁대부	-10.5932
같아서	-10.5932
좋네요	-10.5934
로서는	-10.5939
▁맡은	-10.5943
▁내용의	-10.5954
▁초반부	-10.5963
▁이야	-10.5968
아직	-10.597
멀	-10.597
▁세번	-10.5973
▁자기가	-10.5974
▁장난아니	-10.5974
▁왔습니다	-10.5974
네이버	-10.5974
▁웃기는	-10.5975
▁하하	-10.598
무시	-10.5982
▁별로였다	-10.5983
▁안나오는	-10.5995
▁간지	-10.5997
▁버리고	-10.6005
▁따름	-10.6007
보려고	-10.6012
뮤	-10.6013
덴	-10.6015
▁빕니다	-10.6015
재밌고	-10.6015
▁도둑	-10.6016
▁나타나	-10.6017
▁4.44	-10.6017
▁은근	-10.6019
본적	-10.6021
▁평점조절	-10.6021
▁찾기	-10.6024
▁내돈	-10.6025
▁욕먹	-10.6025
미화	-10.6027
것같네요	-10.6027
▁싶어서	-10.6028
▁있었으면	-10.6028
하나하나가	-10.603
▁벨	-10.603
▁더빙이	-10.6031
▁알았네	-10.6033
보여주	-10.6033
▁쭉	-10.6033
▁형편없는	-10.6034
▁과학	-10.6035
▁다운받아서	-10.6037
▁장면들이	-10.6037
뿐이다	-10.6039
후에	-10.604
기도하고	-10.6043
▁멋지게	-10.6045
▁어이없다	-10.6048
점으로	-10.6048
▁부족함	-10.6049
▁재밌지	-10.6049
▁전화	-10.6051
만들어도	-10.6052
▁제작비가	-10.6059
▁결론	-10.6061
▁사람에게	-10.6061
▁슬프	-10.6061
해져	-10.6061
국민	-10.6066
▁연기력에	-10.6067
▁영화네	-10.6072
▁무섭게	-10.6073
▁기대하지	-10.6074
▁알수있	-10.6079
같아요	-10.6081
▁드라마중	-10.6082
만은	-10.6085
하고싶다	-10.6097
▁좋앗	-10.6098
▁영화인줄	-10.6099
▁여전	-10.6099
▁비현실적	-10.6101
▁중요	-10.6107
▁일본의	-10.6109
▁전문	-10.6111
함에	-10.6112
▁라이언	-10.6116
▁캐스팅이	-10.6117
하하	-10.6117
▁진한	-10.6121
이랄까	-10.6123
지마세요	-10.6125
쩜	-10.6128
겨울	-10.6131
▁털	-10.6133
▁없다고	-10.6133
본사람	-10.6135
가면	-10.6139
▁없는게	-10.6144
됫	-10.6146
▁시종일관	-10.6146
▁즐거움	-10.6146
▁칭찬	-10.6147
▁박보영	-10.6147
▁블랙코미디	-10.6148
▁드러	-10.6149
▁마시길	-10.6153
▁영상도	-10.6155
▁당연	-10.616
▁소통	-10.6164
▁났다	-10.6165
메이	-10.6167
▁한심하다	-10.6167
▁말인가	-10.6169
▁애정	-10.617
▁뭐하는	-10.6171
▁되야	-10.6174
이딴	-10.6174
▁후에	-10.6176
▁정도는	-10.6177
▁손발	-10.6178
어디	-10.618
▁깔끔한	-10.6184
점만점에	-10.6184
▁뒤죽박죽	-10.6186
▁안보는게	-10.619
▁빠져서	-10.6191
▁요즘은	-10.6192
▁주지	-10.6193
▁그들이	-10.6195
▁나루토	-10.6198
해줄	-10.6199
▁충격적인	-10.6201
▁일본인	-10.6205
연기를	-10.6207
제국	-10.6211
▁자고	-10.6215
때문	-10.6216
▁아기	-10.6219
▁잔인함	-10.6223
▁이딴영화	-10.6228
▁ᅲᅲᅲᅲ	-10.6232
▁바닥	-10.6232
▁것만	-10.6235
되게	-10.624
휘	-10.6242
셀	-10.6242
▁떡	-10.6246
아까운	-10.6249
▁이것보다	-10.625
▁케빈	-10.625
▁P	-10.6253
▁조금은	-10.6254
▁품	-10.6254
▁R	-10.6257
▁봤어	-10.6265
제로	-10.6267
▁과장	-10.6276
▁나음	-10.6277
곱	-10.628
듦	-10.628
▁아마추어	-10.628
렛	-10.628
▁닥치고	-10.628
▁무간도	-10.628
▁밋밋	-10.6281
▁상징	-10.6283
▁풀어낸	-10.6286
저런	-10.629
▁낫겠다	-10.629
▁고문	-10.6292
▁잠을	-10.6294
▁삭제	-10.6294
▁관심이	-10.6294
▁작가의	-10.6295
▁염	-10.6295
합시다	-10.6295
▁니들	-10.63
▁미안하다	-10.6301
▁거짓	-10.6301
부러	-10.6302
▁사람들을	-10.6304
▁달달	-10.6305
맞음	-10.6305
놈들은	-10.6311
▁깔	-10.6315
▁EBS	-10.6315
▁관련	-10.6317
▁스포	-10.6324
▁사랑스럽다	-10.6328
▁류승범	-10.6332
▁이별	-10.6333
들이나	-10.6334
▁똑같이	-10.6336
싫다	-10.6336
▁영화라서	-10.6337
오래	-10.6338
▁짐	-10.634
지루한	-10.6341
▁같았다	-10.6342
▁배급사	-10.6345
미안	-10.6346
▁놀랍	-10.6347
▁감정이입	-10.6351
바로	-10.6352
▁그리워	-10.6355
▁공포를	-10.6355
▁의문이	-10.6359
▁만화영화	-10.6365
▁ᄏᄏᄏᄏᄏᄏᄏᄏ	-10.6367
▁연기하는	-10.6368
현실적	-10.6368
지말자	-10.637
▁이제는	-10.6377
피디	-10.6381
떼	-10.6383
▁충분한	-10.6391
▁즐겨	-10.6395
▁웃을	-10.6401
▁입장에서	-10.6405
드만	-10.6408
▁흔들	-10.6409
어용	-10.6411
▁들게	-10.6412
뜬	-10.6413
▁뭐하자는	-10.6413
▁선동	-10.6415
▁바탕으로	-10.6415
▁감동적이에요	-10.6418
▁끼워	-10.6419
▁파리	-10.642
▁새끼	-10.642
▁로망	-10.6422
▁최후	-10.6428
물로	-10.6438
만듬	-10.6443
▁화려하	-10.6443
인걸	-10.6443
▁공유	-10.6444
▁실감	-10.6444
▁실망이다	-10.6446
▁여배우들	-10.6448
되길	-10.6452
▁같지	-10.6454
▁프랑스영화	-10.6454
라는게	-10.6455
▁연상	-10.6456
▁행복하게	-10.6459
▁대학	-10.646
▁아까워서	-10.646
▁장애인	-10.6461
안되고	-10.6462
▁잼있는	-10.6464
▁쿨	-10.6464
▁감동받	-10.6468
▁언젠가	-10.6468
▁끝나서	-10.6473
le	-10.6473
방식	-10.6475
짧	-10.6475
▁프리	-10.6475
결말이	-10.6489
이었어요	-10.6489
▁침	-10.649
▁상황을	-10.6492
▁뭐임	-10.6493
▁모든것이	-10.6493
▁도데체	-10.6494
▁조금만	-10.6496
낫다	-10.6497
▁책임	-10.6499
터짐	-10.6503
삼류	-10.6504
재밋다	-10.6504
▁구분	-10.6507
중간에	-10.6508
면에서	-10.6513
▁남기는	-10.6514
▁인생영화	-10.6515
▁오글오글	-10.6516
▁넘치	-10.6516
드가	-10.6518
뻔했다	-10.6522
프로그램	-10.6525
번에	-10.6526
▁무서움	-10.6529
주네	-10.6529
▁재밌게봤어요	-10.6529
하나도	-10.6529
▁극중	-10.6531
▁잤	-10.6534
▁느껴지지	-10.6543
▁흥미로웠	-10.6544
▁아무튼	-10.6545
▁보기가	-10.6546
▁잊혀	-10.6546
▁거리	-10.6547
▁윌	-10.6549
☆	-10.6552
▁워낙	-10.6552
▁전성기	-10.6553
▁싶습니다	-10.6553
갈때	-10.6553
▁부활	-10.6554
재미있다	-10.6555
▁로빈	-10.6555
▁최고네요	-10.6557
▁쉬운	-10.6557
▁고독	-10.6557
▁에효	-10.656
▁원하는	-10.656
들한테	-10.6564
▁아만다	-10.6566
ᄀᄀ	-10.6567
달라	-10.657
▁재방	-10.6571
▁액션만	-10.6574
▁멋져	-10.6574
ᄏᄏᄏᄏᄏᄏ	-10.6576
특집	-10.6578
▁디카프리오	-10.658
레기	-10.6582
그렇	-10.6583
▁독특하고	-10.6586
▁살다	-10.6588
▁우선	-10.6592
빠져	-10.6592
마저도	-10.6594
▁있었고	-10.6595
am	-10.6595
▁팬들	-10.6596
▁형편없	-10.6596
▁죽었	-10.6605
▁이거보단	-10.6609
▁한시간	-10.6609
▁뻔하다	-10.661
맘에	-10.6611
▁공간	-10.6611
▁됐다	-10.6623
아오	-10.6624
▁평을	-10.6628
▁스파이	-10.6628
▁뛰어넘는	-10.6629
200	-10.6629
▁끝날	-10.6634
▁했더니	-10.6635
▁소개	-10.6637
▁개념	-10.6638
버전	-10.6638
▁없던	-10.664
못한	-10.664
▁역겹다	-10.6641
됩니다	-10.6642
▁이상하다	-10.6642
▁멋있고	-10.6644
렬	-10.6647
▁부탁	-10.6651
▁천사	-10.6659
▁칠	-10.666
뉴	-10.6666
해줘서	-10.6667
댓글	-10.6668
결혼	-10.6669
▁&	-10.6672
병맛	-10.6673
▁얘	-10.6675
한국영화	-10.6675
▁부분은	-10.6677
▁정신이	-10.6678
였구나	-10.668
▁킬링	-10.669
룰	-10.6691
▁스타워즈	-10.6691
띠	-10.6691
▁피아노	-10.6691
▁러브라인	-10.6691
그저	-10.6691
▁소장하고	-10.6691
▁bad	-10.6692
▁담고	-10.6692
▁ᄌᄂ	-10.6692
▁빠른	-10.6692
▁감독도	-10.6695
▁명작은	-10.6699
줘야지	-10.6706
줄거리	-10.6709
▁귀여워요	-10.6712
있는영화	-10.6718
▁작화	-10.672
▁기대가	-10.6721
▁광기	-10.6722
▁드네요	-10.6722
▁전투	-10.6723
▁첨이다	-10.673
▁언제까지	-10.6734
▁대결	-10.6735
다르	-10.674
ost	-10.6742
▁역사적	-10.6747
▁낮네요	-10.6752
복수	-10.6753
였네	-10.6754
▁비교해	-10.6756
곳이	-10.6756
▁진짜로	-10.6756
▁뛰	-10.6757
▁새벽	-10.6758
▁미스터리	-10.6759
대고	-10.6762
▁보기싫	-10.6763
▁여신	-10.6768
▁심하다	-10.6768
▁수록	-10.6769
▁절대로	-10.6769
저는	-10.677
▁연기잘하	-10.6778
▁14	-10.678
▁삶과	-10.6782
▁세상에서	-10.6787
▁귀여웠	-10.6795
▁is	-10.6805
낮은	-10.6805
▁동심	-10.6809
얼마나	-10.6813
▁필요가	-10.6814
돌려	-10.6817
삭	-10.6819
발랄	-10.6822
▁신선하	-10.6825
점이나	-10.6826
ᄃᄃᄃ	-10.6827
한마디로	-10.6831
쿡	-10.6831
ᄐ	-10.6831
▁마찬가지	-10.6831
▁살아있	-10.6832
▁섬뜩	-10.6832
▁킬러	-10.6832
▁새삼	-10.6835
▁얻어	-10.6836
▁직업	-10.6836
▁보여줄	-10.6836
▁웃겼	-10.6836
▁끝도	-10.6837
믿고	-10.6839
분들께	-10.684
▁울었어요	-10.6841
▁지옥	-10.6847
▁재미있었는데	-10.685
▁보겠다	-10.6851
▁흥분	-10.6855
말아먹	-10.6856
▁재미있었	-10.686
▁그런거	-10.6863
▁있으나	-10.6868
40	-10.6868
자꾸	-10.687
▁살아야	-10.6873
▁두시간	-10.6874
앞에	-10.6878
함은	-10.6879
▁젖	-10.6883
▁링	-10.6884
▁듣는	-10.6884
맞은	-10.6885
레드	-10.6889
▁신하균	-10.6892
▁미국식	-10.6893
▁커버	-10.6895
▁강동원	-10.6896
▁캐릭터를	-10.6896
▁외국인	-10.6898
▁다시금	-10.6899
▁발음	-10.69
▁강력	-10.6901
▁최악의영화	-10.6904
▁필요한가	-10.6904
▁살아있는	-10.6904
할줄	-10.6906
아라	-10.6906
▁미쳐	-10.6907
▁본격	-10.6909
▁최고라고	-10.6909
▁추천하고	-10.6918
같지	-10.6918
▁쏘	-10.6921
잘못	-10.6921
▁이상은	-10.6927
▁웃었다	-10.6929
긴다	-10.6933
▁영환	-10.6936
칭	-10.6939
▁만들기	-10.6939
▁애니는	-10.6941
시킬	-10.6942
므	-10.6944
▁낮은지	-10.695
▁코드	-10.6952
옆	-10.6954
▁따뜻해	-10.6954
썼	-10.6956
틈	-10.6956
밑에	-10.6956
빼곤	-10.6958
개연성	-10.696
▁실사	-10.6961
공부	-10.6961
▁모습에	-10.6962
▁나머지는	-10.6962
닮	-10.6965
ed	-10.6966
▁장점	-10.6967
발이	-10.6968
것인가	-10.6973
때까지	-10.6974
퀸	-10.6974
▁오그라드는	-10.6975
▁미스캐스팅	-10.6975
▁오로지	-10.6977
분짜리	-10.6977
▁났	-10.6979
▁좋으나	-10.6979
▁역사상	-10.698
스코	-10.6981
하겠습니다	-10.6982
이후로	-10.6983
▁혼란	-10.6984
▁조낸	-10.6986
지루해	-10.6986
비추	-10.6987
▁될수	-10.6989
▁거기서	-10.6989
▁멋져요	-10.699
▁죽인	-10.699
▁기발한	-10.6994
ch	-10.6994
▁이런식으로	-10.6995
▁낚인	-10.6996
▁충분하다	-10.6997
학년때	-10.7003
▁모르겠네	-10.7003
▁되는데	-10.7006
이래	-10.7006
▁사랑스럽고	-10.701
▁잘만들	-10.7011
▁완벽하다	-10.7017
▁넘넘	-10.7019
▁우는	-10.7019
져요	-10.7021
▁알파치노	-10.7022
▁사람과	-10.7023
▁들어간	-10.7023
▁영화라지만	-10.7026
▁소재의	-10.703
▁마냥	-10.7031
▁걷	-10.7031
▁끝을	-10.7032
▁역사에	-10.7032
▁추가	-10.7035
▁분장	-10.7036
▁평화	-10.704
졌으면	-10.7043
입니까	-10.7044
▁녹	-10.7044
▁타임	-10.7045
▁만드네	-10.7045
▁빠지는	-10.7047
보러	-10.7052
▁구성도	-10.7053
▁멋진영화	-10.7054
치면	-10.7054
눈물이	-10.7062
▁전개는	-10.7064
▁극장에	-10.7065
▁오그라들	-10.7065
▁됬	-10.7065
개가	-10.7066
▁것인가	-10.7068
▁공룡	-10.707
속으로	-10.707
▁ᄉ	-10.7071
▁정부	-10.7072
화면	-10.7076
▁지루함을	-10.7079
▁정체	-10.708
트가	-10.708
▁일반인	-10.7084
겠는데	-10.7086
그런데	-10.7088
▁학생들	-10.7089
▁것들이	-10.709
▁글고	-10.709
▁E	-10.709
▁가능성	-10.7094
▁무료	-10.7101
할정도로	-10.7103
벽	-10.7104
▁결국은	-10.7105
▁거기	-10.7105
탓	-10.7107
섬	-10.7108
옷	-10.7108
▁마리	-10.7108
그래픽	-10.7109
▁당신의	-10.7111
▁어째	-10.7112
▁싶다면	-10.7112
있었는데	-10.7113
균	-10.7116
▁늑대	-10.7117
▁V	-10.7119
버렸네	-10.7119
밍	-10.7119
Y	-10.7119
▁점수준것들	-10.7119
깃	-10.7119
팽	-10.7119
▁유치찬란	-10.7119
▁데이빗	-10.712
▁괜찬	-10.712
▁욕이	-10.712
▁에라이	-10.7121
▁뉴	-10.7121
▁그려낸	-10.7122
페이스	-10.7123
▁시험	-10.7124
▁오래전에	-10.7124
▁아까	-10.7125
▁태국	-10.7126
보려	-10.7127
▁살아남	-10.7128
▁작위적	-10.7128
앞	-10.7129
▁비록	-10.7131
▁믿음	-10.7132
거든	-10.7134
▁코믹영화	-10.7135
▁감흥	-10.7136
▁어이없음	-10.714
자연	-10.7141
영상미	-10.7142
▁가야	-10.7144
으러	-10.7144
com	-10.7145
▁아파	-10.7145
▁당장	-10.7146
▁강추합니다	-10.7147
▁케미	-10.7147
▁다운받	-10.7149
트로	-10.7151
▁잼있네요	-10.7154
▁J	-10.7154
▁않습니다	-10.7156
▁소름끼치는	-10.7156
▁확실	-10.7156
죽음	-10.7162
▁이해도	-10.7162
▁높지	-10.7165
▁시키	-10.7166
선생님	-10.7167
▁든	-10.7169
▁감명	-10.717
▁타란티노	-10.7172
▁못하겠다	-10.7173
▁맞다	-10.7175
▁모양	-10.7179
▁하도	-10.718
봤어	-10.7181
▁찰	-10.7185
자들이	-10.7186
모를	-10.7187
▁보고나니	-10.7187
▁생각만	-10.719
▁있긴	-10.7191
기술	-10.7195
스틱	-10.7196
몇번	-10.7201
없지	-10.7205
▁더러워	-10.7206
▁취향이	-10.7206
▁한가지	-10.7208
▁볼것	-10.7209
▁나오기	-10.7209
마음이	-10.721
별점	-10.7211
▁긴장감을	-10.7213
▁무기	-10.7214
▁땡	-10.7214
특별	-10.7215
개는	-10.7218
▁뽀	-10.7218
▁관객이	-10.7221
▁보아도	-10.7222
▁혁명	-10.7227
▁성룡의	-10.7229
막히	-10.7231
모르고	-10.7233
▁;	-10.7236
어여	-10.724
▁민족	-10.7243
▁후하게	-10.7245
▁스릴러물	-10.7247
붕	-10.725
닿	-10.7251
▁키스	-10.7256
말을	-10.7257
낭	-10.7259
촬영	-10.7261
략	-10.7261
▁넣어	-10.7263
찐	-10.7265
▁신화	-10.7266
▁스필버그	-10.7266
샌	-10.7266
뚜	-10.7266
폭력	-10.7268
▁강아지	-10.7268
▁열라	-10.7268
성룡	-10.7268
▁슈퍼맨	-10.7269
▁신고	-10.727
▁찬양	-10.727
과정	-10.7272
▁모자라	-10.7274
안에서	-10.7275
ᄏᄏᄏᄏᄏᄏᄏ	-10.7278
후반	-10.7279
▁가짜	-10.7279
▁버린	-10.7282
▁등록	-10.7283
▁몇년	-10.7283
▁권력	-10.7287
▁매번	-10.7287
▁미녀	-10.7288
▁뻔하	-10.7288
▁베이	-10.7289
▁이해못	-10.7293
▁개봉당시	-10.7295
▁주온	-10.7295
곳에	-10.7296
▁경우	-10.7297
▁만들다	-10.7299
▁남자들	-10.7301
▁받았다	-10.7302
봣다	-10.7302
▁의도는	-10.7304
▁줘	-10.7304
ad	-10.7304
▁보구	-10.7306
▁웃겨서	-10.7307
살때	-10.731
▁하나님	-10.7311
▁상황이	-10.7314
았어요	-10.7315
▁ᄒᄃᄃ	-10.7316
▁배우분들	-10.7319
▁대사도	-10.7319
▁아이들에게	-10.7319
동화	-10.7323
로우	-10.7324
▁말밖에	-10.7325
▁길이	-10.7327
▁두개	-10.7328
▁오지	-10.7328
▁섬세한	-10.7329
시오	-10.7329
▁제대로된	-10.733
▁뭐여	-10.7335
더군	-10.7336
▁훈훈	-10.7339
팬이	-10.7339
괜찮은	-10.734
▁강렬	-10.7343
▁돌아보게	-10.7349
표정	-10.735
▁재미없네요	-10.736
보던	-10.7362
▁성인이	-10.7362
▁드라마로	-10.7362
▁했을까	-10.7363
▁보고싶어	-10.7366
사극	-10.7368
서야	-10.7376
긴했지만	-10.7376
시면	-10.7377
▁했나	-10.7379
▁귀여	-10.738
▁익숙	-10.7383
▁했으나	-10.7388
얻	-10.7394
▁감동입니다	-10.74
그녀	-10.7401
는줄	-10.7403
딴	-10.7403
▁199	-10.7406
▁여자를	-10.741
▁지경	-10.741
▁아무나	-10.7411
려다	-10.7412
템	-10.7414
ᄊ	-10.7416
▁왕조현	-10.7416
푼	-10.7416
▁여러모로	-10.7416
▁자연스럽게	-10.7417
놈들이	-10.7418
▁데이	-10.7418
▁말이필요없다	-10.7418
그대로	-10.7419
보셈	-10.7419
▁안나옴	-10.742
▁별점이	-10.743
아니고	-10.7433
▁중국영화	-10.7433
▁있냐	-10.7434
▁남는게	-10.7435
것들이	-10.7436
차원	-10.7436
▁오글	-10.7437
▁아니라면	-10.7439
▁남아있	-10.744
▁캐릭터도	-10.7441
▁시체	-10.7442
▁폼	-10.7442
▁기억나	-10.7444
싫	-10.7444
▁옛날영화	-10.7445
▁고등학교	-10.7446
▁영화인것	-10.7447
▁후속편	-10.7448
▁커서	-10.745
▁고마	-10.7451
놈은	-10.7452
▁이하도	-10.7454
회부터	-10.7456
스토리는	-10.7458
▁억지스럽고	-10.746
영화관에서	-10.7461
▁중심	-10.7462
▁사회적	-10.7462
▁나왔던	-10.7463
미치	-10.7463
스럽지	-10.7464
▁잠들	-10.7467
수작	-10.7469
▁몬	-10.747
야겠다	-10.7474
▁권상우	-10.7475
▁좋더라	-10.7478
▁환상적인	-10.7478
▁글을	-10.7479
하였다	-10.7485
▁제목에	-10.7485
▁정상	-10.7485
하고싶은	-10.7486
▁영화보다가	-10.7491
같은데	-10.7492
▁느낀다	-10.7494
▁현실은	-10.7494
▁16	-10.7495
여기	-10.7496
방에서	-10.7496
▁앉아	-10.7498
▁끔	-10.7498
▁스릴감	-10.7499
보니깐	-10.7501
▁일주일	-10.7501
▁완성	-10.7503
지도않	-10.7504
▁하다니	-10.7504
▁짱구	-10.7504
▁현실에	-10.7505
스틴	-10.7506
▁난해한	-10.7507
▁전개에	-10.7509
~~"	-10.7511
▁17	-10.7513
인게	-10.7514
▁멋짐	-10.7516
▁눈치	-10.7516
수없다	-10.7516
었구나	-10.7517
▁넘어서	-10.7518
▁아쉬워요	-10.7519
▁영화자체	-10.753
V	-10.7533
달라고	-10.7537
정도는	-10.7542
▁부인	-10.7547
세트	-10.7549
편과	-10.7551
▁보단	-10.7554
▁맞나	-10.7554
저도	-10.7554
구역	-10.7559
낀	-10.7563
셉	-10.7567
덩	-10.7567
쟈	-10.7567
▁세련된	-10.7567
▁엉망진창	-10.7567
▁짬뽕	-10.7567
▁온갖	-10.7568
▁극혐	-10.7568
▁늙은	-10.7569
다보니	-10.7571
▁재밋는	-10.7571
하더라도	-10.7572
▁그럴듯	-10.7574
마리	-10.7577
▁설정은	-10.7578
▁개똥	-10.7582
▁장난하나	-10.7584
▁늙어	-10.7584
누가	-10.7585
됬다	-10.7586
▁마블	-10.7588
엉성	-10.7589
ic	-10.7594
▁제목은	-10.7596
▁보고싶은데	-10.7599
♥♥♥♥	-10.7599
▁기대했	-10.7599
▁시도는	-10.7601
▁아버지의	-10.7601
▁있겠지만	-10.7603
점주기도	-10.7605
보여서	-10.7607
ve	-10.7608
▁보게되는	-10.761
▁명성에	-10.761
해본	-10.7618
▁사랑하고	-10.762
▁중년	-10.7621
그림	-10.7623
판이	-10.7623
▁슬펐	-10.7628
▁가장한	-10.7628
졌음	-10.7632
▁노인	-10.7633
▁두명	-10.7633
▁진부하다	-10.7633
않는	-10.7637
▁x	-10.7639
투성이	-10.7642
같은거	-10.7645
볼때	-10.7649
.,.,	-10.765
▁의미있는	-10.765
▁항	-10.7651
▁원숭이	-10.7651
▁라이	-10.7659
시원	-10.7659
▁해야지	-10.7664
저리	-10.7665
▁딸이	-10.7665
▁캐릭	-10.767
▁보지마셈	-10.7676
남기	-10.7677
▁말해	-10.7684
▁남의	-10.7686
▁올라가	-10.7686
▁알려주는	-10.7689
노출	-10.7692
▁잼없다	-10.7696
할거	-10.7697
리오	-10.7699
오오	-10.77
점대가	-10.77
몰입도	-10.77
▁사실이	-10.77
을뿐	-10.7705
▁아이유	-10.7706
못함	-10.771
▁뜬금없	-10.7712
아까워	-10.7712
콩	-10.7714
▁어쩌다	-10.7715
첩	-10.7719
▁껐다	-10.7721
▁살렸다	-10.7721
쩍	-10.7721
▁상업영화	-10.7721
▁떡밥	-10.7722
▁레옹	-10.7723
▁꿀	-10.7723
▁재앙	-10.7726
▁쩔	-10.7727
▁공연	-10.7728
▁활	-10.7728
감상	-10.773
▁높이	-10.7731
▁자랑	-10.7732
▁뭐랄까	-10.7733
▁개인적인	-10.7737
년간	-10.7737
나오네	-10.7738
하길래	-10.7738
▁농	-10.774
▁나올때	-10.7741
▁미학	-10.7743
^^;	-10.7744
만원	-10.7747
▁바라는	-10.7749
▁부산	-10.7751
▁보고있는데	-10.7756
▁모방	-10.7757
▁봤었	-10.7757
것같음	-10.7759
돈이	-10.776
앉	-10.7764
▁ᄡ	-10.7766
▁해준다	-10.7766
▁궁금해	-10.7767
▁역작	-10.7769
▁무엇이	-10.777
지라도	-10.777
▁의해	-10.777
▁표현이	-10.7771
▁비쥬얼	-10.7772
▁나열	-10.7779
떨어지	-10.7779
받아	-10.7783
인지도	-10.7785
▁토니	-10.7786
▁동감	-10.7787
▁망쳐놓	-10.7792
▁w	-10.7792
원래	-10.7797
웃긴	-10.7797
봣어요	-10.7798
▁to	-10.7801
랑은	-10.7804
▁손가락	-10.7815
▁최고최고	-10.7815
▁만들어야	-10.7819
▁호흡	-10.7822
▁눈으로	-10.7825
▁심오	-10.7826
세여	-10.7829
하나요	-10.7829
애가	-10.7832
▁축	-10.7832
▁아침	-10.7834
▁원작과	-10.7839
주려고	-10.7839
▁일본에서	-10.7841
ᄍ	-10.7843
▁때리	-10.7844
시네	-10.785
▁웃음을	-10.7852
▁마니	-10.7853
▁작품이라	-10.7853
립니다	-10.7853
▁감성을	-10.7855
▁어색함	-10.7864
▁배꼽	-10.7865
꺼야	-10.7865
것같아	-10.7869
▁별로네요	-10.787
▁쌍	-10.7874
탱	-10.7876
▁니콜	-10.7877
펜	-10.7877
▁뒤늦게	-10.7877
홈	-10.7877
꾹	-10.7877
뜸	-10.7877
줫	-10.7877
▁드니로	-10.7877
▁완젼	-10.7877
▁엔딩크레딧	-10.7877
할수없는	-10.7877
▁그럴싸	-10.7879
▁즐길	-10.7879
▁가슴아프	-10.788
▁2015	-10.788
건만	-10.7882
▁버려	-10.7882
▁승부	-10.7886
▁반응	-10.7886
여운	-10.7887
▁고증	-10.7887
폴	-10.7888
▁대박이다	-10.7888
역을	-10.7888
▁무협영화	-10.7889
▁세계관	-10.789
없었다	-10.7891
▁성형	-10.7894
▁어설프게	-10.7895
▁어우	-10.7897
▁잔혹	-10.7897
▁장면만	-10.7899
▁웃었	-10.7904
▁주인공들이	-10.7905
▁허구	-10.7905
▁오직	-10.791
천재	-10.7911
▁화질	-10.7916
▁대사들	-10.7917
▁어린애	-10.7917
▁잔잔함	-10.7922
▁전율	-10.7923
▁movie	-10.7924
▁후반부에	-10.7924
▁옆에	-10.7926
▁클래식	-10.7929
보아	-10.793
▁가족을	-10.7932
▁철학적	-10.7937
어느	-10.7937
▁오해	-10.7941
둥이	-10.7941
들끼리	-10.7944
▁낭만	-10.7945
▁남았	-10.7947
거같아	-10.7947
▁당황	-10.795
뒤에	-10.795
▁K	-10.795
더라고요	-10.7952
대한	-10.7953
▁메세지를	-10.7954
▁아오이	-10.7955
us	-10.7957
▁안봐서	-10.7958
호러	-10.7958
▁아련하	-10.796
드네요	-10.7962
달리	-10.7968
ce	-10.7968
▁빠져들게	-10.7968
▁말은	-10.7969
▁진실을	-10.7969
▁숨은	-10.797
버린다	-10.7976
하하하하	-10.7977
▁하기엔	-10.7977
기억이	-10.7978
재밌는	-10.7979
거니	-10.798
▁음악은	-10.7984
▁줄이야	-10.7986
▁했는지	-10.7988
▁쉽	-10.7988
취급	-10.7989
시기	-10.7993
▁여기에	-10.7993
할려고	-10.8001
▁정리	-10.8003
▁시청자들	-10.8009
▁조아	-10.8011
하겠지만	-10.8019
그때	-10.802
▁공주	-10.802
같애	-10.8023
엇음	-10.8024
▁못하네	-10.8026
효과	-10.8027
될까	-10.8028
습니까	-10.803
▁진부하	-10.8032
간에	-10.8032
▁자세	-10.8032
▁굳굳	-10.8033
혐	-10.8034
앨	-10.8036
▁고등학생	-10.8036
▁다이하드	-10.8036
▁멈추	-10.8036
▁감성팔이	-10.8036
▁한효주	-10.8036
▁컬트	-10.8036
▁지겨워	-10.8036
▁흥미롭게	-10.8036
▁증명	-10.8037
▁수면제	-10.8037
데스	-10.8037
▁픽사	-10.8039
▁바란다	-10.8039
▁깨달음	-10.804
에휴	-10.8042
▁대사와	-10.8043
▁점이	-10.8044
▁니가	-10.8044
치기	-10.8046
▁심각하게	-10.8047
▁소품	-10.8047
▁개꿀잼	-10.8048
숨	-10.8049
진행	-10.805
▁처음본다	-10.805
▁기억난다	-10.805
▁재밌었습니다	-10.805
첫	-10.8052
▁러브스토리	-10.8053
덕분에	-10.8054
마무리	-10.8055
넘치는	-10.8056
분정도	-10.8057
▁장진	-10.8057
▁파워	-10.8057
▁감정선	-10.8058
▁처음이네	-10.806
▁더욱더	-10.8061
▁게스트	-10.8061
▁뉴스	-10.8061
▁들어서	-10.8064
▁의미도	-10.8066
▁굴	-10.8066
▁않아요	-10.8069
▁허나	-10.8071
▁싸이코패스	-10.8074
▁채워	-10.8077
▁충격이	-10.8077
▁있었음	-10.8079
완벽하게	-10.808
▁공포가	-10.8085
주고싶	-10.8087
▁되서	-10.8087
▁장소	-10.809
▁편인데	-10.8091
▁향수	-10.8096
▁귀신이	-10.8098
▁니네	-10.8099
▁말아	-10.81
▁촌	-10.8105
지않나	-10.8105
▁제작자	-10.8108
▁안보면	-10.811
영화네요	-10.8111
잔잔한	-10.8113
▁안봤	-10.8116
▁알아야	-10.8117
▁봤나	-10.8119
▁영상미와	-10.8122
▁스파이더맨	-10.8124
▁와서	-10.8128
소재는	-10.813
▁조잡한	-10.8131
▁나오네요	-10.8133
▁하자	-10.8134
▁또라이	-10.8134
▁청년	-10.8135
▁다른영화	-10.8138
▁독립	-10.8138
▁인생에서	-10.814
...(	-10.8142
누님	-10.8143
▁여자친구	-10.8149
스티	-10.8149
봤네	-10.8155
는것을	-10.8163
답다	-10.8164
▁과정이	-10.8165
▁힘들었다	-10.8167
보소	-10.8169
씨도	-10.8175
머니	-10.8178
거같	-10.8182
재미는	-10.8185
▁건가	-10.8186
▁메이	-10.819
▁걸까	-10.819
▁티비로	-10.8196
콤	-10.8196
▁이딴게	-10.8197
▁런닝타임	-10.8197
▁원주율	-10.8197
▁박평식	-10.8197
▁가까이	-10.8198
▁아기자기	-10.8198
▁호불호가	-10.8198
▁두고두고	-10.8198
▁깜놀	-10.8199
▁상큼	-10.8199
땜시	-10.82
▁공포는	-10.8201
vs	-10.8201
▁열광	-10.8203
▁쏘우	-10.8206
작이라	-10.8206
▁괜찮았던	-10.8207
▁봤는지	-10.8208
▁밝혀	-10.821
으리	-10.8213
▁싶었는데	-10.8214
▁쪼	-10.8214
걸작	-10.8214
18	-10.8215
▁울림	-10.8216
해야할	-10.8216
내려	-10.8216
▁사람만	-10.8217
영화였다	-10.8218
▁하하하	-10.8218
초딩	-10.822
무서워	-10.8222
암튼	-10.8223
▁대역	-10.8223
모르겠다	-10.8228
▁최고에요	-10.823
리스트	-10.823
다시봐도	-10.8231
▁예고	-10.8231
un	-10.8232
▁다리	-10.8233
▁에로물	-10.8234
했다가	-10.8237
▁여자들이	-10.8237
▁할때	-10.8237
▁싸우	-10.8238
▁우린	-10.8238
▁오는	-10.8241
쩐다	-10.8244
▁사과	-10.8245
대단	-10.8245
▁연기만	-10.8246
▁못해서	-10.8246
▁느껴질	-10.825
▁김수현	-10.8251
비행	-10.8253
나면	-10.8256
▁성적	-10.8257
▁최대	-10.8259
▁한장면	-10.826
하지않고	-10.826
자와	-10.8261
났음	-10.8262
중간	-10.8262
▁외면	-10.8263
▁상처를	-10.8264
▁데려다	-10.8266
▁전라도	-10.8268
▁h	-10.8269
하는듯	-10.8271
▁이어지	-10.8276
작가님	-10.8277
▁없으니	-10.828
▁면에서	-10.8281
il	-10.8284
▁첨으로	-10.8287
▁적은	-10.8288
▁그대	-10.8295
▁분위기는	-10.8299
▁얘기를	-10.8303
▁조차	-10.8304
▁아이를	-10.8305
슬프	-10.8308
▁잘해	-10.8309
▁들지	-10.831
▁생각은	-10.8311
▁매주	-10.8316
▁전편보다	-10.8319
▁봤고	-10.8323
▁조잡	-10.8323
주었다	-10.8326
▁우리나라에서	-10.8328
충격	-10.8329
▁감안	-10.8337
▁쩌	-10.8337
줄알았는데	-10.8343
▁그이상	-10.8345
나올때	-10.8346
▁태어나	-10.8347
▁반감	-10.835
▁답답해	-10.8351
여자가	-10.8351
▁물어	-10.8352
▁못만들	-10.8352
판을	-10.8354
▁당연한	-10.8357
말이필요없	-10.836
▁감동이다	-10.8361
팍	-10.8361
아름다워	-10.8361
꽁	-10.8361
쇠	-10.8361
▁팝콘	-10.8361
▁외로움	-10.8361
▁안타까움	-10.8361
▁멘탈	-10.8361
연애	-10.8361
▁심리묘사	-10.8362
▁나올까	-10.8362
밖엔	-10.8363
▁로맨틱코미디	-10.8365
▁억지스런	-10.8368
▁국산	-10.8369
▁시골	-10.837
▁전설이	-10.837
▁인물들의	-10.8371
레스	-10.8372
▁힘들어	-10.8377
맞추	-10.8377
▁없군	-10.8379
▁범인이	-10.8382
▁있었습니다	-10.8384
▁안좋은	-10.8386
▁영화같다	-10.8386
구석	-10.8387
▁레오	-10.8388
튀	-10.8388
▁끝남	-10.8389
▁OOOO	-10.839
나오면	-10.839
▁비교하면	-10.8391
갑자기	-10.8392
ri	-10.8392
▁짱이다	-10.8393
▁가치도	-10.8398
ne	-10.8399
▁한다고	-10.8401
즐겁고	-10.8404
멋진	-10.8407
잭슨	-10.8408
▁안남	-10.8409
새롭	-10.841
▁밋밋한	-10.841
▁k	-10.841
▁만든건지	-10.8417
▁감동적이었다	-10.8417
▁밑	-10.8417
분들이	-10.8417
▁너무하네	-10.8418
▁입장	-10.8419
▁긴장감과	-10.842
▁영화였는데	-10.842
▁때는	-10.8421
▁스페인	-10.8421
▁꽉	-10.8421
▁벌어	-10.8422
구먼	-10.8423
▁정점	-10.8426
▁했습니다	-10.843
▁믿는	-10.8433
평점은	-10.8433
▁머냐	-10.8433
듣고	-10.8434
▁엄정화	-10.8437
▁한석규	-10.8437
▁당당	-10.8437
▁go	-10.8438
주인공이	-10.8439
▁정체성	-10.844
편부터	-10.844
▁여주인공의	-10.8444
▁보이고	-10.8446
▁앞에서	-10.8447
▁구조	-10.845
▁머야	-10.8451
듣	-10.8454
위에	-10.8459
▁후반부로	-10.8462
▁시대가	-10.8464
▁세대	-10.8465
약간	-10.8465
▁뺏	-10.8468
▁삐	-10.8469
▁컷	-10.8469
▁몰입도도	-10.8474
▁듣기	-10.8475
▁스토리로	-10.848
없을	-10.8484
▁기회	-10.8485
▁되면	-10.8486
▁밀려	-10.8488
리아	-10.8488
▁재밋엇	-10.8491
▁높은지	-10.8493
▁고어	-10.8493
▁-_-;;	-10.8495
▁이영화에	-10.8498
▁오랜	-10.8499
▁최고인듯	-10.8504
▁중독	-10.8505
▁한개	-10.8509
▁찾아볼	-10.8509
▁엉망이	-10.851
▁같지만	-10.8511
드리고	-10.8512
버그	-10.8515
감동도	-10.8518
▁그립	-10.8518
▁이영화의	-10.8521
▁재밋어	-10.8521
▁시기	-10.8523
is	-10.8525
읍	-10.8527
영환	-10.8527
퓨	-10.8528
▁군더더기	-10.8528
▁박찬욱	-10.8528
▁손예진	-10.8528
▁어수선	-10.8528
▁한사람	-10.8528
▁찬사를	-10.8529
▁농담	-10.853
▁소리만	-10.853
▁불가	-10.853
▁패션	-10.8531
▁저평가	-10.8532
▁재탕	-10.8533
점주고	-10.8533
미스	-10.8535
세상에	-10.8535
▁절반	-10.8535
▁남자는	-10.8535
▁사이코	-10.8535
▁부분에서	-10.8536
▁시대적	-10.8539
하려면	-10.8542
▁참여	-10.8544
▁던져	-10.8544
▁집중도	-10.8547
▁번역	-10.8552
▁만들었냐	-10.8555
▁명배우	-10.8558
▁기대된다	-10.8558
시장	-10.8559
쥬	-10.856
저예산	-10.8563
무서운	-10.8563
▁쓰러	-10.8567
▁충실	-10.8567
▁짙	-10.8567
볼때마다	-10.8568
▁괜찮아	-10.8568
하는것도	-10.8571
▁애니매이션	-10.8573
▁한동안	-10.8575
▁사라	-10.8576
나쁜	-10.8582
▁뻔한스토리	-10.8582
알고	-10.8583
▁웃겼다	-10.8584
▁만났	-10.8584
▁약하다	-10.8585
▁환상적	-10.8585
▁편하게	-10.8585
내용을	-10.8588
▁추억을	-10.8589
시키지	-10.8593
▁오글거림	-10.8594
▁안가는	-10.8596
아닌데	-10.8597
▁기대했던	-10.8599
▁저러	-10.8601
▁감이	-10.8601
▁나면	-10.8601
▁막상	-10.8602
봤지	-10.8605
평점을	-10.8606
싶네요	-10.8607
▁배려	-10.861
▁미스테리	-10.861
▁걸작이다	-10.8612
앞에서	-10.8613
▁징	-10.8614
▁도움이	-10.8616
▁통해서	-10.8618
95	-10.8619
▁같았	-10.8619
▁형식	-10.8622
▁하며	-10.8622
▁뛰어넘	-10.8628
▁불가능	-10.863
~~~~~	-10.8631
가슴이	-10.8631
코드	-10.8631
끝내	-10.8632
▁심오한	-10.8633
다녀	-10.8635
이기에	-10.8644
▁한국에	-10.8645
보기엔	-10.8647
▁감독에게	-10.8651
▁연주	-10.8655
▁니들이	-10.8655
▁주고싶다	-10.8658
형사	-10.8658
나왓	-10.8662
뛰	-10.8664
▁멜로영화	-10.8667
▁짤	-10.8669
▁안들	-10.867
▁일을	-10.8671
장애	-10.8675
게다가	-10.8675
사장	-10.8675
인들의	-10.8678
▁걸리	-10.868
되네	-10.8681
쉽	-10.8681
▁킬링타임용으로도	-10.8682
이라는게	-10.869
▁r	-10.8692
퀴	-10.8693
싼	-10.8694
쉐	-10.8695
냄	-10.8696
뎀	-10.8697
졋	-10.8697
▁정주행	-10.8697
▁흑역사	-10.8698
▁가슴아픈	-10.8699
▁갖춘	-10.8699
▁닮았	-10.8701
▁생존	-10.8702
▁낮추	-10.8702
▁음향	-10.8703
이젠	-10.8703
▁치료	-10.8704
▁피곤	-10.8704
▁면이	-10.8705
▁모독	-10.871
▁복선	-10.8712
▁아깝습니다	-10.8713
크리	-10.8716
▁향기	-10.8718
▁제왕	-10.8721
▁회상	-10.8722
70	-10.8724
▁아닌것	-10.8725
겨서	-10.8727
멍	-10.8727
▁향한	-10.873
▁받아야	-10.8732
▁녹아	-10.8732
▁머리속	-10.8732
▁위험	-10.8732
▁아련한	-10.8732
▁구경	-10.8734
수정	-10.8736
▁있기	-10.8737
카메라	-10.8738
보지마라	-10.8738
진정한	-10.874
한건지	-10.874
▁싶음	-10.874
▁졸잼	-10.8741
▁봐줄만	-10.8748
▁크레딧	-10.8748
▁전기	-10.8749
싶어서	-10.8749
▁기타	-10.8752
▁어린아이	-10.8755
▁말았다	-10.8756
▁나니	-10.8758
재밋어요	-10.8758
▁재밋네요	-10.8759
▁심장이	-10.8759
평생	-10.876
▁지우	-10.8761
재미없는	-10.8762
▁공포감	-10.8762
▁무리수	-10.8764
▁벗어	-10.8765
▁우울한	-10.8768
▁비해서	-10.8769
▁갖게	-10.8769
▁김희선	-10.877
▁점에서	-10.8771
되다니	-10.8773
죽는	-10.8776
▁아바타	-10.8781
▁만날	-10.8781
들로	-10.8782
▁왔다	-10.8782
았지만	-10.8787
이형	-10.8789
▁이딴거	-10.8792
▁다름	-10.8792
▁바라보는	-10.8793
av	-10.8795
▁화가나	-10.8795
▁인식	-10.8795
▁안타깝	-10.8796
죽여	-10.8806
▁커녕	-10.8808
현우	-10.8814
되나	-10.882
년동안	-10.8823
설명	-10.8826
프라	-10.8833
▁몰입하게	-10.8833
▁전율이	-10.8834
라는데	-10.8835
▁이어지는	-10.8839
▁시점	-10.8839
▁안좋	-10.8843
▁1,2	-10.8845
▁울어	-10.8845
므로	-10.885
▁날리	-10.8851
섯	-10.8851
▁때가	-10.8852
▁씁쓸	-10.8854
잔잔	-10.8854
껀	-10.8855
▁이끌어	-10.8856
▁아직까지도	-10.8856
▁아버지가	-10.8857
▁끝난다	-10.8858
▁찍을	-10.886
본거	-10.886
스러웠다	-10.8863
▁약한	-10.8865
랍니다	-10.8869
조차도	-10.8869
삘	-10.887
▁그냥저냥	-10.887
▁설경구	-10.887
▁웬만하면	-10.887
그나저나	-10.887
▁윌리스	-10.887
▁환장	-10.8871
▁황금	-10.8875
밴드	-10.8875
▁가져다	-10.8876
▁재방송	-10.8878
▁줘도	-10.8881
▁질문	-10.8881
▁흥미롭지	-10.8881
▁본것	-10.8881
▁이기적인	-10.8881
▁감동적입니다	-10.8881
▁없어도	-10.8883
▁액션물	-10.8885
▁모순	-10.8885
▁웃다가	-10.8886
▁알려준	-10.8886
▁미술	-10.8887
▁봐주	-10.8887
▁상영관	-10.8888
▁해외	-10.8893
▁인간적으로	-10.8897
▁언어	-10.8902
▁정석	-10.8902
▁다보고	-10.8902
▁영향을	-10.8904
▁화끈한	-10.8905
▁흉내내	-10.8905
같네요	-10.8906
▁오글거리고	-10.8908
▁캐스팅은	-10.8909
▁날라	-10.8912
자면	-10.8912
톱	-10.8913
▁씁쓸하	-10.8914
▁이렇게까지	-10.8916
줄알았다	-10.8916
▁숲	-10.8916
ᄉᄇ	-10.8918
잘봤습니다	-10.8922
▁영상미도	-10.8926
▁억지스럽	-10.8926
▁만들었으면	-10.8927
ᄃᄃᄃᄃ	-10.8931
▁내시간	-10.8934
별루	-10.8935
▁데뷔작	-10.8944
▁날려	-10.8945
▁여배우가	-10.8948
재밋음	-10.8948
댄	-10.8948
▁하고싶은	-10.8953
▁이따위로	-10.8954
▁빠질	-10.8954
▁튀	-10.8955
▁못했	-10.896
▁ᄏᄏᄏᄏᄏᄏᄏᄏᄏ	-10.8961
▁볼만한데	-10.8963
거랑	-10.8966
▁무난	-10.8969
보지마세요	-10.897
▁죽음을	-10.8974
▁부족하고	-10.8974
주고싶다	-10.8975
원주고	-10.8976
▁본능	-10.8976
▁이것은	-10.8977
아내	-10.8986
잼나	-10.8988
▁저급	-10.8988
만든다	-10.899
▁달콤	-10.8993
자막	-10.8993
▁좋아하지	-10.8996
다는걸	-10.9
겠다는	-10.9001
아닌가	-10.9001
▁음악을	-10.9002
▁크다	-10.9003
▁필요하다	-10.9004
신선	-10.9008
릇	-10.9008
▁좋아하시는	-10.9009
▁알바가	-10.901
쟁	-10.901
▁대학생	-10.9022
▁ᄍ	-10.9023
▁완성도가	-10.9025
▁안봄	-10.9025
감성	-10.9027
랴	-10.903
25	-10.9031
▁족	-10.9031
했어도	-10.9032
있다면	-10.9033
로서의	-10.9036
흡	-10.9037
▁첩보	-10.9037
▁떠오르는	-10.9038
▁관심을	-10.904
컴	-10.9044
뱅	-10.9045
핫	-10.9045
팝	-10.9045
▁국어책	-10.9045
▁기다렸	-10.9045
▁오랫동안	-10.9045
믄	-10.9045
캠	-10.9045
▁홧팅	-10.9045
▁완죤	-10.9045
▁엑스맨	-10.9046
▁치밀하	-10.9047
▁쫓	-10.9047
▁색채	-10.9048
▁소름끼치	-10.9048
▁미친듯이	-10.9049
▁찢어	-10.9049
▁시간아까워	-10.905
▁보낸다	-10.905
▁자연스러운	-10.9051
▁자체로	-10.9051
▁지브리	-10.9052
갔으면	-10.9054
▁여태	-10.906
▁야하지도	-10.906
▁명작임	-10.9062
▁초반엔	-10.9063
점도아깝다	-10.9063
짓을	-10.9063
▁러닝타임이	-10.9064
▁볼만했	-10.9065
▁히어로물	-10.9065
▁죽는다	-10.9065
▁다시보기	-10.9067
▁현실적으로	-10.9069
뿐인	-10.9069
졌던	-10.9073
▁많네	-10.9073
액션영화	-10.9074
시죠	-10.9075
모델	-10.9077
▁욕을	-10.9078
▁교회	-10.9078
▁알려주	-10.9078
▁한줄	-10.908
하죠	-10.9083
▁불쌍해서	-10.9084
▁아름다웠다	-10.9091
▁송승헌	-10.9093
▁시리즈가	-10.9096
쫌	-10.9098
히어로	-10.9099
▁락	-10.9102
▁알지	-10.9103
▁부자	-10.9104
들보다	-10.9106
간지	-10.9107
▁것과	-10.9108
▁안되네	-10.9111
▁재밋고	-10.9114
▁쓰레기를	-10.9115
▁감상하	-10.9121
▁잊지못할	-10.9127
힘든	-10.9127
▁복잡한	-10.9127
▁진행되는	-10.9128
브리	-10.9129
▁영상은	-10.9139
▁차승원	-10.9149
▁대표	-10.9149
▁캐리	-10.9151
▁시간도	-10.9151
very	-10.9152
전달	-10.9154
▁사회의	-10.9155
예전에	-10.9157
다시보고싶	-10.9157
▁군인	-10.916
ᅮᅮᅮᅮ	-10.9161
▁마다	-10.9165
▁통쾌한	-10.917
:)	-10.9171
▁또보고싶	-10.9172
하루	-10.9172
▁대단했	-10.9174
는것이	-10.9176
▁나올수	-10.9177
재미가	-10.9178
▁안감	-10.9179
▁쓰레기네	-10.9183
▁돈으로	-10.9184
▁하세요	-10.9185
시간을	-10.9187
했었다	-10.9187
당시에는	-10.9192
줘요	-10.9195
잡는	-10.9198
▁찍지	-10.92
▁별거	-10.9204
바보	-10.9204
잇엇	-10.9205
▁ᅲᅮ	-10.9206
이영화는	-10.9207
이런거	-10.9213
일때	-10.9213
▁허허	-10.9213
더스	-10.9218
▁한거	-10.9219
뢰	-10.9221
켰	-10.9224
곽	-10.9224
뭇	-10.9224
^_^	-10.9224
▁2.22	-10.9224
▁뚝뚝	-10.9224
▁차태현	-10.9224
▁지저분	-10.9224
▁타이틀	-10.9224
점준것중	-10.9224
▁총체적	-10.9224
▁만드냐	-10.9224
▁색깔	-10.9225
▁관람객	-10.9225
><	-10.9225
▁남긴	-10.9226
▁언론	-10.9227
▁첫번째	-10.9228
▁람보	-10.9228
▁장혁	-10.923
▁허탈	-10.9231
▁학살	-10.9232
▁증거	-10.9233
▁경악	-10.9233
▁간직	-10.9233
▁재미없었음	-10.9234
▁예뻐서	-10.9235
아까운영화	-10.9236
야말로	-10.9236
▁선생	-10.9237
▁지나친	-10.9237
▁벽	-10.924
▁연습	-10.9244
▁깔끔	-10.9244
▁동화같은	-10.9245
▁가족과	-10.9246
▁드물	-10.9247
봤을땐	-10.9247
21	-10.9247
▁감성이	-10.9248
▁건강	-10.9249
앗다	-10.925
드립니다	-10.925
쩔	-10.9251
▁극본	-10.9252
겨운	-10.9252
▁트랜스포머	-10.9255
▁없애	-10.9255
▁보지도	-10.9256
▁끄는	-10.9257
▁드리	-10.9259
▁결국엔	-10.9259
신분	-10.9263
▁한글	-10.9264
그런지	-10.9264
시네요	-10.9265
▁깜	-10.9266
▁영화중에서	-10.9266
▁여유	-10.9266
▁드라마라고	-10.9267
큼	-10.9269
남아	-10.9271
▁아련	-10.9271
▁넓	-10.9272
모자	-10.9273
찰	-10.9274
▁미안해	-10.9274
▁끌려	-10.9274
좋아서	-10.9274
▁개소리	-10.9278
뽀	-10.9282
냄새	-10.9283
벤	-10.9283
▁흉내	-10.9283
▁튀어	-10.9287
cg	-10.9287
ᄒᄒᄒᄒ	-10.929
▁어차피	-10.9295
▁김혜수	-10.9295
반전이	-10.9298
▁인권	-10.9299
▁그들을	-10.9299
았습니다	-10.93
▁팍팍	-10.93
뭔지	-10.9303
라곤	-10.9304
▁테이큰	-10.9306
▁주먹	-10.9306
▁최고인	-10.9308
▁연기력과	-10.9309
돌이	-10.931
▁돈아깝다	-10.9313
▁뻥	-10.9318
▁신이	-10.9321
▁와닿지	-10.9325
유머	-10.9326
▁버렸다	-10.9326
▁즐거웠	-10.9329
▁현실적이고	-10.9329
▁차별	-10.9332
▁풀어내	-10.9333
▁떨어져	-10.9338
부분은	-10.9339
▁재수없	-10.9339
쁘	-10.9339
▁웃긴다	-10.9341
▁검색해	-10.9343
▁기법	-10.9344
▁허접하고	-10.9344
▁"10	-10.9345
▁쓰지	-10.9346
▁터지는	-10.9346
될듯	-10.9346
▁명작이라고	-10.9349
▁역겹	-10.935
들인	-10.935
▁웃기지	-10.9351
▁상상력이	-10.9353
올려	-10.9355
▁지금이나	-10.9355
▁미래를	-10.9358
여러	-10.9378
▁못했던	-10.9379
봤으면	-10.9379
있었던	-10.938
▁전부다	-10.938
줬으면	-10.9381
▁최악임	-10.9387
op	-10.9389
편으로	-10.9391
▁반개	-10.9393
른다	-10.9394
▁작품중	-10.9394
▁굿굿굿	-10.9396
러운	-10.9396
하기는	-10.9397
인것같다	-10.9398
▁놓은	-10.9398
젠	-10.9399
▁아빠가	-10.9401
받아서	-10.9401
▁되어야	-10.9402
▁내놓	-10.9402
깡	-10.9406
****	-10.9406
▁섞어	-10.9406
▁인상깊게	-10.9406
▁힙합	-10.9406
위원회	-10.9406
▁나머진	-10.9406
▁오페라	-10.9406
▁멀쩡	-10.9406
▁손색이	-10.9407
▁메세지가	-10.9407
▁유행	-10.9408
▁웃음만	-10.9412
집에서	-10.9413
드려요	-10.9414
▁흐르	-10.9415
ma	-10.9415
▁복수극	-10.9415
▁안좋아	-10.9415
앞으로	-10.9417
▁반갑	-10.9417
는뎅	-10.9418
▁나왔음	-10.9418
▁나와도	-10.9419
▁슬프네요	-10.9421
▁주원	-10.9422
▁돈벌	-10.9422
동물	-10.9423
▁재미나게	-10.9423
▁일찍	-10.9424
▁노래는	-10.9426
▁해피엔딩이	-10.9426
▁했어요	-10.9427
꺼라	-10.9428
▁재밌기만	-10.943
▁고작	-10.943
죽어	-10.9436
▁새록새록	-10.9437
▁없었는데	-10.944
▁저주	-10.9442
▁감동도없고	-10.9444
~♥	-10.9446
▁많음	-10.9447
▁백배	-10.9447
▁잼나요	-10.9448
▁믿을게	-10.9451
겟네	-10.9451
취향	-10.9454
▁적당하다	-10.9454
왔습니다	-10.9454
se	-10.946
▁사무라이	-10.946
▁마법	-10.9464
▁등장하는	-10.9465
▁능력이	-10.9466
낭비	-10.9469
삐	-10.9471
땡	-10.9471
H	-10.9471
▁위트	-10.9473
▁잔잔	-10.9477
▁최민수	-10.9478
▁버전	-10.9479
독립영화	-10.9481
▁스토리나	-10.9484
지않는다	-10.9484
부대	-10.9485
명을	-10.9486
말로	-10.9488
▁액	-10.9489
▁설명이	-10.9493
▁소리가	-10.9497
▁잘하네요	-10.9498
▁되어서	-10.9509
▁강하게	-10.9509
▁시간은	-10.951
질러	-10.9512
▁아침드라마	-10.9512
때리고	-10.9513
▁클라라	-10.9513
▁남들	-10.9514
▁무게	-10.9514
심리	-10.952
▁진정성	-10.952
▁의도를	-10.9523
슬프다	-10.9524
▁내취향	-10.953
▁창피	-10.9535
▁바랬	-10.9538
▁다시봤는데	-10.9539
▁정신병	-10.9541
▁본질	-10.9546
▁재미만	-10.9547
▁있어도	-10.9548
즐겁	-10.9548
▁믿어	-10.9548
▁되었습니다	-10.9552
▁빠지게	-10.9553
▁어울리	-10.9553
▁남아있는	-10.9555
▁가라	-10.9558
실력	-10.9561
▁한숨	-10.9561
▁문제는	-10.9561
떨어지는	-10.9564
!!!!!!!!	-10.9565
▁좋겠	-10.9567
▁안나오고	-10.9571
▁마무리가	-10.9571
▁만화를	-10.9574
하잖아	-10.9575
▁회사	-10.9576
이란게	-10.9577
▁되나	-10.9577
▁뭣	-10.9577
▁자체도	-10.9578
▁깨닫	-10.958
▁격투	-10.958
▁애니를	-10.9581
스텝	-10.9585
하던지	-10.9586
랍	-10.9588
▁텐데	-10.9588
액션이	-10.9588
활동	-10.959
쇄	-10.959
드래곤	-10.9591
▁어설퍼	-10.9591
▁클리셰	-10.9591
▁학창시절	-10.9591
▁흐지부지	-10.9591
▁구혜선	-10.9591
▁어지럽	-10.9591
▁어딘가	-10.9591
▁어떠한	-10.9591
▁원피스	-10.9591
▁드래곤볼	-10.9591
▁거슬리	-10.9591
▁겨울왕국	-10.9591
▁전지현	-10.9591
▁모자란	-10.9591
앵글	-10.9592
▁고맙습니다	-10.9592
▁빈약한	-10.9592
▁흑	-10.9593
▁성찰	-10.9593
▁택시	-10.9594
▁따뜻함	-10.9595
▁종합	-10.9595
▁놀라울	-10.9597
▁꺼져	-10.9597
▁과장된	-10.9597
▁신세계	-10.9599
▁까는	-10.96
▁별로인	-10.96
▁지루했음	-10.9602
▁않으면	-10.9605
!!!!!!!!!	-10.9609
▁정말정말	-10.9609
▁우승	-10.961
▁산다	-10.9611
▁한번씩	-10.9612
느니	-10.9612
▁감동적임	-10.9615
▁못따라	-10.9615
▁배울	-10.9619
▁돋보인다	-10.9619
▁귀여워서	-10.9619
▁무색	-10.962
역활	-10.9621
▁상당한	-10.9621
엿다	-10.9622
▁잡는	-10.9622
▁로마	-10.9622
▁감독님의	-10.9622
▁이따구로	-10.9623
▁틀어주	-10.9624
▁좋아하네요	-10.9629
▁보고싶네요	-10.963
▁좋구	-10.9631
▁가식	-10.9631
▁네이버평점	-10.9634
▁우디	-10.9635
▁법정	-10.9635
▁주연의	-10.9638
▁포함	-10.9639
나무	-10.9639
▁재밌게봤는데	-10.964
라구	-10.9641
▁주세요	-10.9642
▁기사	-10.9643
▁세월	-10.9645
▁멀리	-10.9648
스러울	-10.9649
타령	-10.9652
14	-10.9652
▁이것저것	-10.9653
▁즉	-10.9653
▁예수	-10.9653
었다고	-10.9664
중딩	-10.9665
불륜	-10.9666
tv	-10.9669
▁말았어야	-10.9669
▁지금보면	-10.9669
▁믿지	-10.9671
바닥	-10.9673
▁자위	-10.9676
▁이후에	-10.9677
▁제시카	-10.9678
장에서	-10.9678
▁선택한	-10.9679
아이돌	-10.9679
id	-10.9682
▁훈훈하	-10.9683
넘어	-10.9684
실화라	-10.9684
▁매력적이다	-10.9688
사진	-10.9689
▁허무함	-10.9693
님은	-10.9695
▁식상하다	-10.9695
제작비	-10.9699
▁픽션	-10.97
그자체	-10.9701
▁캐스팅도	-10.9703
끌고	-10.9703
▁저리	-10.9705
▁후반에	-10.9706
▁돋보이	-10.9706
▁알게된	-10.9707
▁끝은	-10.971
것들은	-10.9711
열받	-10.9711
▁꿈과	-10.9713
높아	-10.9719
바른	-10.9723
볼만한	-10.9726
▁욕만	-10.9727
이해가	-10.9728
▁톱	-10.9731
▁싶으면	-10.9731
매우	-10.9745
하시네요	-10.975
!!!!!!!	-10.9753
졌어요	-10.9753
▁남친	-10.9754
여성	-10.9763
묘사	-10.9763
있을까	-10.9764
남편	-10.9769
▁담아	-10.9771
▁엔딩은	-10.9775
▁존스	-10.9775
▁펼쳐	-10.9776
판에	-10.9779
풋	-10.9779
▁드러나	-10.9779
빤	-10.9779
▁다크나이트	-10.9779
▁어우러진	-10.9779
▁두려움	-10.9779
▁장동건	-10.9779
▁모성애	-10.9779
▁왕가위	-10.978
▁다니엘	-10.978
▁전도연	-10.978
▁김구라	-10.978
▁색다르	-10.978
▁재발견	-10.978
학대	-10.9781
▁스토리라인	-10.9782
▁문득	-10.9783
▁웃으며	-10.9784
▁잔인하	-10.9784
▁중학생	-10.9784
▁존경합니다	-10.9785
▁낚여서	-10.9787
▁댄스	-10.9792
▁기록	-10.9793
어진다	-10.9794
▁복잡	-10.9795
▁존재하는	-10.9796
▁안되나	-10.9798
보느라	-10.98
팬이라	-10.98
흥미를	-10.9802
▁8.5	-10.9802
▁소소하	-10.9807
▁관객에게	-10.9809
▁도중에	-10.981
▁자격	-10.981
▁필요없음	-10.9811
▁본방	-10.9812
갖	-10.9813
날때	-10.9813
재미없고	-10.9815
▁출신	-10.9817
▁비하	-10.9819
▁경계	-10.9822
▁영웅본색	-10.983
▁어디까지	-10.9831
▁좋아했던	-10.9834
▁영원	-10.9834
▁재미있어서	-10.9834
▁실망스럽다	-10.9835
▁슬펐다	-10.9836
▁달리는	-10.9839
않았다	-10.984
▁더럽	-10.984
가아니라	-10.9841
▁분위기를	-10.9844
▁일생	-10.9847
▁이야기에	-10.9848
▁변신	-10.9848
▁유혹	-10.985
없는데	-10.985
▁우리에게	-10.9855
▁살인자	-10.9856
▁작가는	-10.9858
특유의	-10.9861
프랑스	-10.9861
▁사라진	-10.9861
▁추천한다	-10.9862
좋겠다	-10.9863
▁생각했던	-10.9863
▁잔인하고	-10.9865
어울리	-10.9865
▁않아도	-10.9867
유쾌	-10.9867
했더니	-10.9869
▁걸로	-10.987
▁유치하기	-10.987
영웅	-10.9872
먼저	-10.9876
▁높네	-10.9877
▁쏴	-10.9879
▁이따구	-10.9882
티비에서	-10.9883
▁틀리	-10.9885
▁못본	-10.9887
키스	-10.9887
▁틈	-10.9887
▁인디	-10.9887
▁미치는	-10.9889
▁남고	-10.9889
달아	-10.989
▁가치를	-10.9891
▁혼자서	-10.9891
▁단역	-10.9892
재미있음	-10.9893
▁좋아하고	-10.9894
▁된다는	-10.9895
디스	-10.9905
오래전	-10.9905
최고의영화	-10.9906
있냐	-10.9907
▁없는듯	-10.9909
현재	-10.9909
▁하는건	-10.9916
▁새끼들	-10.9919
▁개같은	-10.9919
▁의한	-10.9919
하느라	-10.9921
▁싹	-10.9921
▁십점	-10.9926
교육	-10.9926
내놔	-10.9929
나와라	-10.993
▁않네	-10.993
사람을	-10.9931
▁쥬	-10.9934
▁훌륭하	-10.9936
▁해주세요	-10.9947
▁예고편만	-10.995
아이가	-10.9951
▁본듯한	-10.9954
▁터지	-10.9955
▁짱임	-10.9962
랏	-10.9962
옵니다	-10.9965
▁가시	-10.9968
들이랑	-10.9969
거같네요	-10.9969
갠	-10.9969
겻	-10.9972
▁고스란히	-10.9972
▁미야자키	-10.9972
▁어쨌든	-10.9972
▁파워레인저	-10.9972
▁드림웍스	-10.9972
▁뮤직비디오	-10.9972
▁에드워드	-10.9972
겄	-10.9972
습니당	-10.9972
▁조승우	-10.9972
▁레이첼	-10.9972
▁이정재	-10.9972
▁웅장	-10.9972
▁붕	-10.9974
▁안타까웠	-10.9974
▁죽기전에	-10.9975
▁고마운	-10.9976
▁욕나온다	-10.9976
헌터	-10.9976
▁가볍지	-10.9977
▁불만	-10.9977
▁커피	-10.9979
지않게	-10.998
갈수	-10.9981
선수	-10.9982
▁의견	-10.9983
▁드문	-10.9984
▁안타깝네요	-10.9984
▁제정신	-10.9984
▁한국어	-10.9985
▁중학교	-10.9985
▁많은것을	-10.9986
-.-	-10.9987
▁베리	-10.9987
▁유리	-10.9988
되요	-10.999
▁부각	-10.9991
▁노래를	-10.9991
▁힘내	-10.9991
▁주려	-10.9991
노동자	-10.9991
거든요	-10.9991
봤었는데	-10.9993
▁재현	-10.9995
▁상실	-10.9995
▁의미없는	-10.9999
▁애들도	-11.0001
▁시간과	-11.0003
▁아니냐	-11.0005
▁탁월한	-11.0005
▁아동용	-11.0006
▁전투씬	-11.0009
등등	-11.0009
PD	-11.0009
▁굉장한	-11.0009
감동적인	-11.001
▁실패한	-11.0011
▁보는동안	-11.0011
▁보진	-11.0011
▁기억남	-11.0014
▁흐름이	-11.0014
유발	-11.0017
▁피식	-11.0017
▁느낄수있	-11.0018
▁졸았	-11.0018
▁아쉬워	-11.002
▁냄새	-11.0023
▁잔잔하면서도	-11.0025
▁죽일	-11.0026
la	-11.0027
▁그지같은	-11.0027
▁빌리	-11.0028
이기도	-11.0029
마치	-11.0029
▁또봐도	-11.003
▁아이언맨	-11.003
빼고는	-11.0032
▁나고	-11.0032
▁부르는	-11.0032
▁봤지	-11.0033
▁찾을	-11.0036
▁도라에몽	-11.0036
▁현실에서	-11.0036
▁니콜라스	-11.0036
번이나	-11.0037
▁이쁘게	-11.0037
▁본건	-11.0041
대장	-11.0043
▁힘들게	-11.0046
▁훈훈하고	-11.0046
▁왔는데	-11.0052
게만드는	-11.0059
▁이상으로	-11.0059
탐	-11.0059
▁바뀌	-11.006
프트	-11.0061
챙겨	-11.0061
▁깍	-11.0061
안하고	-11.0064
필름	-11.0064
것도아니고	-11.0064
▁평가를	-11.0065
▁진부함	-11.0066
슬퍼	-11.0066
▁대사는	-11.0067
▁담겨있	-11.0069
이아니라	-11.007
정보	-11.0071
▁솔직한	-11.0077
똑같	-11.0079
▁가상	-11.008
▁다크	-11.0085
여야	-11.0088
▁티가	-11.009
▁소재만	-11.0091
어야지	-11.0092
▁싶지만	-11.0095
▁괜	-11.0098
▁졸작이다	-11.0099
억울	-11.01
중반	-11.0103
달까	-11.0105
돈으로	-11.0108
▁생생	-11.0108
볼수있	-11.0108
▁한대	-11.0109
ᄏᄏᄏᄏᄏᄏᄏᄏᄏ	-11.0109
보고있어요	-11.011
원작을	-11.011
▁이상함	-11.0113
▁끊어	-11.0115
▁다른건	-11.0119
집중	-11.0121
▁어이없고	-11.0123
▁다큐를	-11.0126
▁결과는	-11.0128
▁생각나게	-11.0129
▁따라한	-11.013
▁마음속에	-11.0133
▁걸어	-11.0133
▁밝	-11.0134
씩이나	-11.0134
▁행복해	-11.0137
▁헉	-11.0141
드려	-11.0141
▁세상의	-11.0142
▁만세	-11.0144
▁천만	-11.0146
민망	-11.0147
배는	-11.0148
뎅	-11.0154
▁타인	-11.0158
밧	-11.016
▁찍으	-11.0167
뻑	-11.0167
▁지들	-11.0167
늬	-11.0168
윽	-11.0168
▁정확히	-11.0168
▁어둡고	-11.0168
▁오우삼	-11.0168
밨	-11.0168
▁여기저기	-11.0168
▁키아누	-11.0168
▁김명민	-11.0168
▁태어난	-11.0168
▁저절로	-11.0168
▁비정상	-11.0168
▁납치	-11.0168
▁일어날	-11.0168
▁스킵	-11.0168
▁클라스	-11.0169
▁보여줌	-11.017
▁어딜	-11.017
▁실상	-11.0171
히히	-11.0171
분명	-11.0172
▁몰락	-11.0172
▁이민기	-11.0173
많고	-11.0173
▁고인의	-11.0173
▁줄리아	-11.0174
준거	-11.0177
▁영광	-11.018
▁울었습니다	-11.018
▁않았을까	-11.0183
▁이해하지	-11.0184
쪽으로	-11.0187
▁나오다니	-11.0188
볼껄	-11.0188
등급	-11.0189
▁늙었	-11.0189
▁머리를	-11.019
▁다른사람	-11.0191
보라	-11.0191
▁소중하	-11.0191
▁젊	-11.0194
▁낚였네	-11.0194
▁예산	-11.0195
▁편의	-11.0196
▁없구나	-11.0196
▁표정이	-11.0197
알았	-11.0198
▁안봐	-11.0198
▁재미있네	-11.0199
▁주목	-11.0202
화를	-11.0204
▁이은주	-11.0204
▁메시지가	-11.0206
▁신경쓰	-11.0207
할수도	-11.0208
▁보는사람	-11.0209
▁사라져	-11.0211
▁나은듯	-11.0214
▁예술가	-11.0214
▁고수	-11.022
▁다세포소녀	-11.0221
전체	-11.0222
▁재미있다고	-11.0227
▁대사를	-11.0227
▁흘러가	-11.0228
▁더빙판	-11.0228
▁선사	-11.0228
▁힘내세요	-11.0228
공주	-11.0229
▁남자배우	-11.023
▁실화라는	-11.0231
합니까	-11.0233
▁돌아오	-11.0234
▁장난감	-11.0235
▁될듯	-11.024
▁이탈리아	-11.024
▁조기종영	-11.024
▁퇴보	-11.0241
신분들	-11.0241
▁헤어지	-11.0242
▁저희	-11.0243
굿굿	-11.0244
▁주위	-11.0247
모습이	-11.0251
갔는데	-11.0251
죽이고	-11.0251
▁황정민	-11.0252
▁꺼내	-11.0254
el	-11.0254
해야하는	-11.0256
▁하는것	-11.0258
꼽	-11.0259
▁수준이하	-11.0259
▁꿈꾸는	-11.0259
이었고	-11.0261
▁부담	-11.0263
▁이혼	-11.0263
2005	-11.0263
톰	-11.0264
▁베일	-11.0268
보일	-11.0268
▁매력있는	-11.0271
안녕	-11.0273
라이브	-11.0274
좋았어요	-11.0275
▁콜	-11.0276
▁허접하다	-11.0277
보길	-11.0282
차별	-11.0283
▁계기	-11.029
▁발연기에	-11.029
~~~~~~	-11.0293
아니었	-11.0294
처음부터	-11.0295
▁않았음	-11.0304
▁애매	-11.0306
▁호감	-11.0307
장면에서	-11.0308
▁ᄏᄏᄏᄏᄏᄏᄏᄏᄏᄏᄏ	-11.0309
▁불쾌한	-11.031
이였음	-11.0312
▁재주	-11.0312
훌륭한	-11.0313
▁결말까지	-11.0315
et	-11.0317
지금까지	-11.0324
스케	-11.0327
▁ᄏᄏᄏᄏᄏᄏᄏᄏᄏᄏ	-11.0327
▁하니	-11.0336
하하하	-11.0336
▁여운도	-11.0342
▁경기	-11.0346
신기	-11.0347
▁참고로	-11.0348
소장	-11.0349
▁아니네	-11.0349
겠다고	-11.0351
파리	-11.0354
했냐	-11.0361
▁아이들은	-11.0364
깁	-11.0367
꼈	-11.0367
밟	-11.0367
▁소피마르소	-11.0368
▁엉터리	-11.0368
▁팀버튼	-11.0368
샷	-11.0368
쉣	-11.0368
펠	-11.0368
▁똑바로	-11.0368
▁미장센	-11.0368
▁인도영화	-11.0368
▁잃어버린	-11.0369
▁온몸	-11.0369
▁경의를	-11.037
안쓰는데	-11.037
▁감옥	-11.0372
였으나	-11.0373
▁애국심	-11.0374
▁마틴	-11.0374
▁빨간	-11.0375
▁2003	-11.0375
▁같네	-11.0376
▁극찬	-11.0376
▁실패작	-11.0377
우드	-11.0377
할게요	-11.0378
▁출발	-11.0378
▁여태까지	-11.0378
▁이런것도	-11.0379
▁불행	-11.0381
▁아류	-11.0382
▁없었으면	-11.0383
▁나쁘	-11.0385
그룹	-11.0386
▁대실망	-11.0387
하나로	-11.0389
▁시끄럽	-11.0389
같네	-11.0391
▁뽑아	-11.0391
빼	-11.0393
▁잼없음	-11.0394
▁임신	-11.0395
수가없다	-11.0395
▁퀄리티가	-11.0395
▁봐야한다	-11.0397
▁것들을	-11.0398
아쉽다	-11.0399
▁"1,2	-11.04
▁상황에	-11.0402
▁조악	-11.0402
세대	-11.0407
▁에러	-11.0408
인간의	-11.041
▁비중	-11.0411
CGV	-11.0412
▁아이와	-11.0414
▁하지마라	-11.0416
졸업	-11.0416
볼려고	-11.0422
▁신데렐라	-11.0422
본게	-11.0423
▁하긴	-11.0423
실화	-11.0424
찾기	-11.0424
▁없을까	-11.0425
▁돌려줘	-11.0428
▁캐릭터와	-11.043
▁나왔는데	-11.0431
▁재밋는데	-11.0432
▁기억을	-11.0434
▁좋아한다	-11.0436
점만점	-11.0436
▁배우와	-11.0437
▁공식	-11.0437
▁그시절	-11.044
느님	-11.0441
▁흥미진진한	-11.0443
웠던	-11.0444
▁기대되는	-11.0444
▁보느니	-11.0446
▁잘했다	-11.0447
해낸	-11.0447
▁하던데	-11.0448
▁채우	-11.0448
▁지배	-11.0449
▁300	-11.045
▁말라	-11.0451
▁조폭영화	-11.0451
▁될것	-11.0452
▁선동영화	-11.0452
▁메리	-11.0453
▁엘리	-11.0456
왔던	-11.0459
▁못하겠	-11.0462
▁걸린	-11.0462
▁2013	-11.0462
▁보신	-11.0463
줘도	-11.0466
하곤	-11.0467
할정도	-11.0467
겠냐	-11.0468
▁몸을	-11.047
핵	-11.0472
끊	-11.0472
귀여워	-11.0472
웬	-11.0473
꽤	-11.0473
어설픈	-11.0474
괜히	-11.0475
무엇	-11.0475
as	-11.0477
▁그지같	-11.0478
시티	-11.048
결론	-11.048
폭탄	-11.0481
회사	-11.0482
▁나참	-11.0483
▁다음으로	-11.0484
극장판	-11.0484
저질	-11.0485
척하는	-11.0486
▁안되서	-11.049
▁한숨만	-11.0491
인척	-11.05
겐	-11.05
무지	-11.0506
▁할말을	-11.0507
페이지	-11.0509
왓	-11.0511
가족이	-11.0512
▁25	-11.0517
▁않았나	-11.0519
남매	-11.0521
재밋게	-11.0523
베리	-11.0523
말고는	-11.0526
츄	-11.0529
▁만나는	-11.053
▁산만	-11.053
▁외치	-11.0533
재밌네요	-11.0536
▁빨아	-11.0538
▁스토리지만	-11.0538
내서	-11.0539
▁넘기	-11.0544
▁안보는	-11.0548
▁이유로	-11.0551
뜬금	-11.0557
초반에	-11.056
▁보러가	-11.0561
▁잡고	-11.0563
▁다음편	-11.0565
썸	-11.0572
핏	-11.0572
닦	-11.0572
펀	-11.0572
흰	-11.0572
▁간간히	-11.0572
▁신세경	-11.0572
▁조용히	-11.0572
▁ᄇᄉ	-11.0572
▁정당화	-11.0572
▁오인혜	-11.0572
▁함부로	-11.0572
▁엽문	-11.0572
▁솔까	-11.0572
▁록키	-11.0572
▁최하	-11.0572
▁모티브	-11.0574
▁이해안가	-11.0574
▁말아먹은	-11.0574
▁공포도	-11.0575
://	-11.0575
▁ᄅᄋ	-11.0577
▁몰입되	-11.0578
▁멋있었	-11.0578
▁나오는거	-11.0578
ie	-11.0578
▁활용	-11.0579
▁복수를	-11.058
▁불법	-11.0586
▁유령	-11.0586
잘만들	-11.0587
만족	-11.0588
시리즈중	-11.0588
▁심각한	-11.0591
▁만들어준	-11.0591
▁카피	-11.0592
▁알게되	-11.0595
▁몰랐는데	-11.0596
▁엉성하다	-11.0597
▁울었던	-11.0598
할텐데	-11.0598
▁초반부터	-11.0603
▁차이가	-11.0603
▁애국	-11.0604
▁그지없	-11.0604
찍는	-11.061
▁견	-11.0612
▁개독	-11.0615
▁무서워서	-11.0615
▁지루함의	-11.0617
▁봤었다	-11.0617
하는짓	-11.062
것같습니다	-11.0624
▁아쉬웠지만	-11.0627
▁표현했다	-11.0628
지경	-11.063
▁웃기네	-11.0632
본듯	-11.0634
▁목숨	-11.0635
▁만듬	-11.0636
▁들어도	-11.064
▁최민식	-11.064
▁것인지	-11.0641
하지않는	-11.0641
▁아이고	-11.0641
▁있나요	-11.0643
▁민망하	-11.0644
▁속은	-11.0645
▁아니네요	-11.0646
황당	-11.065
▁제목과	-11.0653
▁부른	-11.0654
▁메세지도	-11.0654
▁물건	-11.0655
▁밀어	-11.0656
것일까	-11.0657
▁나온거	-11.0657
▁많지	-11.066
▁명작이네요	-11.066
▁불과	-11.066
싶을때	-11.0661
이영화를	-11.0661
러브	-11.0662
▁배경도	-11.0664
아놔	-11.067
▁사랑으로	-11.0671
▁재밌게봤	-11.0675
▁자본	-11.0676
네유	-11.0678
▁더럽다	-11.0679
빠지고	-11.068
사기	-11.0681
▁가려	-11.0682
▁열자	-11.0683
액	-11.0683
덕후	-11.0683
▁특이한	-11.0684
줄알았	-11.0684
낙	-11.0685
빅	-11.0685
뽑	-11.0685
예고편	-11.069
...;;;	-11.0695
교훈	-11.0696
▁시나리오도	-11.0696
▁가을	-11.0699
▁광팬	-11.0699
드릴	-11.0699
재미잇	-11.07
흉	-11.07
▁주인	-11.0702
존재	-11.0703
▁이영화보고	-11.0706
▁첨이네	-11.0707
▁폰	-11.0709
▁길다	-11.0711
▁과정을	-11.0711
▁웃음과	-11.0714
▁낫지	-11.0716
좋아하는데	-11.0717
▁in	-11.0718
영화자체는	-11.072
월드	-11.0723
졌습니다	-11.0725
▁평소	-11.0729
▁맘이	-11.0732
▁조금씩	-11.0733
▁제시	-11.0735
▁어린이들	-11.0737
좋은데	-11.0738
▁남았다	-11.0742
▁들여	-11.0744
▁라스트	-11.0746
선생	-11.0756
▁공포영화가	-11.0763
회가	-11.0763
▁성룡이	-11.0765
▁오글거려	-11.0765
▁감흥이	-11.0767
부르	-11.0769
변화	-11.0772
넬	-11.0775
주의자	-11.0775
롯	-11.0776
▁고딩	-11.078
쉴	-11.078
▁설정과	-11.078
퀄	-11.078
긍	-11.078
넷	-11.078
▁곱씹	-11.078
룸	-11.078
▁김민종	-11.078
▁한쿡영화	-11.078
▁침묵	-11.0781
▁끊임없	-11.0781
▁best	-11.0781
▁사로잡	-11.0781
▁미치도록	-11.0781
▁7.5	-11.0782
▁뛰쳐	-11.0783
▁초능력	-11.0783
▁절제된	-11.0783
▁안성기	-11.0784
▁기대됩니다	-11.0786
▁응원합니다	-11.0786
▁역쉬	-11.0787
▁와닿는	-11.0788
▁출현	-11.0788
▁저게	-11.0788
키우	-11.079
왜이럼	-11.0791
▁노튼	-11.0791
꼬라지	-11.0792
▁물씬	-11.0792
▁화려	-11.0793
▁싫은	-11.0793
▁볼만해요	-11.0795
▁넘어선	-11.0796
▁특수	-11.0797
▁써야	-11.0798
▁사람마다	-11.0799
▁남자를	-11.08
▁아쉬	-11.08
▁99	-11.0803
▁종영	-11.0803
▁기분좋은	-11.0803
▁심심한	-11.0803
이건뭐	-11.0804
▁개잼	-11.0804
▁저기	-11.0805
▁겉멋만	-11.0805
지못한	-11.0807
▁하던가	-11.0813
얘	-11.0815
▁좋아해요	-11.0815
▁스타일이	-11.0818
졸라	-11.0818
▁죽었다	-11.0821
▁애가	-11.0821
▁전락	-11.0821
▁심히	-11.0822
깐	-11.0823
▁상영시간	-11.0824
많다	-11.0824
▁착하	-11.0825
봣던	-11.0829
▁남발	-11.0829
▁최고였습니다	-11.083
▁배가	-11.0831
▁부끄러운	-11.0837
스크	-11.0837
▁생각한	-11.0839
▁교훈이	-11.084
▁나빠	-11.0842
▁만들려고	-11.0844
▁보고싶어요	-11.0847
▁명성을	-11.0848
영환줄	-11.0849
▁아까워요	-11.085
▁그런건	-11.0851
▁시선으로	-11.0851
▁비현실적인	-11.0853
▁재미있었던	-11.0853
▁보여줬	-11.0854
▁보시는	-11.086
▁소지섭	-11.0863
▁막장으로	-11.0866
▁강제	-11.0867
▁본적이	-11.0868
▁그래픽이	-11.0872
정권	-11.0873
▁첨에	-11.0876
▁할배	-11.0877
빼놓	-11.0881
▁따분	-11.0882
▁복잡하	-11.0882
▁밑도	-11.0884
▁섹	-11.0884
▁떠들	-11.0885
하듯	-11.0891
▁낚이지	-11.0892
▁보소	-11.0893
코메디	-11.0902
넌	-11.0903
아줌마	-11.0903
줬는데	-11.0905
써서	-11.0907
왜이래	-11.0907
▁중반부	-11.0907
500	-11.0908
▁만들었네	-11.091
섹스	-11.0911
▁so	-11.0912
쳐먹	-11.0914
장르를	-11.0914
▁의식	-11.0916
▁잘보고	-11.0916
죽는줄	-11.0916
일세	-11.0917
▁보일	-11.0917
▁지루하기만	-11.0919
▁안된	-11.0921
▁정화	-11.0922
▁더럽고	-11.0923
▁전편의	-11.0924
▁보고있는	-11.0924
▁it	-11.0926
▁칸	-11.0926
▁아름다웠	-11.0926
낸다	-11.0928
▁있으니	-11.0929
보냐	-11.0929
▁아니라서	-11.0932
▁값	-11.0934
생각보다	-11.0935
오로라	-11.0936
▁예고편이	-11.0937
남녀	-11.0937
▁재밌었고	-11.0938
▁매력은	-11.0938
▁심정	-11.0942
볼까	-11.0946
▁이해되	-11.0947
▁초딩이	-11.0947
이쁘고	-11.095
▁위험한	-11.0951
질수	-11.0953
써요	-11.0953
▁낚이	-11.0954
액션은	-11.0959
▁영화내내	-11.0967
웃겼	-11.0967
▁잘봤	-11.0971
▁기억될	-11.0973
▁잼씀	-11.0978
아마	-11.0978
때메	-11.0979
뒤로	-11.0982
▁만화가	-11.0985
친구들	-11.0985
▁모르나	-11.0989
▁정치적	-11.099
앵	-11.0991
▁담담	-11.0993
킥	-11.0993
↓	-11.0993
▁매끄럽지	-11.0993
▁양동근	-11.0993
▁에일리언	-11.0993
▁허무맹랑	-11.0993
긔	-11.0993
쌩	-11.0993
▁더더욱	-11.0993
▁멘붕	-11.0993
떄문에	-11.0993
▁임청하	-11.0993
▁잘생긴	-11.0993
▁혹평	-11.0993
▁아까웠던	-11.0994
▁증말	-11.0994
▁사기꾼	-11.0994
▁뉴욕	-11.0995
▁간첩	-11.0995
▁짐승	-11.0996
▁눈요기	-11.0996
ᄂᄂ	-11.0996
▁돈낭비	-11.0997
▁멋잇	-11.0998
▁기념	-11.0999
▁움직이	-11.0999
▁접근	-11.1
▁그럼에도	-11.1
▁들어오	-11.1001
스레	-11.1002
▁나쁘진	-11.1002
기간	-11.1003
볼걸	-11.1003
▁먹어	-11.1004
▁마누라	-11.1005
▁당하는	-11.1005
▁존잼	-11.1005
▁씨발	-11.1005
끝에	-11.1006
▁중반부터	-11.1007
▁대표적인	-11.1007
▁괜찮네	-11.1008
▁중간부터	-11.1009
김선아	-11.101
▁분명히	-11.101
▁우왕	-11.1013
▁볼만했음	-11.1016
▁어케	-11.1018
▁받아들이	-11.1019
▁경제	-11.1019
▁돈만	-11.1027
▁리메이크작	-11.1027
▁터져	-11.1028
▁지루하네	-11.1028
▁재밌는영화	-11.1032
▁정통	-11.1033
▁망쳐	-11.1036
▁파라노말	-11.1037
보신분	-11.1037
짓거리	-11.1039
겁니까	-11.1039
▁부럽다	-11.104
장님	-11.1041
바다	-11.1046
▁죽기	-11.1046
▁느끼지	-11.1046
ter	-11.1046
연기자	-11.1049
▁의외의	-11.1049
▁분위기에	-11.105
ᄏᄏᄏᄏᄏᄏᄏᄏ	-11.1053
박사	-11.1054
▁안타깝고	-11.1054
▁장르의	-11.1055
▁예쁘게	-11.1055
같지만	-11.1057
작렬	-11.1057
▁쏙	-11.1057
▁신기한	-11.1059
▁김태희	-11.1059
나오길	-11.106
▁처음이네요	-11.1062
순위	-11.1063
▁다시보게	-11.1064
▁담아내	-11.1065
▁뭉	-11.1065
없게	-11.1074
이란걸	-11.1078
▁오글거리	-11.108
▁머리에	-11.1083
들어가	-11.1084
▁허무하게	-11.1085
▁많지만	-11.1086
▁화려하고	-11.1089
조심	-11.1089
▁사이에서	-11.1089
▁명성	-11.1094
▁얘들	-11.1097
나왔다	-11.1098
▁무서울	-11.1099
▁외국영화	-11.1099
▁다운로드	-11.1099
▁아끼	-11.1103
부턴	-11.1106
▁아쉽긴	-11.1106
재미있고	-11.111
▁꿈꾸	-11.1112
▁모여	-11.1112
de	-11.1117
▁꼽을	-11.1117
하고픈	-11.1118
어리	-11.1121
▁돈과	-11.1121
라며	-11.1121
▁꿈에	-11.1122
묻	-11.1123
▁갔는데	-11.1125
홍콩	-11.1126
▁뻔뻔	-11.1131
왜이리	-11.1131
만들고	-11.1131
▁그들은	-11.1132
쁜	-11.1134
▁만들기도	-11.1136
▁남는건	-11.1137
▁엉성함	-11.1138
어릴때	-11.114
올린	-11.114
예상	-11.1143
▁인간들이	-11.1144
▁지적	-11.1146
테러	-11.1147
▁공감대	-11.1149
만든영화	-11.1151
▁뚫	-11.1153
▁안들어	-11.1154
씬에서	-11.1155
▁짱나	-11.1156
▁명작이라	-11.1158
▁맞지않	-11.1159
▁빛이	-11.1159
▁꿈이	-11.1161
조각	-11.1169
인상	-11.1171
나봐요	-11.1172
기때문에	-11.1175
분만	-11.1176
깝	-11.1177
없어요	-11.118
▁스케일이	-11.1181
▁강시	-11.1181
홍보	-11.1181
오글	-11.1182
▁뭐든	-11.1184
ou	-11.1186
▁me	-11.1188
▁졸려	-11.1189
젼	-11.1192
픔	-11.1194
등장	-11.1195
해야한다	-11.1197
▁올드	-11.1199
애기	-11.1203
▁장면과	-11.1203
▁느리	-11.1204
▁후한	-11.1205
▁표정연기	-11.1206
퉤	-11.121
넼	-11.121
쭈	-11.121
mbc	-11.121
▁KBS	-11.121
▁끝판왕	-11.121
▁웹툰	-11.121
둬	-11.121
▁맙시다	-11.121
▁송혜교	-11.121
뱉	-11.121
▁양조위	-11.121
#	-11.121
▁정신나간	-11.121
▁인종차별	-11.121
씨리즈	-11.1211
▁슈렉	-11.1211
바이러스	-11.1211
귀요미	-11.1212
▁저거	-11.1212
▁유지태	-11.1214
▁영상미는	-11.1215
▁잔잔하지만	-11.1215
▁바꾼	-11.1215
창있네	-11.1216
▁억지설정	-11.1217
▁여튼	-11.1221
▁머가	-11.1222
▁다시보고싶은	-11.1223
계를	-11.1224
▁이나영	-11.1225
돌리	-11.1225
▁몇번이나	-11.1225
올림	-11.1226
있을때	-11.1226
▁원표	-11.1227
▁보셈	-11.1227
▁일본영화는	-11.1227
▁있겠지	-11.1228
▁쩌네	-11.1231
▁일탈	-11.1233
▁못생겼	-11.1233
▁존재한다	-11.1234
▁장애	-11.1241
▁말이필요없는	-11.1242
같았음	-11.1243
▁공감가는	-11.1245
겠는가	-11.1245
▁수치	-11.1246
▁별로였음	-11.1248
알바들	-11.1249
▁알겠지만	-11.125
▁성우가	-11.1252
진실	-11.1253
▁놔	-11.1255
▁다섯	-11.1256
▁남기고	-11.1257
▁마크	-11.1259
▁느리고	-11.126
▁말았	-11.1261
소년	-11.1262
기준	-11.1263
▁이준	-11.1263
▁총질	-11.1265
▁두분	-11.1266
▁답답해서	-11.127
▁잇는	-11.127
▁셀	-11.1272
같으니	-11.1273
▁인간적인	-11.1274
▁드러내	-11.1275
▁시작한	-11.1278
▁킬링타임으로	-11.1278
이쁘	-11.1281
▁차마	-11.1282
▁꼽는	-11.1285
▁홀	-11.1287
13	-11.1289
남겨	-11.129
▁마케팅	-11.129
하지마세요	-11.1292
▁미소를	-11.1295
라이즈	-11.1295
▁봐줄	-11.1295
▁무한	-11.1295
▁아닌가요	-11.1297
▁런닝맨	-11.1297
▁향해	-11.1299
▁생각해서	-11.13
▁아침에	-11.13
훌륭	-11.1301
이유는	-11.1301
▁운동	-11.1301
▁미리	-11.1302
▁장근석	-11.1304
별반개도	-11.1308
▁집어	-11.1308
▁중반까지	-11.1316
▁왓	-11.1318
▁한번쯤은	-11.132
녀석들	-11.1323
▁끝날때	-11.1326
▁성유리	-11.1332
▁압도	-11.1332
그게	-11.1333
▁틈이	-11.1334
▁미이라	-11.1339
▁짜증났	-11.134
▁실망스럽	-11.1348
▁내용으로	-11.1349
퇴	-11.1351
젖	-11.1351
쿨	-11.1351
▁자유를	-11.1354
당하는	-11.1354
하우스	-11.1355
시간낭비	-11.1356
봤더니	-11.136
철학	-11.1363
▁불편함	-11.1363
▁너무재밌어요	-11.1364
무협	-11.1364
▁허접함	-11.1365
▁태도	-11.1366
버려서	-11.1367
영환데	-11.1369
됐는데	-11.137
부분에서	-11.1374
파일	-11.1374
▁뗄수	-11.1375
마냥	-11.1376
▁소재에	-11.1376
▁아쉽고	-11.1376
▁마시	-11.1378
어디서	-11.1378
보느니	-11.1381
시대를	-11.1385
▁짱짱맨	-11.1386
▁동정	-11.1387
▁뭔가요	-11.1388
27	-11.139
▁부럽	-11.139
▁돈아깝	-11.139
▁초딩들	-11.1391
해줘	-11.1395
▁무어	-11.1397
비교	-11.1398
▁헛웃음	-11.1399
색이	-11.1399
▁무서웠다	-11.14
해가는	-11.1407
▁뿌리	-11.141
▁있는듯	-11.1411
대작	-11.1411
스턴	-11.1415
▁킬링타임용도	-11.1415
배우들도	-11.1416
▁우리나라에	-11.1417
그것도	-11.1417
재밌는데	-11.1417
프리	-11.1417
부분도	-11.1418
▁길고	-11.1422
▁되돌아	-11.1423
안타까	-11.1428
▁되는거	-11.1429
얄	-11.1432
▁ocn	-11.1433
▁보냅니다	-11.1433
▁용두사미	-11.1433
▁인터뷰	-11.1433
▁톰크루즈	-11.1433
꺄	-11.1433
왈	-11.1433
’	-11.1433
▁MBC	-11.1433
▁오타쿠	-11.1433
▁졸업작품	-11.1433
▁아이러니	-11.1433
▁이순신	-11.1433
▁구역질	-11.1433
▁나타내	-11.1433
▁어려웠	-11.1433
▁단체로	-11.1434
▁징그러	-11.1434
▁생략	-11.1434
▁별한개도	-11.1435
▁가해자	-11.1435
망작	-11.1435
▁적나라하	-11.1436
▁대표작	-11.1436
▁미흡	-11.1437
▁빠져드는	-11.1437
겠군	-11.1438
▁나쁜놈	-11.1439
▁계획	-11.144
▁잠자	-11.144
▁태양	-11.1441
▁가르쳐	-11.1442
▁지났지만	-11.1442
▁꼭봐야	-11.1442
▁신나게	-11.1443
▁케이지	-11.1443
▁성숙	-11.1444
▁내겐	-11.1445
▁언급	-11.1445
▁우습	-11.1446
같습니다	-11.1446
▁그런영화	-11.1446
▁모든것을	-11.1447
따윈	-11.1448
▁총알	-11.1448
▁어이없어서	-11.1449
한건가	-11.1449
▁해도해도	-11.145
▁어쩌라고	-11.1451
▁긴박감	-11.1451
▁이정도로	-11.1452
▁이연희	-11.1454
달러	-11.1455
▁해야하나	-11.1455
▁웃길	-11.1456
침몰	-11.1456
네용	-11.1456
▁때문이다	-11.1457
클럽	-11.1458
▁괜찮던데	-11.1459
▁슬퍼서	-11.1459
별로다	-11.1459
99	-11.1459
▁중학교때	-11.1461
이유가	-11.1461
▁남자라면	-11.1462
돼지	-11.1463
▁추천해	-11.1463
▁성경	-11.1465
들어서	-11.1465
▁안했는데	-11.1465
▁발레	-11.1466
▁실소	-11.1468
▁썩어	-11.1468
▁모습과	-11.1469
ha	-11.1471
▁상식	-11.1473
였다니	-11.1473
기만하고	-11.1478
▁화려함	-11.1482
▁참신하고	-11.1482
인권	-11.1484
▁인물이	-11.1485
▁되었는데	-11.1487
부부	-11.1489
▁있어보이	-11.149
▁똥을	-11.1496
만들엇	-11.1499
▁아프리카	-11.15
▁요소들	-11.1501
▁하시는	-11.1501
oo	-11.1502
▁재밌게본	-11.1504
라는건지	-11.1505
▁당신들	-11.1505
▁영화계의	-11.1506
▁포켓몬	-11.1507
▁극한	-11.151
▁누워	-11.151
▁방법이	-11.1515
미래	-11.1517
군데	-11.1517
싶은데	-11.1519
▁후회함	-11.1519
▁시원한	-11.1522
▁지나서	-11.1522
▁오글거려서	-11.1523
▁계기가	-11.1524
▁지리	-11.1529
잤	-11.1529
포스	-11.1532
▁행복을	-11.1534
범인	-11.1536
▁반전영화	-11.1538
▁스피드	-11.1543
인거같다	-11.1544
▁게임을	-11.1544
▁난국	-11.1547
재밌게봤습니다	-11.1547
씨를	-11.1548
▁충실한	-11.1548
▁뗄	-11.1551
▁맞게	-11.1552
하기까지	-11.1553
▁어정쩡	-11.1562
▁초기	-11.1562
-_	-11.1562
▁코드가	-11.1562
놔	-11.1563
▁죽인다	-11.1565
▁만나고	-11.1567
♡♡	-11.157
▁꼽	-11.157
▁욕하는	-11.1575
▁예술성	-11.1577
해놓은	-11.1577
▁짜증나네	-11.1578
▁극장판은	-11.1582
시켜주	-11.1583
뭉	-11.1583
▁강력추천	-11.1583
곰	-11.1584
낳	-11.1585
잇고	-11.1585
더럽게	-11.1586
▁아닌거	-11.1587
흐름	-11.1588
슬픈	-11.1589
▁던지는	-11.159
▁주제도	-11.1591
던데요	-11.1593
▁감동적으로	-11.1594
▁똑같다	-11.1595
▁잼있어	-11.1597
중간중간	-11.1598
▁총을	-11.1598
▁달달한	-11.1598
혀서	-11.1603
▁보이지만	-11.1606
보영	-11.1606
ck	-11.1607
대단히	-11.161
▁구멍	-11.1611
▁되기	-11.1615
었을텐데	-11.1615
▁봣다	-11.1618
▁일본판	-11.1619
줘라	-11.1623
▁상관	-11.1625
im	-11.1631
▁일어나는	-11.1636
티비로	-11.1641
리얼	-11.1643
▁극단적	-11.1644
켓	-11.1647
▁나온다고	-11.1649
음악도	-11.1651
말곤	-11.1653
▁돋보였	-11.1655
▁최대의	-11.1656
쎄	-11.1657
램	-11.1658
렴	-11.1658
좆	-11.1659
률	-11.1659
퉁	-11.1659
▁쌩뚱맞	-11.166
▁엉덩이	-11.166
▁찝찝한	-11.166
렐	-11.166
흙	-11.166
▁베트남	-11.166
▁주상욱	-11.166
댕	-11.166
▁김강우	-11.166
▁뜨거운	-11.166
▁엉엉	-11.166
▁큐브	-11.166
▁핸드폰	-11.166
▁신민아	-11.166
▁일베충	-11.166
▁그들만의	-11.1661
^.^	-11.1661
▁특징	-11.1661
▁담아낸	-11.1661
▁황홀	-11.1661
▁은퇴	-11.1661
▁고찰	-11.1662
▁기분좋게	-11.1662
▁대비	-11.1662
▁잃어	-11.1662
페이크	-11.1662
▁놀랬	-11.1663
▁가끔씩	-11.1663
▁신파극	-11.1665
▁봐야겠다	-11.1665
▁2004	-11.1666
▁구리다	-11.1666
로인해	-11.1666
▁추락	-11.1667
▁에릭	-11.1667
▁몇번이고	-11.1669
▁자극하는	-11.1673
점대라니	-11.1673
▁만들어졌다	-11.1677
▁환자	-11.1677
▁모르겠는데	-11.1678
버젼	-11.1679
▁집단	-11.1679
▁울게	-11.1681
▁묻혀	-11.1682
못할	-11.1682
▁어째서	-11.1683
▁깔끔하고	-11.1685
▁도통	-11.1687
▁웃어	-11.1688
지않을	-11.1689
채널에서	-11.1689
▁말해주는	-11.1689
▁마녀	-11.169
아역	-11.1691
▁마초	-11.1692
▁거대한	-11.1693
보여주는	-11.1701
▁2010	-11.1702
▁최고였어요	-11.1705
▁재밌당	-11.1705
▁웃게	-11.1705
▁어설프	-11.1708
▁존내	-11.1712
▁24	-11.1712
▁어린이용	-11.1713
적임	-11.1713
▁순위	-11.1714
▁망쳤다	-11.1715
▁별루다	-11.1716
그치만	-11.1716
▁죽을뻔	-11.1718
않는다	-11.1721
▁부디	-11.1721
우울	-11.1724
져야	-11.1726
이었지만	-11.1727
▁순정	-11.1728
▁오락성	-11.1729
▁스릴러를	-11.173
▁위대함	-11.1734
▁존중	-11.1736
▁재밌지도	-11.1736
엿음	-11.1737
해준다	-11.1737
▁소수	-11.1738
봣음	-11.174
끼고	-11.1743
▁The	-11.1743
▁진화	-11.1757
▁신부	-11.1757
▁출연했	-11.1762
▁구원	-11.1764
선물	-11.1772
해줌	-11.1773
다니고	-11.1774
▁둔	-11.1775
▁검은	-11.1778
▁연기까지	-11.1778
없지만	-11.1779
위에서	-11.1781
운동	-11.1781
겼다	-11.1781
▁악평	-11.1787
▁파이팅	-11.1787
▁남자와	-11.1787
▁땀	-11.1788
엇어요	-11.1788
성공	-11.1791
▁나한테	-11.1792
어버린	-11.1793
▁훌륭하고	-11.1795
나보네	-11.1795
▁상영관이	-11.1799
줍니다	-11.1801
▁기어	-11.1804
▁분위기와	-11.1804
▁재밌게봤다	-11.1811
▁예뻐	-11.1813
▁후기	-11.1813
▁쓰렉	-11.1814
▁쓰레기임	-11.1815
▁다니는	-11.1816
▁찌질한	-11.1821
깍	-11.1821
안타깝	-11.1821
썩	-11.1823
매니아	-11.1823
▁좋아하게	-11.1823
▁못보고	-11.1824
▁있겠다	-11.1824
훨씬	-11.1825
흥행	-11.1826
감사합니다	-11.1826
▁상상을	-11.1829
릴수	-11.183
예전	-11.1832
▁현실성이	-11.1837
▁신선하다	-11.1839
▁선수	-11.184
항상	-11.1842
▁마주	-11.1843
됬는데	-11.1844
카드	-11.1845
▁배경과	-11.1847
▁충격을	-11.1848
▁암울	-11.185
▁없었고	-11.185
단순	-11.185
▁주고싶은	-11.185
봣습니다	-11.1852
관련	-11.1852
▁분위기도	-11.1853
좋았음	-11.1862
너무좋아요	-11.1863
▁몇개	-11.1864
덧	-11.1866
▁받아서	-11.1866
▁달아	-11.1869
▁몸에	-11.187
설마	-11.1872
▁찾고	-11.1876
자들은	-11.1878
되면서	-11.1879
▁잘하네	-11.188
하라고	-11.1882
▁성우들	-11.1883
▁생각했다	-11.1884
▁숀	-11.1884
만들지	-11.1884
춰	-11.1884
▁움직이는	-11.1886
▁영화자체가	-11.1886
둑	-11.1888
▁긴박	-11.1888
▁엽기	-11.1889
좋앗	-11.189
▁갱	-11.189
테니	-11.189
▁주제에	-11.189
쏠	-11.1892
쌀	-11.1892
▁내러티브	-11.1892
▁슬래셔	-11.1892
▁펭귄	-11.1892
▁환타지	-11.1892
▁홍진호	-11.1892
▁뭔내용인지	-11.1892
▁섭외	-11.1892
▁콤비	-11.1893
▁일요일	-11.1893
▁몬스터	-11.1893
안남기는데	-11.1893
▁이범수	-11.1893
▁퍼즐	-11.1893
음악이	-11.1893
ᅩᅩ	-11.1893
▁임수정	-11.1894
▁새롭게	-11.1894
잘생김	-11.1894
변호사	-11.1894
▁용가리	-11.1894
▁크리스찬	-11.1895
▁촌스러운	-11.1896
▁악몽	-11.1896
▁비롯	-11.1896
▁넋	-11.1897
▁집어넣	-11.1897
▁때우기	-11.1897
▁세상은	-11.1898
▁자세히	-11.1898
▁깨알	-11.1899
▁닮아	-11.19
▁지루했어요	-11.1902
▁속아서	-11.1902
XX	-11.1902
▁지들끼리	-11.1902
▁젊음	-11.1903
▁잘생기고	-11.1907
거리고	-11.1908
▁먹먹하다	-11.1911
▁여왕	-11.1912
▁요약	-11.1913
▁파악	-11.1913
▁붙여	-11.1913
재미있는	-11.1914
123	-11.1917
ᄉᄉ	-11.1918
▁젊은이들	-11.1918
▁나누	-11.1918
▁멋있어요	-11.1919
▁서극	-11.1921
꺼다	-11.1921
▁사실적으로	-11.1923
▁중요하다	-11.1923
▁신나는	-11.1924
▁재미없습니다	-11.1924
▁먼지	-11.1925
▁뻔하지만	-11.1927
밖	-11.193
▁헛웃음만	-11.193
▁고발	-11.1931
당하고	-11.1933
으세요	-11.1936
획을	-11.1936
▁좋았어	-11.1937
▁볼만하네요	-11.1937
릴때	-11.1938
▁동호	-11.1938
▁초등학교때	-11.1939
▁슬프지만	-11.194
▁심사위원	-11.1941
▁만드네요	-11.1946
점드립니다	-11.1951
씨와	-11.1955
▁웃겨요	-11.1956
▁앞서	-11.1956
▁미치	-11.1958
▁먹을	-11.1958
▁먹먹해	-11.196
▁몽환적인	-11.1962
▁엄마랑	-11.1963
▁맷	-11.1963
▁홍금보	-11.1963
▁장편	-11.1964
▁보실	-11.1965
▁우리들의	-11.1966
▁28	-11.1968
▁카메론	-11.1971
▁공중파	-11.1971
▁아닌지	-11.1971
점줄	-11.1973
▁요구	-11.1974
▁많네요	-11.1978
▁약해	-11.1978
질때	-11.1982
▁다가오는	-11.1982
▁초반에는	-11.1984
▁교감	-11.1992
▁이해하고	-11.1994
▁섹시한	-11.1995
기대하고	-11.1995
▁고급	-11.1996
ol	-11.1998
웃기고	-11.1999
▁감정이입이	-11.2008
▁안되네요	-11.2008
바탕	-11.2011
제목이	-11.2011
▁않았고	-11.2012
인간들	-11.2014
▁됐는데	-11.2014
▁요소를	-11.2014
▁산만한	-11.2014
▁소름돋는	-11.2015
▁말해서	-11.2015
▁중후반	-11.2017
▁사회에	-11.2023
▁메인	-11.2028
▁해리	-11.2031
▁맺	-11.2038
▁어이가없	-11.2039
모습을	-11.204
▁제목부터	-11.204
▁작품성이	-11.2044
▁초중반	-11.205
▁넣은	-11.205
▁보고있어요	-11.2052
되었던	-11.2053
▁바라보	-11.2054
▁사라졌	-11.2057
▁리뷰를	-11.2058
▁턱	-11.2061
▁확실한	-11.2064
깜	-11.2065
느와르	-11.2067
뮤지컬	-11.2067
OST	-11.2067
▁합쳐	-11.2068
통쾌	-11.2068
굉장히	-11.2068
ᅳᅮ	-11.2068
▁조조	-11.2069
한마디	-11.2069
최근	-11.2073
기분이	-11.2073
모양	-11.2074
▁제작사	-11.2075
▁끝났다	-11.2078
뷰	-11.2078
실패	-11.2078
야되는데	-11.2078
빼면	-11.208
ill	-11.208
▁굉장	-11.208
생각해	-11.2081
▁읽은	-11.2081
심리를	-11.2082
▁잃었	-11.2082
로봇	-11.2083
60	-11.2083
종교	-11.2084
번쯤	-11.2084
예능	-11.2085
▁건질	-11.2086
외국	-11.2086
▁찾아볼수	-11.2092
▁보여주지	-11.2094
▁설정에	-11.2096
▁자극적	-11.2096
▁상황에서	-11.2097
마음에	-11.2101
뿐만	-11.2106
▁말이필요	-11.2108
이쁘다	-11.2109
▁알바생	-11.2109
▁블루	-11.2113
ent	-11.2113
▁남긴다	-11.2115
▁기독교인	-11.2117
▁적어	-11.2118
▁촌스럽지	-11.2121
▁조지	-11.2121
진부한	-11.2123
▁시간때우기	-11.2123
뜯	-11.2126
▁죄송	-11.2127
댓	-11.2128
▁개봉하는	-11.213
랬는데	-11.213
썰	-11.213
뎁	-11.2131
엎	-11.2131
▁서스펜스	-11.2131
▁소름끼친다	-11.2131
▁에이리언	-11.2131
▁임권택	-11.2131
▁채플린	-11.2131
댐	-11.2131
콕	-11.2131
툰	-11.2131
뒀	-11.2131
듀	-11.2131
q	-11.2131
▁불필요한	-11.2131
▁무슨내용인지	-11.2131
▁못생긴	-11.2131
▁강지환	-11.2131
▁감수성	-11.2131
▁전문성우	-11.2131
김남길	-11.2131
▁리즈시절	-11.2131
▁고질라	-11.2131
씁니다	-11.2131
▁체험	-11.2132
▁흥미롭고	-11.2132
▁일깨워주는	-11.2132
▁안타까워	-11.2132
▁적절히	-11.2134
배속으로	-11.2134
▁민망한	-11.2134
빈약	-11.2135
▁느껴짐	-11.2135
▁비싼	-11.2136
li	-11.2136
팩트	-11.2136
▁이런영화에	-11.2136
▁신념	-11.2137
▁빡치	-11.2137
▁괜찮을	-11.2138
▁현실이다	-11.2138
느껴졌	-11.2138
▁따뜻하게	-11.2139
▁처음임	-11.2139
▁기분만	-11.2139
번씩	-11.2139
가능한	-11.2141
▁전작에	-11.2142
▁타락	-11.2142
하게되는	-11.2144
꺼면	-11.2144
▁팬이라면	-11.2144
▁단언	-11.2144
▁서사	-11.2145
▁웃겼음	-11.2146
▁실종	-11.2146
▁뻔히	-11.215
▁어렸을적	-11.2151
▁적극	-11.2152
▁델	-11.2153
▁좋아한다면	-11.2154
잼잇	-11.2155
▁예매	-11.2156
▁졸면서	-11.2158
▁느꼈던	-11.2158
▁슬퍼요	-11.2159
▁칭	-11.216
▁만들려	-11.2161
▁인물의	-11.2164
▁외에는	-11.2167
ly	-11.2168
▁허술하고	-11.2168
▁잃지	-11.2169
▁영화라는게	-11.2171
▁사나이	-11.2171
▁나이에	-11.2171
▁No	-11.2172
▁지존	-11.2173
▁재미있지	-11.2174
▁훌륭함	-11.2178
두번	-11.2178
조선	-11.2181
▁안든다	-11.2182
▁놈이	-11.2184
▁아쉽네	-11.2185
▁씁쓸한	-11.2187
보라고	-11.2193
▁뒤집어	-11.2194
ᄍᄍᄍ	-11.2195
▁해피	-11.2196
성향	-11.2196
▁주제는	-11.2197
높다	-11.2197
▁소유	-11.2197
싶을정도	-11.2197
▁사랑스럽	-11.2198
▁미국판	-11.2201
▁난무	-11.2206
▁팔아먹	-11.2208
돼서	-11.2208
하지않은	-11.2209
▁빈약하	-11.221
▁잘봤다	-11.2212
▁몸이	-11.2215
아아아	-11.2215
방울	-11.2217
메시지를	-11.2217
▁의미는	-11.2218
▁비난	-11.2221
단체	-11.2226
여름	-11.2227
▁나간	-11.2228
▁진주	-11.2228
88	-11.2233
▁철학적인	-11.2235
을까요	-11.2242
▁먹먹한	-11.2244
둘이	-11.2251
nd	-11.2252
마니	-11.2255
▁아프고	-11.2259
좋게	-11.226
▁한건지	-11.2261
최악의영화	-11.2263
마디	-11.2264
▁낯	-11.2266
▁말하면	-11.227
▁도움	-11.2271
작가가	-11.2271
▁수백	-11.2274
몰라	-11.2282
버렸음	-11.2283
사상	-11.2293
▁내인생최고의	-11.2296
▁성장영화	-11.23
께서	-11.23
ᄏᄏᄏᄏᄏᄏᄏᄏᄏᄏᄏᄏ	-11.2302
▁출연하는	-11.2303
▁여정	-11.2303
▁기대감	-11.2303
▁플레이	-11.2304
▁떨어진	-11.2307
렇	-11.2307
죽고	-11.2307
아파	-11.2313
J	-11.2316
이었다면	-11.2317
▁지났	-11.2317
캬	-11.2317
!!!!!!!!!!!	-11.2317
케이블	-11.2319
▁만든것	-11.2322
대충	-11.2323
▁조용하	-11.2325
▁코믹한	-11.2326
▁수준급	-11.2328
엉망	-11.2328
▁모야	-11.233
대단하다	-11.2333
났던	-11.2335
▁둘의	-11.2339
▁500	-11.2341
▁식으로	-11.2343
일수도	-11.2344
순수	-11.2347
▁밀라	-11.2348
▁스타일의	-11.2348
부끄럽	-11.235
싸우	-11.2352
▁볼까	-11.2352
빠짐	-11.2355
보는거	-11.2358
아아아아	-11.236
▁생각하지	-11.2365
찍은	-11.2366
▁구성은	-11.2369
Z	-11.2374
▁ebs	-11.2374
▁kbs	-11.2374
▁어마어마	-11.2374
▁오리지널	-11.2374
▁혹성탈출	-11.2374
▁후덜덜	-11.2374
人	-11.2374
샀	-11.2374
·	-11.2374
프로젝트	-11.2374
▁송지효	-11.2374
▁사춘기	-11.2375
박신혜	-11.2375
▁불후의	-11.2375
▁환불	-11.2375
▁누구도	-11.2375
뿐더러	-11.2375
▁암걸리	-11.2375
▁유아인	-11.2376
ho	-11.2376
▁짧게	-11.2376
▁에로틱	-11.2376
▁일어난	-11.2376
▁행동이	-11.2376
하나하나	-11.2377
▁꺼버렸다	-11.2377
▁빼앗	-11.2377
▁흥해라	-11.2377
▁잃고	-11.2378
▁웬만한	-11.2379
▁알았더니	-11.2379
▁나중엔	-11.238
▁가관이	-11.238
▁맞춘	-11.2381
▁즐겁다	-11.2381
▁원작소설	-11.2381
▁다음에	-11.2382
구조	-11.2382
▁언제쯤	-11.2383
낮아서	-11.2384
▁창조	-11.2385
▁좋아할만한	-11.2386
▁손색없	-11.2387
▁다를게	-11.2388
▁스릴있고	-11.2388
▁느낌이랄까	-11.2389
▁만들어주세요	-11.2389
▁금방	-11.2389
▁예뻐요	-11.239
▁무얼	-11.239
▁차원이	-11.2391
▁구려	-11.2391
▁덮	-11.2392
▁장나라	-11.2392
▁지금껏	-11.2395
▁리즈	-11.2395
▁이번엔	-11.2396
▁심심해서	-11.2396
붕괴	-11.2398
▁병원	-11.2399
▁울었네요	-11.24
▁나라를	-11.2401
하라는	-11.2402
▁실망스러운	-11.2402
▁보는듯	-11.2403
▁무슨말이	-11.2403
▁별다른	-11.2404
▁볼만했는데	-11.2404
▁머지	-11.2409
▁재밌게봤음	-11.241
▁지루하지만	-11.2414
▁불편하다	-11.2417
▁이준기	-11.2417
▁비슷하	-11.2418
▁넘겨	-11.2422
▁영감	-11.2422
▁어색하다	-11.2426
▁"[	-11.2427
▁연장	-11.2427
▁미키	-11.243
▁어떻게든	-11.2431
▁사망	-11.2435
곳에서	-11.2436
▁주체	-11.2436
▁관점에서	-11.2437
나와요	-11.244
▁이루어	-11.2441
▁좋아합니다	-11.2442
▁보다보다	-11.2443
햇던	-11.2447
▁달콤한	-11.245
▁더빙은	-11.2451
▁수애	-11.2452
배우님	-11.2455
▁그땐	-11.2457
거예요	-11.2457
다고생각	-11.2459
쩔어	-11.246
▁넘쳐	-11.246
▁으아	-11.2461
▁실망시키지	-11.2469
회를	-11.2469
▁시청자를	-11.2473
▁이건좀	-11.2475
▁외계인이	-11.2475
▁첫장면	-11.2481
녀석	-11.2483
대결	-11.2483
▁진보	-11.2487
따뜻한	-11.2489
▁보는듯한	-11.249
보며	-11.2495
시킨다	-11.2498
▁이름만	-11.2498
▁지식	-11.2498
▁라인	-11.25
--;	-11.2504
▁뻔해	-11.2504
▁읽어보	-11.2509
▁예수님	-11.2513
괴물	-11.2515
▁기다리고	-11.252
▁하드	-11.2524
▁존재감	-11.2528
▁새로	-11.2529
▁끝날때까지	-11.253
▁이걸보고	-11.2537
▁가졌	-11.2538
여자들	-11.254
▁다른거	-11.2541
▁당한	-11.2542
▁영상으로	-11.2543
▁위기	-11.2545
▁원인	-11.255
역으로	-11.2551
▁성룡영화	-11.2556
▁망치는	-11.2559
▁필수	-11.2562
▁검사	-11.2564
점정도가	-11.2564
▁공허	-11.2565
화려한	-11.2576
▁모냐	-11.2578
하구나	-11.2581
▁위에	-11.2582
▁서우	-11.2585
▁김재	-11.2585
▁보는줄	-11.2595
모르는	-11.2598
기다리	-11.2598
▁했어야	-11.2601
▁우려	-11.2604
▁봐왔	-11.2605
왠지	-11.2606
▁인한	-11.2608
▁이영화에서	-11.261
께요	-11.2614
▁실망했다	-11.2616
▁떠오르	-11.262
뀌	-11.2622
▁있다는게	-11.2623
낄	-11.2624
똘	-11.2624
▁두근두근	-11.2624
▁뭡니까	-11.2624
▁인터스텔라	-11.2624
▁황비홍	-11.2624
꽂	-11.2624
뉘	-11.2624
딕	-11.2624
쌈	-11.2624
욜	-11.2624
웰	-11.2624
ᅦ	-11.2624
▁역사왜곡	-11.2624
댈	-11.2624
돕	-11.2624
묵직한	-11.2624
촉	-11.2624
▁박신양	-11.2624
▁클린트	-11.2624
▁불면증	-11.2624
▁나발이고	-11.2625
▁러셀	-11.2625
▁케이트	-11.2625
▁유오성	-11.2625
▁못미치는	-11.2625
▁무너지	-11.2625
▁소리지르	-11.2626
▁과도한	-11.2626
▁자본주의	-11.2626
▁귀찮	-11.2626
▁서부극	-11.2626
▁둘째	-11.2626
▁경쾌	-11.2627
▁닮은	-11.2627
▁결합	-11.2627
▁습작	-11.2628
▁갖추	-11.2628
▁과잉	-11.2629
수있을까	-11.263
▁친절	-11.263
▁치명적	-11.2631
▁철저	-11.2631
동아리	-11.2633
▁악플	-11.2635
▁나았을	-11.2636
▁고백	-11.2637
▁미안하지만	-11.2637
▁나온다는	-11.2638
▁흑흑	-11.264
▁미칠	-11.2643
▁사랑스런	-11.2648
데다가	-11.2649
▁않았으면	-11.265
▁연민	-11.2653
▁작품인데	-11.2653
▁98	-11.2653
▁질리	-11.2654
▁일베	-11.2655
들에겐	-11.2659
▁내스타일	-11.2661
어제	-11.2662
▁괴물이	-11.2663
▁역할이	-11.2663
그렇지	-11.2664
유키	-11.2665
▁무식	-11.2667
▁계시	-11.2667
▁소문	-11.2669
▁작정	-11.2669
▁같기도	-11.267
▁사실적이	-11.267
▁실화라니	-11.2673
감동적	-11.2674
우리가	-11.2676
▁무료로	-11.2678
▁알게해준	-11.2679
▁유치하지만	-11.2682
유치한	-11.2683
아니야	-11.2684
▁즐기는	-11.2684
▁전개되는	-11.2685
▁생각하며	-11.2688
▁그만좀	-11.2691
▁음모	-11.2694
년후	-11.2695
▁보물	-11.2695
▁졸음	-11.2696
멋대로	-11.2696
▁좀비물	-11.2701
스포	-11.2701
보여준	-11.2701
▁좋아지는	-11.2703
▁목숨을	-11.2704
▁대단함	-11.2704
▁키워	-11.2705
▁코스프레	-11.2709
▁예술적	-11.2709
▁티나	-11.2712
ᅲᅲᅲᅲᅲ	-11.2712
▁재미있었고	-11.2712
▁만나서	-11.2715
▁아니죠	-11.2715
▁영화관에	-11.272
▁몫	-11.2725
▁있었다니	-11.2728
▁이때까지	-11.2729
▁못된다	-11.273
▁미군	-11.2731
▁영구	-11.2732
있어야	-11.2732
약한	-11.2735
▁상처받	-11.2737
▁출연자	-11.2739
하겠지	-11.2739
▁졸았다	-11.2739
▁지내	-11.2748
만드네	-11.2752
▁왕자	-11.2753
잡히	-11.2759
▁또보고	-11.2763
▁낳은	-11.2764
좋겟다	-11.2765
▁월드	-11.2768
▁안보이	-11.277
▁마르	-11.277
▁달고	-11.2774
▁부여	-11.2776
▁멋있어	-11.2776
▁두배우	-11.278
▁개발	-11.2781
▁아카데미	-11.2781
▁그랬다	-11.2784
▁욕구	-11.2785
▁있었나	-11.2785
무섭다	-11.2787
러스	-11.2788
예쁘	-11.279
▁집안	-11.2792
투자	-11.2797
▁전국	-11.2797
▁보여줬다	-11.2799
▁나에게는	-11.2804
▁조명	-11.2804
▁안본사람	-11.2804
혹시	-11.2804
▁몽환적	-11.2806
▁조정	-11.2809
▁잡은	-11.281
▁인간들은	-11.281
▁대사들이	-11.2811
▁어처구니가	-11.2812
▁모아	-11.2817
▁슬픔이	-11.2818
▁뭔데	-11.2819
됐지만	-11.2821
▁먹칠	-11.2822
왕국	-11.2824
부모	-11.2824
▁사형	-11.2825
▁화끈	-11.2825
쓰면	-11.2826
아름답	-11.2832
폼	-11.2834
점드림	-11.2834
▁뱀	-11.2835
퀄리티	-11.2837
▁평점좀	-11.2839
청춘	-11.2839
보이고	-11.284
밑	-11.284
▁깍아	-11.284
보았습니다	-11.2844
개념	-11.2844
▁처절	-11.2847
▁마사	-11.2847
▁시간대	-11.2848
킴	-11.285
하더군요	-11.2851
을위해	-11.2857
▁당하고	-11.2857
무엇보다	-11.2857
▁남자들의	-11.2858
▁영활	-11.2858
▁장르는	-11.286
▁아쉬울	-11.286
▁서로를	-11.2861
방법	-11.2861
조절	-11.2862
재밌었다	-11.2863
행동	-11.2865
▁생각해도	-11.2865
▁안봤다	-11.2866
▁비중이	-11.2867
▁현대인	-11.2874
잣	-11.2875
을수도	-11.2878
기보단	-11.2878
▁아들과	-11.2879
펴	-11.2881
훗	-11.2881
벙	-11.2881
짖	-11.2881
팡	-11.2881
▁리암니슨	-11.2881
▁서프라이즈	-11.2881
▁유치뽕짝	-11.2881
▁인상깊은	-11.2881
▁쫄깃	-11.2881
▁찝찝함	-11.2881
▁가볍고	-11.2881
▁무책임	-11.2881
▁충무로	-11.2881
▁지하철	-11.2881
▁옹박	-11.2881
▁박해일	-11.2881
▁옹호	-11.2881
▁잘만들어진	-11.2882
▁0.5	-11.2882
▁프레디	-11.2883
1,2,3	-11.2883
▁실컷	-11.2883
▁루즈하	-11.2883
▁2008	-11.2884
▁묻어나는	-11.2884
해야되	-11.2884
▁활약	-11.2884
▁가득찬	-11.2885
▁비추천	-11.2885
▁외로운	-11.2885
▁얼른	-11.2886
▁냉정	-11.2888
▁장치	-11.2889
▁감동적이었습니다	-11.289
▁추잡	-11.289
▁담담하게	-11.2891
▁다문화	-11.2892
▁단편영화	-11.2892
▁괴작	-11.2892
▁승화	-11.2894
▁공존	-11.2894
▁처참	-11.2896
▁그것은	-11.2896
걸까요	-11.2896
갖고	-11.2899
▁이게뭐야	-11.2901
해버린	-11.2901
▁많았던	-11.2902
▁전세계	-11.2903
끼들	-11.2907
헤헤	-11.2907
▁내보내	-11.2907
▁볼거리도	-11.2908
흐흐	-11.2909
됐음	-11.291
하는사람	-11.2913
볼수있는	-11.2913
▁신기하다	-11.2915
버트	-11.2916
▁미쳤다	-11.2917
▁‘	-11.2918
▁장인	-11.292
▁구매	-11.2923
▁예상치	-11.2925
공간	-11.2926
▁안가고	-11.2928
cgv	-11.2928
▁않는데	-11.2929
거아닌가	-11.2929
▁고려	-11.2929
▁호소	-11.293
기억에남는	-11.2932
▁말아라	-11.2932
듣는	-11.2932
햇음	-11.2934
▁공감되는	-11.2935
▁가슴으로	-11.2936
▁무식한	-11.2939
▁낮음	-11.294
▁뻔해서	-11.2942
▁크리스토퍼	-11.2942
▁그녀가	-11.2943
▁기차	-11.2943
~!"	-11.2947
아깝네	-11.2948
앞으로도	-11.295
해졌다	-11.2954
▁호러물	-11.2954
▁지대로	-11.2955
▁사랑이란	-11.2958
▁잠든	-11.2958
▁가자	-11.2958
▁재미없었	-11.2959
!!!!!!!!!!!!!!	-11.2961
▁몇명	-11.2962
▁이념	-11.2966
▁멋있었다	-11.2966
▁1000	-11.2967
라이더	-11.2968
▁있었을까	-11.2969
▁이런드라마	-11.297
▁소녀의	-11.297
▁이연걸의	-11.2971
▁고로	-11.2971
▁골라	-11.2971
없엇	-11.2973
해지네요	-11.2974
▁감당	-11.2977
▁일상을	-11.2979
후반부	-11.298
▁알아서	-11.2981
▁망상	-11.2983
▁높은거	-11.2983
부분만	-11.2983
▁에스	-11.2983
회장	-11.2984
▁냄새가	-11.299
▁억지스럽다	-11.2991
▁잊을수가	-11.2992
못한다	-11.2992
▁안되요	-11.2994
▁ᄏᄏᄏᄏᄏᄏᄏᄏᄏᄏᄏᄏᄏᄏ	-11.2994
▁영상물	-11.2996
해줬으면	-11.2996
박스	-11.2997
▁거부감	-11.2998
▁울음	-11.3
▁뼈	-11.3
지금은	-11.3001
▁마마	-11.3002
보드	-11.3002
보다보면	-11.3006
▁기회가	-11.3008
아닌듯	-11.3015
▁끝나지	-11.3017
▁마인드	-11.3017
죽이는	-11.3024
▁관객수	-11.3024
▁주제로	-11.3027
▁곳에서	-11.3028
▁없었다면	-11.3033
▁현장	-11.3036
▁보자고	-11.3038
싶고	-11.3039
▁닥터	-11.3042
▁있겠	-11.3043
같았다	-11.3045
개월	-11.3046
되기	-11.3052
▁만드나	-11.3053
재밋게봣	-11.3059
▁ᄏᄏᄏᄏᄏᄏᄏᄏᄏᄏᄏᄏ	-11.306
▁남주가	-11.306
▁마구	-11.3062
광수	-11.3064
▁궁금한	-11.307
같았는데	-11.3073
▁결론이	-11.3074
획	-11.3076
▁쯧쯧	-11.3089
▁기계	-11.3092
▁연기파	-11.3093
▁ᄏᄏᄏᄏᄏᄏᄏᄏᄏᄏᄏᄏᄏᄏᄏ	-11.3101
▁몰입을	-11.3105
쭉	-11.3106
녹	-11.3106
놨다	-11.3107
▁이건진짜	-11.3107
오히려	-11.3107
▁기억하는	-11.3109
▁닭	-11.311
결제	-11.3113
칠때	-11.3117
주는것도	-11.3118
라이트	-11.3121
▁전작들	-11.3123
▁행위	-11.3125
했으니	-11.3125
중요한	-11.3127
▁먹었	-11.3129
제작진	-11.313
말던가	-11.313
할때마다	-11.313
▁아니란	-11.3131
겟지	-11.3132
▁해적	-11.3136
륜	-11.3139
펑	-11.3144
▁로보캅	-11.3144
▁매트릭스	-11.3144
▁어벤져스	-11.3144
▁어설픔	-11.3144
▁휴머니즘	-11.3144
뇨	-11.3144
뺀	-11.3144
쑤	-11.3144
쫙	-11.3144
펄	-11.3144
▁뒷통수	-11.3144
▁몸부림	-11.3144
쌤	-11.3144
핳	-11.3144
▁강호동	-11.3144
▁썰렁	-11.3144
▁어떨까	-11.3144
▁치밀한	-11.3144
▁추악한	-11.3144
▁알맹이	-11.3144
▁관람불가	-11.3144
▁가만히	-11.3144
▁훈련	-11.3144
▁흡사	-11.3144
▁빅뱅	-11.3144
났어요	-11.3144
▁and	-11.3145
▁묘하게	-11.3145
▁깨달았다	-11.3145
▁레이싱	-11.3146
▁조인성	-11.3146
▁흥미롭다	-11.3146
▁저녁	-11.3146
▁my	-11.3146
▁스티브	-11.3147
뮤직	-11.3147
▁아메리칸	-11.3147
▁육체	-11.3149
▁콜린	-11.3149
연기자들	-11.315
▁돌아간	-11.315
▁독백	-11.3151
▁적응	-11.3152
집어	-11.3152
하늘	-11.3152
▁기발	-11.3153
▁정도껏	-11.3154
▁있는것	-11.3155
▁고향	-11.3156
▁않았습니다	-11.3158
▁호평	-11.316
▁시간아까움	-11.316
▁원빈	-11.3161
▁우익	-11.3161
▁도덕	-11.3162
▁떠올리게	-11.3164
▁봤었던	-11.3165
할수있다	-11.3167
▁슴가	-11.3168
▁헐크	-11.3169
전설	-11.3169
▁볼거리가	-11.317
비슷한	-11.3171
▁아무래	-11.3174
▁생각나네	-11.3175
▁제법	-11.3175
▁조잡하고	-11.3176
▁신선했다	-11.3177
▁가는줄	-11.3178
▁처절한	-11.3178
▁싶게	-11.318
죽겠다	-11.318
망신	-11.3181
슬프고	-11.3185
▁무게감	-11.3186
▁볼줄	-11.3189
▁진작	-11.3189
▁보았지만	-11.3191
▁몇년이	-11.3191
어주는	-11.3191
▁죽이네	-11.3192
▁대단해	-11.3194
민호	-11.3195
▁세계를	-11.3199
▁따른	-11.3201
▁농구	-11.3203
▁컨저링	-11.3207
▁힘든데	-11.3211
▁못잡	-11.3212
▁글쎄요	-11.3213
베르	-11.3214
89	-11.3214
센스	-11.3216
▁대작이다	-11.3219
▁장군	-11.3225
▁볼꺼	-11.3226
▁잡았	-11.3228
▁살아있다	-11.3231
▁후회할	-11.3232
▁엉망이고	-11.3233
▁거울	-11.3233
▁애인	-11.3235
▁무언가를	-11.3235
시켜서	-11.3235
▁우리네	-11.3236
▁딱딱	-11.3244
주인공들	-11.3247
영화에요	-11.3247
정부	-11.3251
▁후회하지	-11.3251
▁각인	-11.3257
▁바뀌는	-11.3258
쳤던	-11.3267
45	-11.3272
▁아니겠지	-11.3274
▁웃어야	-11.3275
▁디자인	-11.3275
때문인지	-11.3278
▁윤아	-11.3278
▁아시아	-11.3285
▁지루해요	-11.3286
보고싶어요	-11.3286
▁이게왜	-11.3286
▁여자들의	-11.3292
▁넘치고	-11.3299
시청	-11.33
▁제작한	-11.33
▁썩은	-11.3302
▁먹먹함	-11.3305
▁잊어	-11.3308
▁말하지	-11.3312
▁없더라	-11.3313
▁본인이	-11.3317
▁남음	-11.3319
▁난해하다	-11.3323
▁너네	-11.3324
ᄋᄋᄋ	-11.3327
?????	-11.3345
▁어른들이	-11.3347
▁볼땐	-11.3349
▁자신들	-11.3349
▁찡한	-11.3352
▁쓴다	-11.3352
대단한	-11.3359
나왔으면	-11.3365
봤자	-11.3366
▁난감	-11.3367
찍어	-11.3371
▁적절	-11.3376
▁헬기	-11.3377
편견을	-11.338
분보고	-11.338
▁드라마였다	-11.3381
▁겉멋	-11.3382
쪼	-11.3383
▁대여	-11.3384
진부	-11.3386
마음을	-11.3386
새로운	-11.3389
몸매	-11.339
세포	-11.339
▁주연으로	-11.3392
▁밑에분	-11.3392
▁198	-11.3392
으려는	-11.3392
▁시간아깝	-11.3393
▁미국에서	-11.3395
객관적으로	-11.3395
버렸어	-11.3396
▁연관	-11.34
▁개떡	-11.3401
찍고	-11.3401
▁두사람	-11.3401
▁비극적	-11.3405
밴	-11.3406
삭제	-11.3407
▁웃기기	-11.3408
출연진	-11.3409
밋	-11.341
▁성공한	-11.3411
▁수위	-11.3414
겸	-11.3414
톡	-11.3414
됴	-11.3414
퍽	-11.3414
▁어땠을까	-11.3414
▁옴니버스	-11.3414
▁원맨쇼	-11.3414
▁뚜렷	-11.3414
▁어울린다	-11.3414
▁이스트우드	-11.3414
▁최곱니다	-11.3414
블레이드	-11.3414
횽	-11.3414
▁탕웨이	-11.3414
▁이동욱	-11.3414
▁정재영	-11.3414
▁짜여진	-11.3414
-0-	-11.3414
▁왜이러지	-11.3414
시켰다	-11.3415
▁잠수함	-11.3415
▁엑소	-11.3415
스캔들	-11.3415
▁유아용	-11.3415
▁괜춘	-11.3415
▁작품이라고	-11.3415
▁와이프	-11.3415
▁한지민	-11.3415
▁뒤로갈수록	-11.3415
▁나눠	-11.3416
▁묘미	-11.3416
영환지	-11.3416
▁모르겟다	-11.3417
내인생	-11.3417
gt	-11.3417
▁상업적	-11.3417
▁이름값	-11.3417
스크림	-11.3417
lt	-11.3417
펙트	-11.3419
▁끝내준다	-11.3419
▁현빈	-11.342
▁반성해라	-11.342
▁개봉했을때	-11.342
▁짧아서	-11.3421
▁위하여	-11.3421
▁몇안되는	-11.3421
▁선율	-11.3421
▁와이어	-11.3422
시사회	-11.3422
▁능가	-11.3424
▁어느새	-11.3425
▁재료	-11.3425
▁가치관	-11.3425
▁나가고	-11.3428
▁잔인하기만	-11.3429
ery	-11.3432
였는지	-11.3433
▁뛰어나다	-11.3433
▁버티	-11.3434
▁능가하는	-11.3435
▁아니었으면	-11.3435
▁지원	-11.3436
사랑하는	-11.3436
▁허술하다	-11.3437
▁않았는데	-11.3438
▁오랜만이다	-11.3438
▁어울려	-11.3438
▁히트	-11.3438
▁중간중간에	-11.3438
▁알수없는	-11.3441
▁작품성은	-11.3442
▁시원하게	-11.3443
▁틀림없다	-11.3443
▁노예	-11.3446
게아니라	-11.3446
▁아니었음	-11.3447
런지	-11.3448
▁갈아	-11.3448
했더라면	-11.3448
▁볼만하고	-11.3449
▁조직	-11.345
▁브래드피트	-11.3453
▁싶은건지	-11.3454
▁허준	-11.3456
새기	-11.3458
▁나았다	-11.3458
▁그외	-11.3461
▁미치겠다	-11.3461
▁재미가없다	-11.3462
▁빛나	-11.3462
▁생각나네요	-11.3462
▁기준으로	-11.3464
▁표현하는	-11.3466
ᄏᄏᄏᄏᄏᄏᄏᄏᄏᄏᄏ	-11.3467
▁만들겠다	-11.3468
▁중독성	-11.3471
끌어	-11.3472
햇지만	-11.3482
▁즐겨보	-11.3483
할수록	-11.3486
보낸	-11.3487
▁내눈	-11.3487
있구	-11.3488
▁식스센스	-11.3488
▁머릿속에	-11.3489
▁확신	-11.3489
▁작위적인	-11.349
▁안봤지만	-11.349
▁땀을	-11.3492
을위한	-11.3492
파괴	-11.3493
▁드라마에요	-11.3494
▁정서에	-11.3497
▁최저	-11.3499
군대	-11.3503
▁저것도	-11.3504
▁선전	-11.3509
▁과한	-11.3511
▁싶네	-11.3511
▁개인적으론	-11.3515
감동적이고	-11.3515
▁집중력	-11.3519
▁서부영화	-11.3522
뜨거	-11.3525
잔아	-11.3526
▁욕하면서	-11.3528
▁제작진들	-11.353
▁평소에	-11.3533
▁생각하는데	-11.3535
▁이슈	-11.3535
▁부족해	-11.3537
▁관리	-11.3537
해줘야	-11.3542
놓는	-11.3543
고싶지	-11.3545
꿀	-11.3546
▁그러지	-11.3546
이라곤	-11.3547
따위로	-11.355
되어가는	-11.3551
년이나	-11.3552
▁보겠	-11.3557
싶음	-11.3559
▁보호	-11.356
▁강요	-11.3561
▁읽었	-11.3562
▁거부감이	-11.3566
▁스텝업	-11.3567
가끔	-11.3571
비슷	-11.3574
▁슬프게	-11.3578
외에는	-11.359
졸립	-11.3591
▁남자들이	-11.3594
일까요	-11.3594
▁감동적이었	-11.36
▁고르	-11.3601
▁음악영화	-11.3601
찜찜	-11.3601
▁콘서트	-11.3602
하다못해	-11.3604
▁오류	-11.3606
[	-11.3609
▁안되는데	-11.3609
▁믿을수	-11.3613
작품성	-11.3615
델	-11.3616
▁평론	-11.3621
▁유작	-11.3623
점이라니	-11.3629
▁없잖아	-11.363
▁장르에	-11.3633
▁들어가는	-11.3633
넘들	-11.3636
배틀	-11.3638
▁자랑스럽	-11.3638
데이트	-11.3641
▁모아놓	-11.3641
▁탁월	-11.3644
없으면	-11.3646
▁가르	-11.3649
셨어요	-11.3651
▁미국영화	-11.3655
▁일이다	-11.3657
▁노력한	-11.3658
▁일본어	-11.3659
▁욕나오는	-11.3661
짠	-11.3668
대한민국	-11.3671
슬픔	-11.3672
짜증난다	-11.3675
묶	-11.3678
▁여자들은	-11.368
▁공짜	-11.368
등록	-11.3681
▁들리	-11.3681
할머니	-11.3684
▁뿐만	-11.3686
밌	-11.3688
인상깊었	-11.369
뜩	-11.3691
삽	-11.3692
훼	-11.3692
천녀유혼	-11.3692
헝	-11.3692
▁love	-11.3692
▁스탤론	-11.3692
▁크루즈	-11.3692
▁톰행크스	-11.3692
냅	-11.3692
니콜키드먼	-11.3692
얌	-11.3692
▁엑스트라	-11.3692
젓	-11.3692
▁로렌스	-11.3692
▁한예슬	-11.3692
▁어려울	-11.3692
▁재해석	-11.3692
선입견	-11.3692
▁당췌	-11.3692
봅시다	-11.3692
▁사다코	-11.3692
연습	-11.3692
▁이성재	-11.3693
▁빵터짐	-11.3693
▁어려워	-11.3693
랍시고	-11.3693
십시오	-11.3693
기대안했는데	-11.3693
▁루이스	-11.3694
단막극	-11.3694
▁패턴	-11.3694
▁조용한	-11.3695
▁푸른	-11.3695
▁모르겠으나	-11.3695
▁어둠	-11.3695
▁짧고	-11.3695
▁발휘	-11.3696
▁당최	-11.3697
▁빡쳐서	-11.3697
▁일대기	-11.3697
▁지루하지않고	-11.3698
비밀	-11.3699
▁껏다	-11.3699
스케일	-11.3699
쌍둥이	-11.37
ood	-11.3701
발차기	-11.3702
▁창작	-11.3702
▁이건머	-11.3702
▁빠순이들	-11.3703
▁질투	-11.3703
▁문학	-11.3704
▁사랑스러워	-11.3704
▁느꼈습니다	-11.3705
▁깔끔하게	-11.3706
▁교차	-11.3706
할수밖에	-11.3708
▁무척이나	-11.3708
ig	-11.3709
▁바람피	-11.3709
▁빠져들어	-11.3709
▁거대	-11.371
▁표본	-11.3711
▁무서웠음	-11.3711
별한개	-11.3712
▁솔직하게	-11.3712
▁중에서도	-11.3715
으면서도	-11.3718
재미없네	-11.3718
▁구라	-11.3721
▁안봤으면	-11.3721
아픈	-11.3722
▁일드	-11.3722
▁고맙다	-11.3723
▁개인의	-11.3723
▁허무하다	-11.3723
▁안됩니다	-11.3724
▁기억속에	-11.3725
솜씨	-11.3726
▁나오나	-11.3727
못했다	-11.3728
꼬마	-11.3731
▁그런대로	-11.3734
▁연관성	-11.3734
게끔	-11.3734
▁분명하다	-11.3736
▁보석	-11.3736
▁마음속	-11.3736
▁이모양	-11.3736
했구나	-11.3737
보기에	-11.3739
▁꼭봐라	-11.3739
어휴	-11.3741
▁엑소시스트	-11.3741
재미있어	-11.3741
▁얻었	-11.3743
▁나왔습니다	-11.3744
였군	-11.3745
▁극적인	-11.3747
▁없었지만	-11.3747
▁소피	-11.3749
이라는거	-11.3749
bbbb	-11.3749
싶었다	-11.3751
▁설레는	-11.3752
▁미화하는	-11.3754
▁잔인하게	-11.3754
여친	-11.3756
▁가위	-11.3759
▁왠만해선	-11.3759
▁사실적인	-11.376
▁우수	-11.3762
막장드라마	-11.3763
▁시간아까운	-11.3764
▁아역배우	-11.3767
약함	-11.3767
▁프레데터	-11.3768
▁각성	-11.3772
▁재치있	-11.3773
▁씨네	-11.3776
하군요	-11.3776
▁도망가	-11.3778
좋아해서	-11.3786
전작	-11.3788
▁아버지와	-11.3793
▁유머와	-11.3795
▁나오면서	-11.3797
▁하지말	-11.3797
▁일본식	-11.3802
토리	-11.3803
▁기대합니다	-11.3803
▁자제	-11.3804
게스트	-11.3804
▁http	-11.3804
▁비유	-11.3807
▁안봤는데	-11.3811
▁못했지만	-11.3811
▁된장	-11.3812
어정쩡한	-11.3814
자극	-11.3815
▁이랬	-11.3817
▁평정	-11.3818
▁공개	-11.3822
▁꼬맹이	-11.3822
이라지만	-11.3822
▁옛다	-11.3825
유익	-11.3825
▁알앗	-11.3826
거라곤	-11.3827
ᄏᄏᄏᄏᄏᄏᄏᄏᄏᄏ	-11.3828
ain	-11.3831
기억에	-11.3834
▁재미있던데	-11.3835
소재로	-11.3836
정돈	-11.3837
심하다	-11.3845
▁지루할수	-11.3849
이런걸	-11.3859
▁be	-11.3859
16	-11.3864
▁통한	-11.3867
명이서	-11.3868
▁납득	-11.3874
▁슬프지	-11.3877
▁느려	-11.3878
▁당신을	-11.3883
봤을까	-11.3886
일본영화	-11.3886
▁살아나	-11.3889
▁팔아	-11.3891
사람으로써	-11.3894
▁흘러도	-11.3894
엇던	-11.3897
파티	-11.3899
dd	-11.3899
▁거리가	-11.39
▁+1	-11.39
풀어	-11.3901
갔던	-11.3905
▁피터	-11.3909
민주	-11.3909
하는걸	-11.3916
펑펑울었	-11.3916
것같아서	-11.3917
▁말도안되	-11.3917
전투	-11.3918
재미가없	-11.3922
하시면	-11.3926
▁생각해볼	-11.3927
▁믿기	-11.3934
▁코믹물	-11.394
▁써라	-11.3942
▁가리	-11.3942
▁신기할	-11.3943
▁못하지만	-11.3948
▁않았을	-11.3949
모토	-11.395
▁무섭다고	-11.3953
라는건	-11.3956
셨다	-11.3958
마누라	-11.3963
냉	-11.3964
꽝	-11.3964
저렇게	-11.3965
것같고	-11.3966
힐링	-11.3966
SF	-11.3967
슈퍼	-11.3968
찢	-11.3971
▁작년	-11.3972
▁풀었	-11.3975
▁괴롭	-11.3976
▁정성	-11.3977
▁까메오	-11.3978
▁정신건강에	-11.3978
릉	-11.3978
붐	-11.3978
브루스윌리스	-11.3978
췄	-11.3978
▁샤론스톤	-11.3978
닳	-11.3978
샹	-11.3978
솟	-11.3978
탔	-11.3978
▁뒤통수	-11.3978
▁신현준	-11.3978
ᆞ	-11.3978
▁덴젤	-11.3978
▁가운데	-11.3978
▁즐거워	-11.3978
지맙시다	-11.3978
▁금요일	-11.3978
naver	-11.3978
▁좌파	-11.3978
오디션	-11.3978
▁신은경	-11.3978
▁하야오	-11.3978
▁통틀어	-11.3978
▁한순간도	-11.3978
발견	-11.3978
▁오그라든다	-11.3979
▁가면갈수록	-11.3979
▁매튜	-11.3979
▁잔잔하니	-11.3979
이해안감	-11.3979
▁춤추는	-11.3981
▁오싹	-11.3981
▁보면볼수록	-11.3981
▁김하늘	-11.3981
리뷰	-11.3982
▁파멸	-11.3982
▁영화관가서	-11.3982
▁첨본다	-11.3983
▁억지스러움	-11.3984
▁놓친	-11.3984
▁깨알같은	-11.3985
▁태권	-11.3985
▁따듯한	-11.3985
▁급전개	-11.3986
▁알고보니	-11.3986
▁반지의	-11.3988
▁지겨운	-11.3988
▁엔딩곡	-11.3988
싶으면	-11.3989
▁말할것도	-11.3989
▁알면서도	-11.3989
그닥	-11.399
▁낚였	-11.399
맥스	-11.3992
co	-11.3993
mo	-11.3993
▁아름다웠던	-11.3994
▁몰입하면서	-11.3994
댄스	-11.3995
처음엔	-11.3997
▁분석	-11.3997
▁최종	-11.3998
▁질질끄는	-11.3999
▁끝나면	-11.4
▁개성이	-11.4
▁미션	-11.4003
희망	-11.4003
▁졸려서	-11.4003
▁인연	-11.4007
▁사귀	-11.4009
▁원작보다	-11.4011
▁저질영화	-11.4012
시킴	-11.4013
안되게	-11.4014
▁건너	-11.4015
▁경쟁	-11.4017
▁제작된	-11.4018
▁사막	-11.4018
인줄알았는데	-11.402
▁몰라서	-11.4023
시키려	-11.4025
▁산만함	-11.4027
더이상	-11.4027
▁소리를	-11.403
▁매회	-11.4031
보았다	-11.4031
▁저급한	-11.4033
▁떠난	-11.4034
▁크고	-11.4035
흥미롭	-11.4035
▁패스	-11.4038
▁부재	-11.4042
▁찰리	-11.4044
▁과장되	-11.4046
▁잼없어	-11.4047
권력	-11.4048
앜	-11.4049
출신	-11.405
▁무서운거	-11.4051
▁안나와서	-11.4055
▁최고였음	-11.4056
▁이러지	-11.4058
▁없을듯	-11.4059
▁지루하네요	-11.4059
▁시간가는	-11.406
밤에	-11.4065
▁생각밖에	-11.4067
▁후반으로	-11.4068
물고기	-11.407
▁연구	-11.4071
쩌네	-11.4071
으므로	-11.4073
기위한	-11.4073
몰라도	-11.4073
▁죽어서	-11.4074
▁불편하고	-11.4074
▁잃었다	-11.4076
▁수작입니다	-11.4076
▁군대에서	-11.4076
▁봐야함	-11.4078
▁성격이	-11.4081
되나요	-11.4082
▁넣었	-11.4086
올때	-11.4086
즈음	-11.4087
이었어	-11.4088
라기엔	-11.4094
십니다	-11.41
▁함정	-11.4102
시청자	-11.4106
▁끝장	-11.4107
▁한편으로	-11.4108
▁니들은	-11.4109
밝히	-11.4109
▁재미난	-11.4109
▁애매한	-11.4114
드림	-11.4116
▁진하게	-11.4116
▁심심할때	-11.4125
답지	-11.4126
주길	-11.4127
▁어찌나	-11.4131
▁관대	-11.4138
▁칼로	-11.4139
▁보지않	-11.4141
▁최악입니다	-11.4146
▁진지함	-11.4149
재희	-11.4152
▁좋아했	-11.4154
▁소비	-11.4156
▁난무하는	-11.4158
wo	-11.4165
인증	-11.4167
주말	-11.4169
▁처음입니다	-11.4171
박자	-11.4171
산업	-11.4172
평점이낮	-11.4174
▁다같이	-11.4175
▁추천함	-11.4178
쓴다	-11.4178
하시는분들	-11.4179
▁무언가가	-11.4185
지워	-11.4186
화부터	-11.4186
채널	-11.4189
수십번	-11.4191
▁주말에	-11.4194
▁잔잔하면서	-11.4195
으려나	-11.4196
사랑해	-11.4198
▁유우	-11.42
하구요	-11.4202
전부	-11.4208
▁무난한	-11.4213
▁찌질이	-11.4215
고양이	-11.4218
▁싸우고	-11.4218
▁안하는데	-11.4218
▁욕할	-11.422
▁관계를	-11.422
▁동급	-11.4221
바리	-11.4223
▁유쾌함	-11.4223
▁살기	-11.4237
▁중세	-11.4238
▁각본과	-11.424
▁되냐	-11.424
▁한국영화중	-11.4244
감사	-11.4245
▁잘만든영화	-11.4253
▁밥먹	-11.4255
▁수준이다	-11.4256
▁찍었다	-11.4256
▁슬픔을	-11.4258
연결	-11.426
쌍	-11.4262
▁흠잡을	-11.4264
열심히	-11.4268
무조건	-11.4268
짝퉁	-11.4268
븐	-11.427
죤	-11.4272
욧	-11.4272
젬	-11.4272
▁거슬린다	-11.4272
▁뇌리에	-11.4272
▁듣보잡	-11.4272
▁여고괴담	-11.4272
▁인상깊다	-11.4272
▁카타르시스	-11.4272
공각기동대	-11.4272
륵	-11.4272
쉰	-11.4272
스페셜	-11.4272
씌	-11.4272
▁스포일러	-11.4272
▁쏠쏠	-11.4272
햐	-11.4272
▁보기드문	-11.4272
▁섬세하고	-11.4272
▁싱겁	-11.4272
▁압축	-11.4272
▁하이킥	-11.4272
▁애절한	-11.4272
▁균형	-11.4272
▁역겨워	-11.4272
▁무슨생각으로	-11.4272
▁압박	-11.4272
▁감정들	-11.4272
▁빨리감기	-11.4272
▁하여금	-11.4272
▁테론	-11.4272
▁주제의식	-11.4273
▁엠마	-11.4273
▁훈남	-11.4273
▁똥폼	-11.4273
이라는걸	-11.4274
▁완결	-11.4274
▁자연스럽고	-11.4275
최강	-11.4275
▁다루는	-11.4276
▁역부족	-11.4276
보고난후	-11.4277
▁상쾌	-11.4277
하여튼	-11.4278
▁희극	-11.4278
올릴	-11.4279
▁궁금증	-11.4279
▁필요할까	-11.4279
▁성괴	-11.428
▁출연료	-11.4281
▁실존	-11.4281
▁괜찮았어요	-11.4283
할래	-11.4283
▁행운	-11.4283
▁벌어지는	-11.4283
▁생생하다	-11.4283
▁찾을수	-11.4283
▁녹화	-11.4284
▁끝으로	-11.4284
▁완소	-11.4284
도그렇고	-11.4285
▁생생하게	-11.4285
▁2002	-11.4286
▁행복해지는	-11.4286
▁2001	-11.4287
▁대가리	-11.4287
▁대단합니다	-11.4288
▁배우들연기	-11.4288
▁명예	-11.4288
▁지닌	-11.4288
젊은	-11.4288
▁연계	-11.4289
▁안티	-11.4291
▁더럽게없다	-11.4294
▁동기	-11.4294
▁울나라	-11.4294
▁낚임	-11.4294
▁대변	-11.4296
왜케	-11.4296
김정	-11.4296
▁완벽히	-11.4297
▁못봐주겠다	-11.4299
▁7~8	-11.4299
▁사랑하게	-11.4301
▁멋지네요	-11.4302
▁그리운	-11.4303
▁무의미한	-11.4304
했었던	-11.4304
했기에	-11.4305
▁보여주기	-11.4307
인칭	-11.4308
▁울었음	-11.4308
든데	-11.4309
▁촌스럽고	-11.431
▁멋있음	-11.431
▁있었어요	-11.4311
돌아가	-11.4312
▁들었음	-11.4312
했을텐데	-11.4315
▁있죠	-11.4315
티브	-11.4316
▁훌륭했다	-11.4316
여년전	-11.4317
▁피어	-11.4318
걸리	-11.432
▁많았다	-11.4322
▁흔적이	-11.4324
▁놀래키	-11.4324
보게됨	-11.4328
;;;;;	-11.4329
▁알았지만	-11.433
▁곳곳에	-11.433
▁식상하고	-11.433
▁소름돋는다	-11.433
▁명배우들	-11.4332
▁재밌긴	-11.4333
▁나오던	-11.4333
죽이기	-11.4333
▁생각된다	-11.4335
▁전환	-11.4335
▁익숙한	-11.4338
▁좋아했는데	-11.4338
▁와닿는다	-11.4338
▁처음봄	-11.4343
▁외화	-11.4345
▁그리스	-11.4345
▁먹칠을	-11.4347
의미로	-11.4347
▁암울한	-11.435
▁남주인공	-11.435
▁실망스러웠	-11.435
▁잼써	-11.4351
▁진정으로	-11.4352
▁전통	-11.4357
연출력	-11.4357
영화보면서	-11.4357
▁극장서	-11.4359
어찌	-11.4361
▁안달	-11.4363
형식	-11.4363
▁그러면	-11.4364
!!!!!!!!!!!!	-11.4365
많아	-11.4366
▁만들었던	-11.4368
▁가깝다	-11.4371
▁재회	-11.4376
▁심했다	-11.4377
▁잔혹한	-11.438
▁우리집	-11.4382
일뿐이다	-11.4383
억지로	-11.4389
썬	-11.4389
▁실망감	-11.4392
▁짜내	-11.4393
▁전형	-11.4398
▁이쁘네	-11.4402
ore	-11.4409
ur	-11.441
▁말이죠	-11.4415
▁잔잔하다	-11.4422
▁형편없다	-11.4433
착한	-11.4435
ll	-11.4436
▁화해	-11.4437
▁낫네	-11.4437
것인지	-11.4444
▁생각해요	-11.4445
▁구하기	-11.4453
▁터졌	-11.4453
▁죽여버리고	-11.4456
▁개념없	-11.4457
▁스타일리쉬	-11.4458
29	-11.4465
받아야	-11.4467
추격	-11.4468
▁미워	-11.4472
▁보고싶지	-11.4472
▁있어야지	-11.4478
▁말할수	-11.4484
▁엄마와	-11.4484
머릿속	-11.4492
▁너희	-11.45
뭐임	-11.4502
▁사람인데	-11.4505
버려라	-11.4508
▁한국말	-11.4508
잡아	-11.4511
▁위대	-11.4515
▁드러난	-11.4515
하더만	-11.4521
▁후에도	-11.4521
싶어요	-11.4521
▁평가할	-11.4524
옆에서	-11.4525
만들기	-11.4526
▁짠한	-11.4528
시기를	-11.4533
gh	-11.4535
인건지	-11.4539
다고해서	-11.4544
▁무의미	-11.4544
▁서부	-11.4545
년생	-11.4552
▁야하다	-11.4554
보지마삼	-11.4559
▁미스터	-11.456
즌	-11.4563
▁말하기	-11.4565
▁그딴	-11.4566
안나오나	-11.4567
▁느린	-11.457
쯧	-11.4572
▁질주	-11.4573
랙	-11.4574
렘	-11.4574
깁니다	-11.4574
▁떠올랐	-11.4575
▁페이크다큐	-11.4575
썅	-11.4575
ᄑ	-11.4575
▁OCN	-11.4575
▁버금가는	-11.4575
▁사이코패스	-11.4575
▁스토리텔링	-11.4575
▁쌍팔년도	-11.4575
▁아날로그	-11.4575
▁히치콕	-11.4575
갸	-11.4575
씽	-11.4575
쨩	-11.4575
클라이막스	-11.4575
▁맥어보이	-11.4575
▁일으키	-11.4575
▁후유증	-11.4575
ight	-11.4575
▁어려움	-11.4575
▁조금이나마	-11.4575
▁기괴한	-11.4575
▁눈뜨고	-11.4575
▁어떨지	-11.4575
신동엽	-11.4575
▁부자연스럽	-11.4575
▁서서히	-11.4575
▁이종석	-11.4575
▁믿겨지지	-11.4575
▁중딩때	-11.4575
▁흔히	-11.4575
▁아쉬웠다	-11.4575
▁낮춰	-11.4576
▁어렷을	-11.4576
▁인상깊었다	-11.4576
▁최진실	-11.4577
▁이리저리	-11.4577
▁쌍욕	-11.4577
▁자칫	-11.4577
갱	-11.4577
▁새롭고	-11.4578
▁이승기	-11.4578
▁피터팬	-11.4578
▁새롭다	-11.4578
▁얻을	-11.4579
윌	-11.4579
▁하얀	-11.4579
▁놀라움	-11.458
▁낯선	-11.458
@@	-11.458
우연히	-11.4581
▁화가난다	-11.4581
테이프	-11.4581
▁짐작	-11.4583
▁저평가된	-11.4584
▁기대치	-11.4584
▁쥐어	-11.4588
▁지났는데	-11.459
▁올레티비	-11.4591
▁주옥같은	-11.4591
▁나오길래	-11.4592
▁몰래	-11.4593
▁끝내주는	-11.4593
▁실체	-11.4593
▁풋풋하고	-11.4594
봤는지	-11.4594
▁다세포	-11.4596
▁황제	-11.4596
놈들아	-11.4596
▁객관적	-11.4596
▁넘친다	-11.4598
▁작작	-11.4598
▁마술	-11.4599
▁나왔는지	-11.4599
▁극단적인	-11.4599
▁몰려	-11.4599
뻔한스토리	-11.46
였죠	-11.4601
▁아니에요	-11.4601
▁이뤄	-11.4602
▁작살	-11.4602
▁하필	-11.4603
▁핵심	-11.4603
▁없구만	-11.4603
▁인내	-11.4604
▁구석이	-11.4604
▁눈물난다	-11.4605
채널돌	-11.4608
▁이룬	-11.4609
으니깐	-11.461
▁언더	-11.461
▁없기	-11.461
보고있는데	-11.4611
설레	-11.4611
▁싫음	-11.4611
▁장난해	-11.4611
웠음	-11.4611
맨날	-11.4613
▁조커	-11.4613
본것중	-11.4615
▁97	-11.4618
▁광주	-11.4619
▁철없는	-11.4619
▁대단하네요	-11.462
^^;;	-11.4622
▁말한다	-11.4622
▁140	-11.4624
▁발생	-11.4625
번이상	-11.4625
주변	-11.4627
▁따뜻해지	-11.4628
어머니	-11.4629
▁울뻔	-11.463
조금이라도	-11.463
▁정글	-11.463
▁어색하지	-11.4631
▁결과물	-11.4631
▁그러니	-11.4632
승리	-11.4633
사랑해요	-11.4633
▁잼났	-11.4635
▁볼만하던데	-11.4636
▁다가온다	-11.4636
▁높냐	-11.4637
이래서	-11.4637
▁뭐하냐	-11.4641
▁배웠	-11.4643
단계	-11.4646
생기고	-11.4646
▁허무하고	-11.465
▁급하게	-11.465
▁의아	-11.4654
상처	-11.466
준사람들	-11.4666
▁별반	-11.4668
▁설레임	-11.467
기회를	-11.467
▁만들었다면	-11.4671
▁매년	-11.4671
그려	-11.4673
함께	-11.4675
▁변명	-11.4676
▁흥미진진하고	-11.4678
▁평점높	-11.4678
하네여	-11.468
점이면	-11.4682
▁너희들	-11.4683
▁통일	-11.4686
▁납득이	-11.4687
▁본후	-11.4687
하겠네	-11.4688
영화제에서	-11.469
▁심하네	-11.4693
▁짧지	-11.4694
미녀	-11.4694
▁정상인	-11.4695
▁단순하고	-11.4695
▁괜찮았고	-11.4703
▁절라	-11.4705
▁진구	-11.4705
겁나	-11.4706
▁뭣도	-11.4709
▁봤어야	-11.4711
▁속상	-11.4711
▁노리	-11.4716
문화를	-11.4719
all	-11.4722
▁데드	-11.4722
역대	-11.4725
▁터질	-11.4728
신다면	-11.4728
생각해보면	-11.4732
▁있기에	-11.4733
▁모두에게	-11.4734
▁특별하	-11.474
끝났으면	-11.4741
보고나면	-11.4742
,,,,,,,	-11.4744
▁로그인하게	-11.4745
▁썼다	-11.475
▁지구를	-11.4752
▁알수있는	-11.476
으라고	-11.476
▁그녀를	-11.4761
▁일일	-11.4761
아픔을	-11.4763
▁짱입니다	-11.4764
검사	-11.4766
▁웃기긴	-11.4766
▁수작임	-11.4768
▁딴짓	-11.4769
▁타임용	-11.4771
▁안보는데	-11.478
회까지	-11.478
▁떨어졌	-11.4781
▁다가오	-11.4782
교회	-11.4784
방학	-11.4784
28	-11.4794
▁어쩌고	-11.4795
▁졸린	-11.4798
날리	-11.4801
살려	-11.4802
▁발견한	-11.4807
▁재밋네	-11.4809
보고싶은	-11.4811
▁보여줘	-11.4818
할뻔	-11.4818
확실하게	-11.484
♡♡♡	-11.4842
거같고	-11.4851
는거보고	-11.4852
▁저에게	-11.4856
▁못볼	-11.4872
팩	-11.4879
▁돌아보	-11.4882
▁비급	-11.4883
▁어느것	-11.4885
캔	-11.4887
캡	-11.4887
끗	-11.4887
탭	-11.4887
궈	-11.4887
권선징악	-11.4887
멈	-11.4887
ᅭ	-11.4887
껍	-11.4887
쪄	-11.4887
▁로버츠	-11.4887
▁샤를리즈	-11.4887
甲	-11.4887
뤽	-11.4887
샬	-11.4887
윙	-11.4887
윗	-11.4887
▁노무현	-11.4887
훅	-11.4887
갤	-11.4887
▁로드무비	-11.4887
▁모니터	-11.4887
▁각각의	-11.4887
▁서세원	-11.4888
▁배드신	-11.4888
▁떠오른다	-11.4888
▁좌절	-11.4888
우월주의	-11.4888
▁토마스	-11.4888
▁깨끗하	-11.4888
▁차가운	-11.4888
▁이정현	-11.4888
▁으리으리	-11.4888
테잎	-11.4888
점준거중	-11.4888
▁며칠	-11.4888
▁토이스토리	-11.4888
▁효민	-11.4888
▁김수로	-11.4888
클래스	-11.4888
▁돋보임	-11.4889
▁국뽕	-11.489
*^^*	-11.489
▁발톱	-11.4891
▁빠르고	-11.4891
위주로	-11.4891
▁의심스럽다	-11.4892
▁무개념	-11.4892
▁재평가	-11.4893
▁사정	-11.4893
▁투표	-11.4894
▁버튼	-11.4895
▁무표정	-11.4895
▁보장	-11.4895
▁모든면에서	-11.4895
▁감싸	-11.4896
▁리암	-11.4896
굳굳	-11.4896
▁없으며	-11.4898
▁할말이없다	-11.4898
▁감동적이었어요	-11.4898
숀	-11.4899
살짜리	-11.4899
버리네	-11.4899
▁박힌	-11.4899
▁동료	-11.4901
일만에	-11.4902
▁모르겠어요	-11.4902
왠만하면	-11.4903
▁생겨서	-11.4904
▁뭐하러	-11.4904
느낀	-11.4904
먹으면서	-11.4905
▁초등학생때	-11.4905
▁화난다	-11.4905
▁어깨	-11.4906
검색	-11.4906
개뿔	-11.4906
▁결투	-11.4906
▁신앙	-11.4907
꼭보세요	-11.4907
▁바라며	-11.4908
재밌었어요	-11.4909
▁들었습니다	-11.491
▁의존	-11.4912
▁공격	-11.4912
▁만들지마	-11.4914
▁끝나기	-11.4916
▁흔들리	-11.4916
▁암살	-11.4917
▁없었습니다	-11.4919
어쩔	-11.4919
▁짱이에요	-11.4919
재미도없고	-11.492
되어야	-11.4923
▁전달하고자	-11.4924
풍경	-11.4925
허허허	-11.4925
▁책임감	-11.4927
질질끄	-11.493
▁고래	-11.4931
멋잇	-11.4932
하는거지	-11.4934
▁밋밋하고	-11.4934
▁좋았네요	-11.4937
본건데	-11.494
▁되어버린	-11.4941
잘만든	-11.4942
▁근거	-11.4943
▁do	-11.4943
▁망한영화	-11.4946
▁후회한다	-11.4947
▁홀로	-11.4953
쉽게	-11.4954
▁끼어	-11.4957
▁미치지	-11.4962
▁한국형	-11.4964
▁광해	-11.4966
▁만들었는데	-11.4967
르르	-11.4968
▁밝은	-11.4969
내시간	-11.4972
▁백미	-11.4973
데리고	-11.4976
▁위치	-11.4977
▁보게되었	-11.4978
▁동물들	-11.498
▁높네요	-11.4982
▁시간때우기용	-11.4982
최악이다	-11.4984
났는데	-11.4985
먹어라	-11.4985
▁감동감동	-11.4991
▁시바	-11.4992
일지도	-11.4994
▁망함	-11.4997
▁치우	-11.4999
▁아쉽게	-11.5001
▁지금보니	-11.5002
▁분들에게	-11.5002
▁멋있게	-11.5002
▁재밌게봄	-11.5003
▁하차	-11.5004
▁과제	-11.5008
셨으면	-11.5009
▁한표	-11.5011
▁갈릴	-11.5012
▁잼있었	-11.5012
입장	-11.5016
▁강조	-11.5017
▁사연	-11.502
흔한	-11.5022
진심으로	-11.5025
놔서	-11.5031
▁자신감	-11.5033
▁기부	-11.5033
▁비디오용	-11.5034
▁잼있었다	-11.5035
봐야할	-11.5036
▁나오니	-11.5042
닼	-11.5048
▁그려내	-11.5051
▁토끼	-11.5052
었죠	-11.5053
개판	-11.5053
▁장미	-11.5055
▁인상적이다	-11.5059
줬음	-11.5061
▁이름으로	-11.5064
▁당황스럽	-11.5068
▁한국드라마	-11.5069
▁중요한건	-11.5072
▁강하다	-11.5075
▁수십	-11.5077
▁별반개	-11.5085
▁받으	-11.5085
▁끝나네	-11.5088
▁다음주	-11.5089
보고싶은영화	-11.5089
▁안맞고	-11.5099
▁나쁘다	-11.51
▁호러영화	-11.5101
환상	-11.5101
▁잼난	-11.5102
그랫	-11.5104
▁망하는	-11.5111
졸리	-11.5112
▁좋아함	-11.5113
매력있	-11.5114
▁기대보다	-11.5121
주관적	-11.5127
///	-11.5133
하는건데	-11.5138
▁써먹	-11.5138
▁높여	-11.5139
마져	-11.5144
눈물흘	-11.5144
줄알고	-11.5147
▁시시한	-11.5153
▁영향	-11.5156
▁전형적	-11.5157
갔음	-11.5157
사냥	-11.5158
해야하나	-11.5168
▁있는것도	-11.5171
▁방황	-11.5179
▁추구	-11.5179
▁일깨워	-11.5182
없을정도로	-11.5185
▁끝부분	-11.5186
▁웃기기도	-11.5187
man	-11.519
완벽	-11.5194
왠	-11.5194
▁긍정적	-11.5198
▁그림자	-11.5199
딜	-11.5207
쩡	-11.5209
밉	-11.521
찜	-11.521
됀	-11.521
▁이스라엘	-11.521
엥	-11.521
▁아팠다	-11.521
▁애틋한	-11.521
▁어메이징	-11.521
▁어줍잖	-11.521
▁웨슬리	-11.521
▁중구난방	-11.521
▁토요명화	-11.521
뜰	-11.521
괘	-11.521
짚	-11.521
▁섬세하게	-11.521
▁여실히	-11.521
붓	-11.521
▁나도모르게	-11.521
▁이선균	-11.521
오리지날	-11.521
▁ᄆᄎ	-11.521
▁유역비	-11.521
▁배슬기	-11.521
▁마피아	-11.521
▁손꼽히는	-11.521
▁일관성	-11.521
▁오유에서	-11.521
▁어디선가	-11.521
▁슬로우	-11.5211
질않나	-11.5211
릅니다	-11.5211
▁헌신	-11.5211
▁흠뻑	-11.5212
▁케이스	-11.5212
▁아키라	-11.5212
▁채널돌리	-11.5212
▁씹노잼	-11.5212
▁손꼽	-11.5212
▁시청율	-11.5212
▁극장개봉	-11.5214
▁그시대	-11.5214
▁철저히	-11.5215
▁신뢰	-11.5215
▁불꽃	-11.5216
▁종북	-11.5216
▁일어났	-11.5216
▁생겨	-11.5216
▁가족끼리	-11.5216
▁늑대인간	-11.5217
▁명량	-11.5217
▁먹먹해지는	-11.5217
잡아먹	-11.5218
▁자식들	-11.5218
▁똥칠	-11.5219
버렷	-11.522
▁돋보였던	-11.522
않아요	-11.522
▁올레	-11.522
▁모를까	-11.5221
▁화끈하게	-11.5221
▁실화라서	-11.5221
▁보여줬는데	-11.5222
;;;;;;	-11.5222
▁만들어내는	-11.5223
▁억지웃음	-11.5224
▁잼있었음	-11.5226
▁앞서간	-11.5226
마른	-11.5227
▁어려서	-11.5228
▁평점테러	-11.5228
▁친구들이랑	-11.5228
▁사람으로서	-11.5229
박현지	-11.5229
▁집중하게	-11.523
▁독재	-11.5231
▁보석같은	-11.5232
▁양산	-11.5232
▁못알아	-11.5232
▁정답	-11.5232
센트	-11.5233
샘	-11.5233
▁풀어가는	-11.5234
쓰래기	-11.5236
어릴적	-11.5236
어렸을때	-11.5236
메세지	-11.5237
완성도	-11.5237
껀데	-11.5237
아무튼	-11.5237
good	-11.5238
기대안하고	-11.5238
글쎄	-11.5238
▁관대하다	-11.5238
▁일본애니	-11.5239
▁초등	-11.5239
▁청춘들	-11.524
▁물론이고	-11.5241
▁절제	-11.5241
잼있어요	-11.5241
▁대하여	-11.5242
겠습니까	-11.5242
▁초점을	-11.5243
▁유행어	-11.5244
▁선배	-11.5245
젠장	-11.5246
▁인종	-11.5247
났습니다	-11.5249
▁지루합니다	-11.525
▁평작	-11.525
▁조아요	-11.5251
따름	-11.5252
지금봐도	-11.5254
▁남김	-11.5255
▁도와주	-11.5255
블루	-11.5256
성님	-11.5256
▁리플	-11.5256
▁이민호	-11.5256
▁개봉작	-11.5257
거같아서	-11.5258
▁몰랐던	-11.5258
▁감독판	-11.5259
▁배운	-11.5264
환경	-11.5266
갈등	-11.5267
▁하고싶	-11.5268
응원	-11.5268
▁스크린으로	-11.5268
▁높음	-11.5268
헤드	-11.527
여기서	-11.527
▁120	-11.5272
▁걸레	-11.5272
▁무섭기	-11.5272
▁도박	-11.5272
본다면	-11.5278
귀엽고	-11.5279
완벽한	-11.5279
▁최대한	-11.5279
안나온다	-11.5281
▁찾았다	-11.5282
▁고생한	-11.5284
▁줄줄	-11.529
싶습니다	-11.529
봤을때	-11.5291
▁이것만	-11.5294
▁잊혀지지않는	-11.5295
재미없어요	-11.5296
▁한쪽	-11.5299
▁잼있는데	-11.5302
하셔서	-11.5302
▁돌아온	-11.5303
▁생생한	-11.5304
▁봤으니	-11.5306
▁강추입니다	-11.5309
▁포장한	-11.531
확인	-11.5314
잤다	-11.5315
▁무방	-11.5317
▁성질	-11.5317
▁특성	-11.5318
▁동원	-11.532
라기보단	-11.5322
▁에바	-11.5323
▁식상함	-11.5326
▁오그라	-11.5331
잘생겼다	-11.5331
됐으면	-11.5331
▁살자	-11.5333
▁어색해	-11.5335
취향은	-11.534
▁않겠다	-11.5342
▁시대상	-11.5342
▁개봉하지	-11.5344
one	-11.5346
▁중간까지	-11.5346
▁억울하	-11.5348
잼씀	-11.5353
세끼	-11.5355
▁궁금하지	-11.5358
▁하나경	-11.5359
▁동심을	-11.5361
▁무려	-11.5361
▁생각되는	-11.5363
▁노잼이다	-11.5364
▁엉망인	-11.5369
편보단	-11.5369
▁된다면	-11.5373
것두	-11.5374
▁댓글알바	-11.5374
▁풀어나가	-11.5379
▁형성	-11.538
성격	-11.538
▁비슷하다	-11.5385
▁기원	-11.5386
하겠는데	-11.5388
돋네	-11.5389
답이없다	-11.539
▁대박입니다	-11.5392
▁설치	-11.5392
▁괴수	-11.5394
▁따라서	-11.54
▁재미없는데	-11.5402
현실성	-11.5409
▁진자	-11.542
▁참신함	-11.5422
▁재치	-11.5429
▁오덕	-11.5432
ak	-11.5433
▁챙겨보는	-11.5434
▁재밌었어	-11.5435
나올뻔	-11.5439
행님	-11.544
▁이러면	-11.5444
▁보여주려	-11.5448
해본다	-11.5463
아깝지않	-11.5466
om	-11.5471
▁가는데	-11.5477
▁누르	-11.548
룬	-11.5487
▁중요하지	-11.5488
▁투자한	-11.5488
▁이렇다	-11.5492
▁안타까울	-11.5495
▁서기	-11.5496
보고싶네	-11.5503
▁행동들	-11.5507
▁이용해	-11.5513
▁살릴	-11.5515
않아서	-11.5516
me	-11.5521
▁관계자	-11.5526
장애인	-11.5526
드럽게	-11.5527
▁똑같아	-11.5534
▁연예	-11.5536
444	-11.5538
둠	-11.554
늑	-11.5542
둡	-11.5543
뻘	-11.5543
핸	-11.5543
텅	-11.5543
○	-11.5543
zzz	-11.5543
▁로멘틱	-11.5543
▁롱테이크	-11.5543
▁어울렸	-11.5543
꾀	-11.5543
늠	-11.5543
뺐	-11.5543
섰	-11.5543
셰	-11.5543
슌	-11.5543
휴잭맨	-11.5543
▁고마워요	-11.5543
▁윌리엄스	-11.5543
굵	-11.5543
깽	-11.5543
꺅	-11.5543
데미무어	-11.5543
밭	-11.5543
빚	-11.5543
썽	-11.5543
톨	-11.5543
▁기승전결	-11.5543
떨어뜨리	-11.5543
▁약빨고	-11.5543
▁버무려	-11.5543
▁무작정	-11.5543
▁서인국	-11.5543
▁눈높이	-11.5543
▁고현정	-11.5543
▁지진희	-11.5543
▁정유미	-11.5543
암걸릴	-11.5543
\	-11.5544
▁피라냐	-11.5544
▁한정된	-11.5544
캡틴	-11.5544
▁에너지	-11.5544
▁쓰나미	-11.5544
▁하여간	-11.5544
추천합니다	-11.5544
▁설렘	-11.5544
▁당할순	-11.5544
▁왔다갔다	-11.5544
▁흐른다	-11.5545
uck	-11.5545
▁나오지만	-11.5545
▁쾌감	-11.5545
플러스	-11.5545
▁근육	-11.5545
▁통찰	-11.5545
▁베리굿	-11.5545
▁멋집니다	-11.5545
성동일	-11.5546
▁알겠으나	-11.5546
▁속도감	-11.5546
▁탐욕	-11.5547
▁이겨내	-11.5547
▁사소한	-11.5547
▁2006	-11.5548
▁도입부	-11.5549
나왓으면	-11.5549
▁MC	-11.5549
▁다르겠지만	-11.5549
▁엽기적인	-11.555
▁회복	-11.5551
▁놀랄	-11.5551
▁아이리스	-11.5551
▁건축	-11.5552
▁봤으나	-11.5554
거린다	-11.5554
▁목표	-11.5554
콩콩	-11.5554
▁폭파	-11.5556
▁인상적이었다	-11.5558
xx	-11.5558
▁그리움	-11.5559
▁여자친구랑	-11.5559
하지말자	-11.5559
▁좋아하면	-11.5561
▁기술력	-11.5562
▁어필	-11.5564
▁팬티	-11.5564
▁영구와	-11.5567
▁재미없었던	-11.5567
▁늘어지는	-11.5567
▁둘러	-11.5569
▁포기한	-11.5572
▁볼거없	-11.5572
▁알았습니다	-11.5575
▁발악	-11.5576
닭	-11.5578
맡	-11.558
본방사수	-11.558
누군가	-11.558
김기덕	-11.5581
▁출연진들	-11.5581
아쉬움	-11.5581
새벽	-11.5581
느꼈	-11.5582
2014	-11.5582
전문가	-11.5582
10000	-11.5582
이연걸	-11.5582
귀여운	-11.5583
눈빛	-11.5585
▁차분하	-11.5585
보지마	-11.5585
▁동참	-11.5586
▁넣어서	-11.5587
▁운전	-11.5587
▁천재적인	-11.5587
▁동경	-11.5588
영활	-11.5588
▁감성적인	-11.559
▁유쾌하다	-11.5591
베스트	-11.5593
▁들었는데	-11.5595
독창적	-11.5595
▁취미	-11.5595
재밌었는데	-11.5596
▁여고생	-11.5596
폭발	-11.5596
▁딱봐도	-11.5596
▁유치원	-11.5597
▁해학	-11.5598
▁상당	-11.5598
▁찍으면	-11.5599
살짝	-11.56
못보겟	-11.5603
MB	-11.5603
ry	-11.5605
▁엉뚱한	-11.5605
▁꽃보다	-11.5608
▁2%	-11.5609
▁먹먹하고	-11.5613
▁비슷하게	-11.5613
천국	-11.5616
▁가족드라마	-11.5617
▁건물	-11.5617
어쩜	-11.562
할거면	-11.5621
▁기대하면서	-11.5621
▁타잔	-11.5622
▁생각지도	-11.5622
▁맞았	-11.5624
▁그려진	-11.5626
돈아까워	-11.5626
▁아휴	-11.5626
▁밝고	-11.5627
보겠다	-11.5631
▁가질	-11.5632
수있다는	-11.5633
▁높았	-11.5634
▁우울하고	-11.5636
▁열번	-11.5639
▁따듯하	-11.5645
▁암시	-11.5648
듯해요	-11.5651
▁만들었네요	-11.5655
했어야	-11.5658
▁디테일한	-11.5659
▁모처럼	-11.566
▁엔딩까지	-11.5663
▁좋으면	-11.5664
평점알바	-11.5664
▁어이없게	-11.5671
▁즐거웠다	-11.5673
아닌가요	-11.5674
▁재밌냐	-11.5677
▁애기들	-11.5679
▁종말	-11.568
▁아역들	-11.568
▁어렵고	-11.5681
▁대학교	-11.5682
▁않으면서	-11.5682
보세여	-11.5683
답답하고	-11.5684
▁불가능한	-11.5684
처먹	-11.5689
▁개망	-11.569
▁연기들도	-11.5693
▁비교할	-11.5695
▁보이네요	-11.5697
▁못봤다	-11.5698
▁부족했다	-11.5698
▁시리즈물	-11.5701
신선한	-11.5701
그만큼	-11.5703
먹는다	-11.5706
▁멜로물	-11.571
▁토르	-11.5712
▁매력적이고	-11.5714
못보겠	-11.5715
괜찮았	-11.5719
읽어	-11.5722
뛰어	-11.5724
▁벗기	-11.5727
아침	-11.5728
▁내평점	-11.5731
모드	-11.5733
▁갑갑	-11.5736
딴식으로	-11.5738
▁고전영화	-11.574
▁미친놈	-11.5741
재밋어	-11.5742
올드보이	-11.5744
없냐	-11.5745
▁전투기	-11.5746
▁담겨	-11.5746
멋있다	-11.5749
시간짜리	-11.5761
남동생	-11.5766
▁대형	-11.5769
▁예상가능	-11.5771
▁표현력	-11.5778
▁조성	-11.5779
▁계신	-11.5785
뿌리	-11.5786
▁지나치	-11.5799
▁의외	-11.5801
▁우롱	-11.5802
봣네요	-11.5802
▁소원	-11.5814
내돈	-11.5817
피어스	-11.583
▁뭉클한	-11.583
먹음	-11.5832
▁돋보인	-11.5837
풀리	-11.5838
▁성장기	-11.5844
▁원제	-11.5845
솜	-11.5846
-10	-11.5848
▁담았	-11.5856
▁인간미	-11.5857
▁돌아와	-11.5859
있었지만	-11.586
▁지성	-11.587
▁존경스럽	-11.5872
거리며	-11.5873
▁개인적	-11.5877
▁빛났	-11.5878
▁바뀌었	-11.5879
감명깊	-11.5884
씁	-11.5887
헨	-11.5887
▁봉태규	-11.5888
곸	-11.5888
▁나홀로집에	-11.5888
▁무미건조	-11.5888
▁수고하셨습니다	-11.5888
▁윌스미스	-11.5888
웹	-11.5888
짬	-11.5888
▁나비효과	-11.5888
▁어울릴	-11.5888
▁죄책감	-11.5888
짭	-11.5888
쵸	-11.5888
쿵푸팬더	-11.5888
+_+	-11.5888
Q	-11.5888
▁간신히	-11.5888
▁훼손	-11.5888
▁캐서린	-11.5888
▁타이밍	-11.5888
▁합리화	-11.5888
피노키오	-11.5888
▁고소영	-11.5888
▁미션임파서블	-11.5888
▁뜬금포	-11.5888
▁어리석	-11.5888
▁부조리	-11.5888
|	-11.5888
패밀리	-11.5888
▁최지우	-11.5889
▁두려워	-11.5889
▁슈스케	-11.5889
▁정사씬	-11.5889
▁퍼펙트	-11.5889
▁미개한	-11.5889
▁여진구	-11.5889
▁신비로운	-11.5889
▁크리스틴	-11.5889
▁AV	-11.589
▁나타난	-11.589
▁풋풋함	-11.589
▁감사드립니다	-11.589
▁부끄럽다	-11.589
▁앤딩	-11.589
▁올만에	-11.589
해주면	-11.589
▁베낀	-11.5891
▁꺼버림	-11.5891
읍니다	-11.5891
▁짝사랑	-11.5891
▁말이필요없음	-11.5891
▁농락	-11.5891
▁유치원생	-11.5891
▁토할뻔	-11.5891
▁빠져든다	-11.5892
▁기분나쁜	-11.5892
----	-11.5893
▁헛소리	-11.5893
▁한결같	-11.5894
▁한몫	-11.5894
▁견디	-11.5895
▁애썼	-11.5895
ir	-11.5895
▁그렇다치고	-11.5895
▁종결	-11.5897
▁있었을텐데	-11.5897
시각	-11.5898
▁팬이라서	-11.59
▁사례	-11.59
▁시간여행	-11.59
▁개성있는	-11.5901
▁반항	-11.5901
▁힘듬	-11.5901
▁망했는지	-11.5902
▁린치	-11.5906
▁타짜	-11.5906
볼꺼	-11.5906
▁종종	-11.5907
▁아쉽습니다	-11.5907
줄알았음	-11.5908
▁근본	-11.5908
▁따뜻하다	-11.5909
▁욕설	-11.5909
▁개졸작	-11.591
▁힘드네	-11.591
▁안무섭다	-11.5911
▁있을듯	-11.5913
▁호강	-11.5913
▁마련	-11.5913
▁일방적	-11.5916
인줄알고	-11.5918
▁구리고	-11.592
▁미련	-11.592
▁인연이	-11.5921
▁재밌겠다	-11.5922
▁비오는	-11.5925
▁떨어지지만	-11.5926
▁은희	-11.5926
▁마지막부분	-11.593
▁보기전에	-11.5931
▁위선	-11.5932
어쩔수없	-11.5935
▁고어물	-11.5935
헉	-11.5936
다큐멘터리	-11.5938
마이클	-11.5938
등장인물	-11.5938
만드냐	-11.5938
날림	-11.594
바꿔	-11.594
▁괜찮지만	-11.5941
도저히	-11.5941
쵝오	-11.5941
라기보다	-11.5941
어야할	-11.5944
▁시점에서	-11.5944
▁추천해주고	-11.5947
▁브레	-11.5947
탈출	-11.5948
재밌었음	-11.5948
▁친일	-11.5948
ab	-11.595
79	-11.5951
▁개실망	-11.5951
잘봤어요	-11.5953
조폭	-11.5956
▁누구냐	-11.5956
▁최악이었다	-11.5958
▁한국식	-11.5958
흥미	-11.5959
할아버지	-11.5961
▁바꿔라	-11.5962
▁어색해서	-11.5963
▁고대	-11.5963
▁평타	-11.5963
▁어렵게	-11.5964
▁좋아하던	-11.5966
▁해피엔딩으로	-11.5967
▁깨달	-11.5968
▁추천해요	-11.5968
▁곁에	-11.597
▁또한번	-11.5972
실제로	-11.5973
▁무시하고	-11.5973
▁거시기	-11.5976
007	-11.5976
버리면	-11.5978
했을듯	-11.5979
▁말대로	-11.598
레알	-11.5986
좋았던	-11.5989
▁유치하지	-11.5989
허접한	-11.5993
▁존재하지	-11.5993
방금	-11.5999
왜이렇게	-11.6001
▁찍어라	-11.6002
많은데	-11.6002
예쁘고	-11.6004
▁표현된	-11.6006
공연	-11.6009
봐야겠다	-11.6009
▁쩔고	-11.6018
ap	-11.6019
▁피트	-11.6021
▁화장	-11.6023
▁싫어서	-11.6025
▁예술이다	-11.6026
부담없이	-11.6027
▁뻔뻔한	-11.6028
울리	-11.603
▁허술함	-11.6035
▁코믹연기	-11.6037
▁국민들	-11.6039
▁생각남	-11.6042
▁찾았	-11.6044
▁애쓴	-11.6045
워크	-11.607
지루하지	-11.6089
받음	-11.6096
하게만드는	-11.61
로썬	-11.6104
▁또다시	-11.6104
많네	-11.6111
닼ᄏᄏ	-11.6116
▁-1	-11.612
▁어이없어	-11.6121
▁붙잡	-11.6121
▁죽을때	-11.6126
울었다	-11.6127
블리	-11.6131
▁전문가들	-11.6137
할수없다	-11.6141
햇으면	-11.6147
보게된	-11.6147
조작	-11.6148
▁마시고	-11.6151
▁김태	-11.6162
하시네	-11.6165
▁맞지만	-11.6166
▁잔인하다	-11.6166
평론가들은	-11.6168
▁망쳤	-11.6169
▁흔하	-11.6169
▁여자배우	-11.6172
▁경찰들	-11.6172
달려	-11.6175
▁아까울정도	-11.6176
▁늘어놓	-11.618
▁만났다	-11.6182
추억돋	-11.6182
잘어울려	-11.6183
▁잠들었	-11.6185
▁오랫만	-11.6187
터지고	-11.6204
df	-11.6206
저러	-11.6207
없습니다	-11.622
ver	-11.6229
줄께	-11.6232
▁과대평가	-11.624
얀	-11.624
▁다가왔	-11.6241
세력	-11.6243
▁위안	-11.6245
뱃	-11.6245
힙	-11.6245
웁	-11.6245
▁브래드	-11.6245
▁빈디젤	-11.6245
▁어쨋든	-11.6245
▁엄태웅	-11.6245
류승룡	-11.6245
^0^	-11.6245
▁안젤리나	-11.6245
쟤	-11.6245
▁숨막히는	-11.6245
▁어중간한	-11.6245
▁로멘스	-11.6245
▁유승호	-11.6245
▁김승우	-11.6245
▁꼽히는	-11.6245
▁장만옥	-11.6245
▁맛깔나	-11.6245
▁벅찬	-11.6245
▁제레미	-11.6245
▁풍부한	-11.6245
윤시윤	-11.6245
▁느꼇	-11.6245
▁멸망	-11.6245
▁삼국지	-11.6245
▁지독한	-11.6245
▁최선을	-11.6246
▁민주주의	-11.6246
▁쪽바리	-11.6246
▁저지른	-11.6246
▁맥라이언	-11.6246
▁테스트	-11.6246
▁기가막히	-11.6246
▁스탠	-11.6247
▁눈물샘	-11.6248
▁워킹	-11.6248
▁바꿀	-11.6248
▁오래오래	-11.6248
▁흔하디	-11.6249
▁슬플	-11.6249
▁얻은	-11.6249
▁저버리지	-11.6249
1,2	-11.6249
▁쇼킹	-11.6249
▁위안부	-11.625
▁볼까말까	-11.6251
▁감동적이예요	-11.6252
▁흘릴	-11.6252
▁즐길수	-11.6252
▁욕나옴	-11.6253
▁정신세계	-11.6253
if	-11.6253
out	-11.6253
▁찍었을까	-11.6253
었더라면	-11.6253
▁관광	-11.6253
▁대략	-11.6255
▁전반적	-11.6255
▁살아간다	-11.6255
▁최강희	-11.6256
▁명곡	-11.6257
~~~~~~~~~~~	-11.6257
▁두렵	-11.6257
▁애절하	-11.6258
▁행복했습니다	-11.6259
▁물결	-11.626
▁2007	-11.626
거슬려	-11.626
▁어쩔수없이	-11.6261
▁반복되는	-11.6261
과함께	-11.6262
▁돈들여	-11.6263
▁은행	-11.6263
▁남자친구	-11.6264
졸려	-11.6265
▁형태	-11.6265
▁국제	-11.6267
토크	-11.627
▁고집	-11.6271
▁화내	-11.6271
▁기발하고	-11.6272
▁만행	-11.6272
▁잼따	-11.6273
▁떠오	-11.6273
▁안가네요	-11.6274
▁어지러	-11.6274
▁일깨워준	-11.6274
▁산타	-11.6275
▁오줌	-11.6276
▁그러니까	-11.6278
▁괜찮아요	-11.6279
▁(10	-11.628
▁베끼	-11.628
할께요	-11.6281
▁아이디	-11.6282
▁보시고	-11.6283
▁말하려고	-11.6283
▁걸릴	-11.6284
▁결혼식	-11.6284
▁갈리는	-11.6286
편안하게	-11.6286
▁어쩌구	-11.6286
라는것을	-11.6287
▁지루했던	-11.6288
▁금치	-11.629
▁이건아니다	-11.629
무서움	-11.6291
▁충격적이다	-11.6291
운명	-11.6293
▁재미없던데	-11.6294
▁두가지	-11.6297
▁흥미진진하게	-11.6299
▁부실한	-11.6299
우면서도	-11.63
졌는데	-11.6301
뷰티	-11.6303
▁건달	-11.6304
리들리	-11.6304
▁무한한	-11.6304
해주시	-11.6306
땀	-11.6306
짤	-11.6307
▁공간에서	-11.6307
및	-11.6307
흥미진진	-11.6308
전형적인	-11.6309
충분히	-11.6309
리얼하게	-11.6309
▁다시보기로	-11.6309
뱀	-11.631
유덕화	-11.6311
이정도면	-11.6311
졸잼	-11.6313
▁과하게	-11.6314
씁쓸	-11.6315
아무것도	-11.6317
▁덮어	-11.6317
모험	-11.632
했는가	-11.6323
▁제공	-11.6324
표절	-11.6325
▁저격	-11.6326
▁서른	-11.6327
▁없으면서	-11.6327
민족	-11.6329
을꺼같	-11.6331
떡칠	-11.6332
▁바뀌고	-11.6335
역사상	-11.6335
행위	-11.6342
▁재판	-11.6345
▁않았다면	-11.6349
줄려고	-11.6352
안나옴	-11.6353
재밌습니다	-11.6356
▁유치하게	-11.6358
▁현상	-11.6362
▁그럴듯한	-11.6362
▁볼수없는	-11.6366
▁생각하니	-11.6368
▁성의없	-11.6369
▁되돌아보게	-11.6373
▁잘봤음	-11.6373
귀엽다	-11.6373
해야겠다	-11.6382
▁눈빛연기	-11.6385
▁잠이나	-11.6389
하고자하는	-11.6394
1990	-11.6396
댄다	-11.6399
▁따분하	-11.6399
▁행복하다	-11.6403
해야할지	-11.6404
볼수없	-11.6408
지루해서	-11.6415
▁오른	-11.6418
▁고등학교때	-11.6419
▁고쳐	-11.6421
주시길	-11.6423
▁늘리	-11.6425
장진영	-11.6427
배역	-11.643
▁고개	-11.6441
▁패기	-11.6443
마루	-11.6444
▁주저	-11.6444
▁미치겠	-11.6444
▁설명할	-11.6446
양심	-11.6452
▁이루어지	-11.6454
▁싸울	-11.6456
미쳤	-11.6462
그렇다고	-11.6464
특선	-11.6465
속편	-11.6479
좋겠어요	-11.6479
얘긴	-11.6481
▁그것뿐	-11.6484
▁고기	-11.6499
▁느껴야	-11.6504
재밋엇	-11.6506
▁바비	-11.6509
▁안쓰러	-11.6519
▁한국인들	-11.6519
▁쓸쓸	-11.6522
▁비극적인	-11.6524
▁돈아까운	-11.653
나오더라	-11.6532
▁되려	-11.6538
▁않기	-11.6539
장면에선	-11.6539
▁추적	-11.6548
보셨	-11.655
만들어서	-11.6551
중엔	-11.6554
닼ᄏᄏᄏ	-11.6562
▁데뷔	-11.6569
귀엽	-11.6578
학교에서	-11.6587
보는것	-11.6588
절대보지마	-11.6592
▁후속	-11.6594
▁가고싶	-11.6595
▁이렇	-11.6597
▁설득	-11.6609
챙	-11.6612
뺨	-11.6612
럿	-11.6614
텀	-11.6615
뎌	-11.6615
띵	-11.6615
▁베토벤	-11.6616
▁에니메이션	-11.6616
▁연쇄살인	-11.6616
乃	-11.6616
댔	-11.6616
뛴	-11.6616
앳	-11.6616
ᄋᄉᄋ	-11.6616
ᅣ	-11.6616
▁초콜릿	-11.6616
▁코스트너	-11.6616
쑈	-11.6616
융	-11.6616
▁낄낄	-11.6616
반지의제왕	-11.6616
빽	-11.6616
▁김민희	-11.6616
▁파트너	-11.6616
지니어스	-11.6616
▁담백한	-11.6616
▁어우러져	-11.6616
▁이슬람	-11.6616
▁조재현	-11.6616
★★★	-11.6616
▁멈출	-11.6616
▁박정희	-11.6616
▁왜이러냐	-11.6616
뎈	-11.6616
▁고릴라	-11.6616
▁지못미	-11.6616
▁무관심	-11.6616
▁김규리	-11.6616
▁다녀온	-11.6616
▁싼티	-11.6616
▁빵터졌	-11.6616
▁부성애	-11.6616
▁흔해빠진	-11.6616
▁밉상	-11.6616
▁벅차	-11.6616
▁추격전	-11.6616
>_<	-11.6616
▁안무섭고	-11.6616
▁다케시	-11.6616
▁기대했건만	-11.6616
지망생	-11.6616
▁흔치	-11.6616
박시후	-11.6617
▁끼워넣	-11.6617
▁하루하루	-11.6617
▁ᄌᄅ	-11.6617
▁교도소	-11.6617
▁ᄉᄀ	-11.6617
▁밀려오는	-11.6617
▁누굴	-11.6618
▁충족	-11.6618
▁별점테러	-11.6618
ᄅᄅ	-11.6619
▁펼치	-11.6619
▁완존	-11.6619
▁놓칠	-11.6619
하신분들	-11.662
▁괴롭히	-11.6621
▁코믹요소	-11.6623
▁우울증	-11.6623
▁청순	-11.6623
▁봤더만	-11.6623
▁수준낮은	-11.6624
▁잔잔히	-11.6624
▁친일파	-11.6624
▁고딩때	-11.6624
▁자극적이고	-11.6625
▁창문	-11.6625
▁제외하면	-11.6627
▁다섯개	-11.6628
▁4000	-11.6628
▁열받아서	-11.6629
▁담겨져	-11.6631
▁르네	-11.6631
▁얻는	-11.6631
▁궁금하네요	-11.6631
▁연락	-11.6631
▁나았습니다	-11.6632
▁아니더라도	-11.6632
▁조잡하다	-11.6633
▁명절	-11.6633
▁개쩐다	-11.6633
▁세번째	-11.6633
노력	-11.6634
▁유해진	-11.6634
▁나아가	-11.6634
▁어찌보면	-11.6635
▁훌륭합니다	-11.6636
▁생김	-11.6636
▁왕따	-11.6638
▁되고싶	-11.6639
▁안타깝지만	-11.6639
▁되버린	-11.6639
78	-11.6639
▁약자	-11.664
▁싶어지는	-11.664
▁키스신	-11.6641
▁봤던건데	-11.6645
▁매력있고	-11.6645
▁무튼	-11.6647
밖으로	-11.6647
햇어요	-11.6649
▁올려주	-11.665
▁예상되는	-11.665
점줍니다	-11.665
▁대립	-11.665
▁그래두	-11.6651
▁잉여	-11.6651
▁가난한	-11.6653
▁재밌구만	-11.6654
▁눈물나는	-11.6659
▁고루	-11.666
▁오랜만이네	-11.6663
▁파격	-11.6663
▁기절	-11.6664
▁퀴어영화	-11.6665
▁이러냐	-11.6666
궁금하	-11.6666
▁글쓰	-11.6667
mc	-11.6667
▁이상형	-11.667
▁거친	-11.6671
▁달달하고	-11.6671
▁보았네요	-11.6674
▁기대됨	-11.6675
▁별로였던	-11.6676
▁여전사	-11.6677
▁궁금하게	-11.6679
▁금발	-11.6681
뿌려	-11.6682
▁호화	-11.6684
▁배제	-11.6684
▁구림	-11.6685
▁감동이에요	-11.6686
▁촌스럽다	-11.6687
▁오늘날	-11.6687
▁이쁘네요	-11.6688
▁마니아	-11.6688
밝	-11.669
쯧쯧	-11.669
▁따분한	-11.669
잭	-11.6692
헬	-11.6692
훨	-11.6692
펑펑	-11.6692
해피엔딩	-11.6693
독특한	-11.6693
로맨틱	-11.6693
아닐까	-11.6693
모르겠음	-11.6695
연속	-11.6695
▁세명	-11.6695
▁있다는걸	-11.6696
확실	-11.6697
재미있었어요	-11.6697
▁최신	-11.6699
▁기대하며	-11.6699
▁망쳐놨	-11.6699
▁기반	-11.67
멋져	-11.6701
▁지능	-11.6701
벌써	-11.6701
▁전달하는	-11.6702
▁아쉬운건	-11.6703
??????	-11.6705
▁들으면	-11.6705
▁근대	-11.6705
▁자극적이지	-11.6707
▁흥미진진하다	-11.6707
볼가치	-11.6708
▁되겠다	-11.671
▁안나왔으면	-11.6712
▁산만하다	-11.6712
더구만	-11.6715
부모님	-11.6717
욕망	-11.6719
나왔음	-11.6724
반복	-11.6724
▁욕나오	-11.6725
▁이렇지	-11.6725
▁알았네요	-11.6726
▁허비	-11.6731
▁쫓아	-11.6736
▁세련되	-11.6738
,,,,,	-11.6741
▁주다니	-11.6741
실제	-11.6749
낚시	-11.6749
적이면서도	-11.6749
재밌는영화	-11.675
▁악당들	-11.6753
▁절절	-11.6754
있길래	-11.6756
좋았는데	-11.676
탄생	-11.6763
▁문명	-11.6765
▁오버연기	-11.677
▁압도적	-11.6773
필드	-11.6774
사이트	-11.6774
▁짜증날	-11.6776
▁강요하는	-11.6776
년뒤	-11.6787
ia	-11.679
est	-11.6793
▁민망해	-11.6793
세월호	-11.6796
▁웃긴데	-11.6796
이미지	-11.6798
▁안들었	-11.68
마지막장면	-11.68
▁슬프기도	-11.6805
▁독특함	-11.6814
여러분	-11.6819
순수한	-11.6828
경험	-11.683
기위해서	-11.6836
였을까	-11.6844
▁똥망	-11.6868
▁좋던데	-11.6892
▁강남	-11.6896
▁상황들	-11.6901
▁당할	-11.6901
▁잔인하지도	-11.6901
에로영화	-11.6904
ion	-11.6905
▁재밌으면	-11.6914
▁보여줘야	-11.6916
▁촌스럽	-11.6927
게이트	-11.6937
라더니	-11.6942
영화중하나	-11.6945
겠구나	-11.6949
▁좋겠네	-11.6955
▁스펙타클	-11.6958
▁재밌더라	-11.6962
었으나	-11.6965
하기위해	-11.6977
흑흑	-11.6978
떤	-11.6982
교사	-11.6988
▁되어버렸	-11.6991
훔	-11.6996
병헌	-11.6997
꿨	-11.6998
낌	-11.6998
튜	-11.6999
옵	-11.6999
덥	-11.6999
뵈	-11.7
▁하지마루요	-11.7
빔	-11.7
▁꾸준히	-11.7
▁드릅게	-11.7
▁막무가내	-11.7
▁불우이웃	-11.7
▁샌들러	-11.7
▁스칼렛	-11.7
▁쒸레기	-11.7
▁쥬라기공원	-11.7
▁쿠엔틴	-11.7
▁히틀러	-11.7
겜	-11.7
낱	-11.7
멕	-11.7
셜	-11.7
쓰잘데기	-11.7
핡	-11.7
▁성냥팔이	-11.7
▁어쩐지	-11.7
▁움직임	-11.7
▁힐러리	-11.7
뺴	-11.7
쌔	-11.7
▁마동석	-11.7
▁어울림	-11.7
▁손오공	-11.7
▁디아즈	-11.7
▁브라이언	-11.7
▁장동민	-11.7
▁차인표	-11.7
▁파치노	-11.7
▁월드컵	-11.7
▁극대화	-11.7
♬	-11.7
▁지상파	-11.7
▁상업성	-11.7
▁대기업	-11.7
▁루즈한	-11.7
▁애잔한	-11.7
▁초월한	-11.7
▁역겨웠	-11.7001
▁웨스턴	-11.7001
▁호프만	-11.7001
▁따스한	-11.7001
▁침략	-11.7001
▁좌좀	-11.7001
▁브금	-11.7001
▁깔깔	-11.7001
▁여태껏	-11.7001
▁안주는데	-11.7002
▁푹빠져	-11.7002
▁잘어울리는	-11.7002
▁빈틈	-11.7002
▁6.5	-11.7002
▁도가니	-11.7003
▁유익한	-11.7003
▁남깁니다	-11.7003
▁내생의	-11.7004
▁여운이남는	-11.7004
▁바램	-11.7004
▁주지훈	-11.7004
사탕	-11.7004
▁흑형	-11.7005
▁새로울	-11.7005
▁원초적	-11.7005
▁1980	-11.7005
▁탈락	-11.7007
▁기다린	-11.7007
▁기괴하	-11.7008
▁애잔하	-11.7008
▁안가네	-11.7008
▁처벌	-11.7008
▁동화책	-11.7008
▁트렌	-11.7008
▁똥싸	-11.7009
▁녹아있는	-11.701
▁있었으나	-11.7011
▁아침부터	-11.7012
▁위대하다	-11.7013
▁적절하게	-11.7013
▁충동	-11.7013
▁감정연기	-11.7013
▁오래도록	-11.7014
▁평점조작	-11.7014
▁감상평	-11.7014
▁지루했고	-11.7015
>_	-11.7016
▁웃기려고	-11.7016
▁재벌	-11.7017
▁개망작	-11.7017
▁맡았	-11.7017
▁느껴져서	-11.7017
▁작업	-11.7017
▁안무서움	-11.7017
▁몇년전에	-11.7018
탐험	-11.7021
▁반짝	-11.7021
해주셔서	-11.7024
▁유치하긴	-11.7024
▁계단	-11.7024
▁양키	-11.7024
▁죠스	-11.7024
▁한두번	-11.7025
▁그립네요	-11.7026
▁후회된다	-11.7028
▁타입	-11.7029
▁쩔었	-11.703
▁마이크	-11.7031
▁불교	-11.7032
▁기본적인	-11.7032
▁이유없이	-11.7034
▁보낼	-11.7034
▁안좋아하는데	-11.7034
▁쓸쓸한	-11.7035
▁제맛	-11.7036
▁느껴지네요	-11.7036
▁전투신	-11.7038
되어있는	-11.704
남친	-11.7041
▁그저그렇	-11.7042
▁싶었음	-11.7042
▁불쌍함	-11.7042
▁찾아가는	-11.7044
▁엄마한테	-11.7047
▁낚였어	-11.7047
▁관객들에게	-11.7048
▁그곳	-11.7049
▁머피	-11.705
▁중심으로	-11.7052
안됐	-11.7052
덕화	-11.7055
▁선사하는	-11.7057
▁꽝이다	-11.7058
▁보시라	-11.706
▁편히	-11.7061
개막장	-11.7066
▁벌레	-11.7067
▁진지하고	-11.707
보여줘서	-11.7071
▁않길	-11.7072
됬으면	-11.7072
▁압권이다	-11.7073
▁입가에	-11.7073
▁빌려서	-11.7075
ᅲᅲᅲᅲᅲᅲᅲᅲ	-11.7075
▁들어가서	-11.7077
▁부드럽	-11.7078
생명체	-11.7078
킬링타임용	-11.7078
지않을까	-11.7079
▁필모	-11.708
▁세심	-11.7086
▁오열	-11.7087
▁백번	-11.7088
같으면서도	-11.7089
옛	-11.709
?????????	-11.709
어설프	-11.7091
▁개명작	-11.7092
43	-11.7092
▁치부	-11.7093
견자단	-11.7093
아쉬운	-11.7093
핵노잼	-11.7094
짱짱맨	-11.7095
스트레스	-11.7096
예뻐	-11.7096
▁알차	-11.7098
나머지	-11.7101
케빈	-11.7105
▁허영	-11.7106
구멍	-11.7108
바꾸	-11.7108
일텐데	-11.7108
짜증남	-11.7109
유럽	-11.7111
모여서	-11.7113
▁약속	-11.7115
많아서	-11.7115
무서웠던	-11.7116
라이언	-11.7116
그럴	-11.7116
생각나서	-11.7118
조합	-11.713
▁재미없으면	-11.7141
무술	-11.7141
않았지만	-11.7146
▁떨어졌다	-11.7153
▁sm	-11.7155
▁씁쓸함	-11.7163
▁담으려	-11.7165
재미있네요	-11.7166
▁댓글들	-11.7167
▁알아보	-11.7169
시간반	-11.7173
악당	-11.7174
▁신발	-11.7176
▁만들까	-11.7179
▁미치게	-11.7188
연희	-11.7196
▁이루어진	-11.7197
끝난	-11.7201
논리	-11.7201
애미	-11.7205
사람이라면	-11.7207
▁전하고자	-11.7209
▁화제	-11.7228
▁선교	-11.7233
▁따르	-11.7234
▁전작보다	-11.7235
▁가슴속에	-11.724
거늘	-11.7241
▁느껴져	-11.7251
ang	-11.7253
▁알게되었	-11.7256
향수를	-11.7263
▁누구보다	-11.7269
듣기싫	-11.7285
곁	-11.7306
▁청소년들	-11.7308
여운이남	-11.7312
놓았다	-11.7313
▁소중함	-11.7337
▁징징	-11.7358
▁보아야	-11.736
▁출연자들	-11.7363
▁유명배우	-11.7367
▁담백하	-11.7378
부른	-11.7379
▁줬어	-11.7383
륙	-11.7396
툭	-11.7397
쿄	-11.7398
줍	-11.7399
긁	-11.74
캅	-11.74
▁거슬렸	-11.74
▁류덕환	-11.74
▁맙소사	-11.74
▁쌈마이	-11.74
▁안드로메다	-11.74
▁에반게리온	-11.74
▁역겨움	-11.74
▁콜린퍼스	-11.74
꺽	-11.74
떴	-11.74
욘	-11.74
힝	-11.74
ᅧ	-11.74
▁ᄊᄅᄀ	-11.74
▁박유천	-11.74
▁불러일으키	-11.74
▁샤말란	-11.74
▁일으킨	-11.74
無	-11.74
꿉	-11.74
낰	-11.74
떳	-11.74
캣	-11.74
햄	-11.74
▁디비디	-11.74
▁못만드나	-11.74
▁문채원	-11.74
▁의학드라마	-11.74
아닙니까	-11.74
▁유부녀	-11.74
▁초호화	-11.74
댜	-11.74
▁강예원	-11.74
▁베드씬	-11.74
▁쥬라기	-11.74
▁짜릿함	-11.74
▁전반부	-11.74
뿐만아니라	-11.74
▁미묘한	-11.74
▁불끄고	-11.74
▁하이라이트	-11.74
▁장선우	-11.74
▁리부트	-11.74
▁빠르기	-11.74
▁과언이	-11.74
▁무한도전	-11.74
▁치밀어	-11.74
▁up	-11.7401
▁민주화	-11.7401
▁프리퀄	-11.7401
▁갱스터	-11.7401
▁이문식	-11.7401
▁김보성	-11.7401
▁안소니	-11.7401
▁한니발	-11.7401
▁지껄이	-11.7402
▁수식어	-11.7402
▁성폭행	-11.7402
▁웃음코드	-11.7403
▁된장녀	-11.7403
▁음모론	-11.7403
▁이정진	-11.7403
▁은은한	-11.7403
▁축복	-11.7403
누구에게나	-11.7404
보는편인데	-11.7404
▁환영	-11.7404
▁이럴수가	-11.7405
▁구지성	-11.7405
▁돋았다	-11.7405
▁두말할	-11.7406
▁이요원	-11.7406
▁감안해도	-11.7406
▁속시원	-11.7406
▁파격적인	-11.7406
▁일일드라마	-11.7406
▁비춰	-11.7407
▁주제곡	-11.7407
▁지친	-11.7407
있으니	-11.7408
▁휴먼	-11.7408
▁몸짓	-11.7409
▁뻔하디	-11.741
▁뭐이리	-11.7412
▁따듯해	-11.7413
▁생각됩니다	-11.7413
▁재미없었어요	-11.7414
▁투입	-11.7414
▁불과하다	-11.7415
▁주셔서	-11.7416
▁심은하	-11.7416
▁현대판	-11.7417
▁추석	-11.7418
▁간절	-11.7418
▁쓰레기통에	-11.7419
▁짜증났음	-11.7419
▁울버린	-11.742
▁루크	-11.742
▁있도록	-11.742
▁살아갈	-11.7421
▁사랑스러움	-11.7421
▁조롱	-11.7422
▁모르겠습니다	-11.7423
▁맞먹는	-11.7424
▁알려지지	-11.7424
▁좋았을걸	-11.7424
▁부패	-11.7424
▁좋겠음	-11.7426
모아서	-11.7426
▁진출	-11.7426
▁압도적인	-11.7427
영애씨	-11.7428
▁자신에게	-11.7429
▁사랑얘기	-11.7431
▁잃게	-11.7431
▁소련	-11.7431
▁소름돋았다	-11.7432
▁기대하고봤는데	-11.7434
▁돌아갈	-11.7434
▁교훈적인	-11.7435
▁알고싶다	-11.7435
▁보았어요	-11.7435
hh	-11.7435
▁한마리	-11.7436
▁말장난	-11.7437
▁보여지는	-11.7437
▁부끄럽지	-11.7437
▁어처구니없는	-11.7437
▁헷갈리	-11.7438
▁괜찮았지만	-11.7438
▁잠재	-11.7439
▁아름답네요	-11.744
▁자료	-11.744
▁징징대	-11.7444
▁완벽했다	-11.7444
▁건질게	-11.7445
▁떨어지네요	-11.7446
팬들	-11.7446
욬	-11.7448
▁방황하는	-11.745
▁안보길	-11.7453
▁해설	-11.7455
▁구입	-11.7458
▁바보같은	-11.746
▁실화라고	-11.7461
▁볼만했던	-11.7461
▁가난	-11.7462
▁어느하나	-11.7463
▁해주네요	-11.7463
넘넘	-11.747
▁애들한테	-11.747
▁팬이지만	-11.7482
해야할듯	-11.7483
▁전문가평점	-11.7491
▁강렬하	-11.7492
손가락안에	-11.7493
▁보러갔	-11.7494
▁별볼일	-11.7497
싹	-11.7502
▁만들었음	-11.7503
뚫	-11.7507
▁재밋던데	-11.7508
▁궁금함	-11.7509
연예인	-11.751
뭥미	-11.751
솔직	-11.7511
재밌게봤어요	-11.7512
폭행	-11.7513
예쁜	-11.7513
▁보시기	-11.7515
▁우롱하는	-11.7516
섹시	-11.7517
▁분류	-11.7517
▁빠순이	-11.7521
엄청난	-11.7523
다운받아	-11.7525
변태	-11.7528
거기다	-11.7528
없다는게	-11.7529
ay	-11.7529
없었던	-11.7529
영혼을	-11.753
▁재즈	-11.7533
부탁	-11.7536
입장에서	-11.7539
▁느낀점	-11.7547
▁안되겠	-11.7548
분량	-11.7553
▁개연성없는	-11.7557
▁진행되	-11.756
▁황당함	-11.756
▁까먹	-11.7563
67	-11.7566
▁ever	-11.7566
▁터무니없	-11.7573
▁얼마전	-11.7573
혁명	-11.7574
남자주인공	-11.7577
ks	-11.7584
▁심판	-11.7585
안본다	-11.7586
거같네	-11.7587
줄아나	-11.7589
--;;	-11.7599
▁만족스럽	-11.76
욕심	-11.7604
순수하게	-11.7607
▁다른분들	-11.7611
▁따라하기	-11.7622
같으면	-11.7623
▁비약	-11.7632
막판	-11.7634
마지막회	-11.7635
▁불쾌함	-11.7645
ᅲᅲᅲᅲᅲᅲᅲ	-11.7646
▁비평	-11.765
ᄒᄒᄒᄒᄒ	-11.7658
▁양반	-11.7661
ᅲᅲᅲᅲᅲᅲᅲᅲᅲᅲᅲᅲᅲᅲᅲᅲ	-11.7673
▁괴수영화	-11.7674
축구	-11.7682
▁말하고자하는	-11.7686
▁소녀들	-11.7694
것뿐	-11.7703
해달라	-11.7717
만들었는지	-11.7717
▁못찾	-11.772
버리고싶	-11.7724
▁시시하다	-11.7729
▁저딴	-11.7744
뤄	-11.7761
왔으면	-11.7765
와함께	-11.7769
▁떠올리	-11.7789
봐야되	-11.779
▁wh	-11.7804
볍	-11.7806
펙	-11.7808
▁외계	-11.7812
믹	-11.7813
맙	-11.7815
맴	-11.7816
▁삽입	-11.7816
첼	-11.7817
박스오피스	-11.7817
“	-11.7817
▁곽지민	-11.7817
▁구로사와	-11.7817
▁데스노트	-11.7817
▁레즈비언	-11.7817
▁미성년자	-11.7817
▁시덥잖은	-11.7817
▁워싱턴	-11.7817
▁킹왕짱	-11.7817
▁트라우마	-11.7817
、	-11.7817
뇬	-11.7817
뿅	-11.7817
샴	-11.7817
쉘	-11.7817
키아누리브스	-11.7817
해피앤딩	-11.7817
▁골때리는	-11.7817
▁방어율	-11.7817
게리올드만	-11.7817
BGM	-11.7817
▁not	-11.7817
▁this	-11.7817
▁리차드	-11.7817
▁총격전	-11.7817
▁박물관	-11.7817
▁알렉스	-11.7817
▁앨리스	-11.7817
케스팅	-11.7817
▁바이올린	-11.7817
▁저렴한	-11.7817
곽부성	-11.7817
▁올리비아	-11.7817
→	-11.7817
▁인디아나	-11.7817
▁획기적	-11.7817
▁정확한	-11.7817
▁노다메	-11.7817
▁길들여	-11.7817
▁억압	-11.7817
▁나뿐인가	-11.7817
▁비둘기	-11.7817
썸띵	-11.7817
▁소장가치	-11.7817
▁숀펜	-11.7817
▁기다림	-11.7817
▁케로로	-11.7817
▁배두나	-11.7817
유재석	-11.7817
▁김수미	-11.7817
▁추격씬	-11.7818
▁예지원	-11.7818
▁이경영	-11.7818
▁쉴드	-11.7818
▁이수근	-11.7818
라운드	-11.7818
칩니다	-11.7818
▁제시카알바	-11.7818
▁강원도	-11.7818
▁시간가는줄모르고	-11.7818
▁스무살	-11.7818
▁곤란	-11.7818
▁블루레이	-11.7818
▁가르침	-11.7818
▁챙기	-11.7819
▁낯설	-11.7819
혈압	-11.7819
▁촌스러움	-11.7819
▁인디언	-11.7819
▁닌자	-11.782
퍼센트	-11.782
▁for	-11.782
▁찐한	-11.7821
▁나올법한	-11.7821
▁대륙	-11.7821
▁시어머니	-11.7821
▁디젤	-11.7822
▁전달하려는	-11.7822
▁흘러나오는	-11.7822
▁Bad	-11.7823
▁순간순간	-11.7824
▁근친	-11.7824
케이온	-11.7824
▁집합	-11.7825
바퀴	-11.7825
????????????????	-11.7825
▁증오	-11.7826
▁보게되었는데	-11.7827
▁정신병원	-11.7828
▁닭살	-11.7828
▁풍기는	-11.7829
▁특색	-11.7829
▁마스터	-11.7829
소린지	-11.7829
ᄒᄃᄃ	-11.783
▁절실	-11.783
▁소유진	-11.7832
▁관련된	-11.7833
▁교양	-11.7833
▁명언	-11.7833
켈리	-11.7834
▁제미있	-11.7836
▁이제껏	-11.7837
▁좋겠는데	-11.7838
죽는줄알았다	-11.7838
▁비교된다	-11.7839
▁반가웠	-11.784
▁녹음	-11.7843
▁아니자나	-11.7843
▁갈망	-11.7844
▁쿠바	-11.7845
▁눈물나게	-11.7847
▁사골	-11.7848
▁격투씬	-11.7848
▁알려진	-11.7849
▁이기심	-11.785
▁돌프	-11.7851
▁놀랍네요	-11.7851
▁윤재	-11.7851
▁아쉬울뿐	-11.7853
▁좋은소재	-11.7854
환희	-11.7854
▁다좋은데	-11.7855
▁만들어놓고	-11.7856
▁종교적인	-11.7858
▁다있냐	-11.7858
▁싸워	-11.7861
▁다시보고싶다	-11.7862
▁하나씩	-11.7863
▁올라갈때	-11.7863
▁매력있다	-11.7864
▁지루하진	-11.7865
▁잼남	-11.7867
▁인공	-11.7868
징글	-11.787
▁들었던	-11.787
▁감안하고	-11.7871
굿굿굿굿	-11.7873
코리아	-11.7875
▁월화	-11.7878
▁건담	-11.7879
▁맛있는	-11.7881
▁맞나요	-11.7881
▁고난	-11.7882
갑시다	-11.7882
하니깐	-11.7883
찌르는	-11.7885
그놈의	-11.7885
▁루시	-11.7902
▁만들어버린	-11.7906
플레이	-11.7907
▁벗어난	-11.7913
빌려	-11.7913
▁참을수	-11.7922
▁보냈	-11.7926
알바생들	-11.7931
39	-11.7938
턱	-11.7942
헛	-11.7944
태어나서	-11.7944
푹	-11.7944
시트콤	-11.7944
컨셉	-11.7945
평범한	-11.7945
상당히	-11.7945
▁바보들	-11.7951
ᅲᅲᅲᅲᅲᅲ	-11.7959
po	-11.7959
할필요	-11.796
이따구	-11.7961
▁개쩔	-11.7963
킬링타임용으로	-11.7966
▁빌려봤	-11.7966
매력적인	-11.7969
그러냐	-11.7974
▁침대	-11.7975
▁흥미진진함	-11.7975
흘러	-11.7977
▁무시하는	-11.7979
▁나오겠지	-11.7983
▁뒷부분	-11.7983
딱히	-11.7984
지루했다	-11.7993
▁만드신	-11.7998
▁웃을수	-11.8
▁엉뚱	-11.8001
▁경력	-11.8006
떨어져	-11.8012
볼래	-11.8014
▁대표적	-11.8014
▁바라본	-11.8018
▁평범하지	-11.8021
배워	-11.8036
~~~~~~~~~~~~~~~~	-11.8039
본질을	-11.8045
▁걸맞	-11.8057
유발하는	-11.8067
▁풀어냈	-11.8068
안됌	-11.8074
da	-11.8079
딸리	-11.8079
님께서	-11.808
싫은데	-11.8096
매체	-11.8098
▁가깝	-11.811
시점에	-11.812
▁가능하다	-11.8121
보지마셈	-11.813
▁엔딩장면	-11.8136
▁대중성	-11.8137
마법사	-11.815
▁욕나오네	-11.816
있는척	-11.8175
▁몰입하기	-11.8177
볼수록	-11.8178
▁우울할때	-11.8181
수염	-11.8186
▁남겼	-11.8195
돈내고	-11.8196
▁문화적	-11.8198
결정적으로	-11.8198
▁틀림없	-11.8207
불량	-11.8217
▁봐야될	-11.822
거아님	-11.8225
asd	-11.8226
뿔	-11.8239
▁답습	-11.8246
꿔	-11.8246
▁예술이라	-11.8247
펼	-11.8248
맑	-11.8249
까말까	-11.8249
힛	-11.8252
긴급조치	-11.8252
돠	-11.8252
▁김옥빈	-11.8252
▁꾸역꾸역	-11.8252
▁러브레터	-11.8252
▁모자이크	-11.8252
▁성지순례	-11.8252
▁유튜브	-11.8252
▁주구장창	-11.8252
▁학예회	-11.8252
▁훌쩍	-11.8252
걔	-11.8252
뷁	-11.8252
풉	-11.8252
▁그로테스크	-11.8252
▁대리만족	-11.8252
▁오마쥬	-11.8252
쟝	-11.8252
홉	-11.8252
▁스티븐시걸	-11.8252
▁카메오	-11.8252
▁키드먼	-11.8252
얔	-11.8252
▁강우석	-11.8252
▁폰부스	-11.8252
언젠간	-11.8252
▁기묘한	-11.8252
▁밑도끝도	-11.8252
▁불멸의	-11.8252
▁킬빌	-11.8252
▁유준상	-11.8252
마스터피스	-11.8252
유루유	-11.8252
▁그이하도	-11.8252
▁빠짐없이	-11.8252
▁울트라	-11.8252
▁마녀사냥	-11.8252
▁박진영	-11.8252
▁섬세함	-11.8252
▁9~10	-11.8252
▁이자벨	-11.8252
차대전	-11.8252
▁심금을	-11.8252
비틀즈	-11.8252
▁정신차리	-11.8252
입니당	-11.8252
▁아쉬웠던	-11.8252
▁비참한	-11.8252
▁러닝	-11.8252
다닐때	-11.8252
▁인상깊었던	-11.8252
▁저능아	-11.8252
▁브라질	-11.8252
▁서태지	-11.8252
▁장백지	-11.8253
▁좁은	-11.8253
▁테러리스트	-11.8253
기억상실	-11.8253
▁아름다워요	-11.8253
▁비운의	-11.8253
▁개고생	-11.8253
▁맑은	-11.8253
▁명확하	-11.8253
▁안겨준	-11.8253
▁유대인	-11.8254
오션스	-11.8254
▁유머코드	-11.8254
▁바람둥이	-11.8254
▁크로우	-11.8254
▁제주도	-11.8254
▁세븐	-11.8255
▁어렸을땐	-11.8255
▁봤건만	-11.8255
▁자유롭	-11.8256
▁호랑이	-11.8256
▁김정은	-11.8256
▁1~2	-11.8256
▁절실히	-11.8256
▁바둑	-11.8256
▁함축	-11.8256
▁솔로	-11.8257
▁굿바이	-11.8257
▁시민들	-11.8257
▁보셨으면	-11.8258
▁산드라	-11.8258
▁꺼버린	-11.8258
▁공포스럽지	-11.8259
▁뜯어	-11.8259
▁0.1	-11.8259
▁감정표현	-11.826
▁신선했고	-11.826
▁미화시킨	-11.8261
▁취권	-11.8261
▁맥락	-11.8261
▁할말없다	-11.8262
▁친근	-11.8263
부탁드립니다	-11.8263
▁판치는	-11.8264
▁흠잡을데	-11.8264
▁때로는	-11.8265
▁무능력	-11.8265
▁말해준다	-11.8265
▁생각이든다	-11.8267
▁꾸며	-11.8267
▁따라올	-11.8268
▁인위적	-11.8268
▁볼수있어서	-11.8268
▁원한다면	-11.8268
▁기대되네요	-11.8268
▁기대안하고봤는데	-11.8269
▁망침	-11.8269
▁빌린	-11.8269
▁으악	-11.827
▁악행	-11.827
▁편향	-11.8271
▁에혀	-11.8273
▁않았어요	-11.8273
▁측면에서	-11.8273
▁첩보물	-11.8274
▁축하	-11.8276
▁첨보네	-11.8278
▁연예인들	-11.8279
▁담백하게	-11.828
▁동생이랑	-11.828
▁생각났다	-11.8283
▁패배	-11.8283
▁식당	-11.8283
▁바치는	-11.8284
▁들었어요	-11.8284
ᄒᄒᄒᄒᄒᄒᄒᄒ	-11.8287
▁연령	-11.8289
▁떨어져서	-11.8289
▁다음날	-11.829
▁허망	-11.8291
▁미숙	-11.8292
▁기름	-11.8294
▁생길	-11.8295
▁비슷해서	-11.8295
▁애환	-11.8297
울엇	-11.8297
▁투쟁	-11.8302
▁해주었	-11.8302
▁적당함	-11.8303
▁괜찮을듯	-11.8303
▁죽어가는	-11.8305
▁쳐다보	-11.8308
▁없죠	-11.831
ear	-11.8311
봐서그런지	-11.8315
▁짠하다	-11.8321
할꺼면	-11.8323
이게영화냐	-11.8327
▁누군가에게	-11.8331
////	-11.8333
▁섹시하다	-11.8333
▁라스트씬	-11.8333
봐야하나	-11.8337
▁시계	-11.8341
하셨어요	-11.8342
▁싫었	-11.8362
▁경이로	-11.8372
▁충실하	-11.8374
▁추구하는	-11.8385
▁돌아왔	-11.8385
▁훈훈함	-11.8388
싶었지만	-11.8392
괜	-11.8393
콘서트	-11.8396
고등학교	-11.8398
곧	-11.8398
대통령	-11.8399
캐릭	-11.8399
사투리	-11.8399
받을만한	-11.8399
이제서야	-11.8402
뛰어난	-11.8404
첫사랑	-11.8404
생기면	-11.8404
남아서	-11.841
다시한번	-11.8414
▁들어갔	-11.8419
쟁이들	-11.8424
재미있었다	-11.8426
재밌게봤는데	-11.8426
되었습니다	-11.8426
첨엔	-11.8427
1000	-11.8432
일어나	-11.8444
현실감	-11.8454
▁개허접	-11.8481
쓰는거	-11.8489
나올때마다	-11.8496
▁그러면서	-11.8497
▁전달되	-11.8503
넣어	-11.8505
▁잡혀	-11.8507
▁프레	-11.8513
하십니다	-11.8523
▁액션마저	-11.8524
▁지켜보	-11.8529
받았어요	-11.8536
뻔했네	-11.8542
▁지루하긴	-11.8552
하지못한	-11.8552
놓으면	-11.8555
채우기	-11.8567
앜ᄏ	-11.8593
동성애자	-11.8616
▁다섯손가락	-11.8621
04	-11.8625
됐네요	-11.8625
▁혼났	-11.8633
▁명감독	-11.865
▁출연배우들	-11.8653
▁바뀌어	-11.8665
누가봐도	-11.8668
토록	-11.8674
셨나요	-11.8679
▁복제	-11.8679
웩	-11.8704
릅	-11.8705
횡	-11.8706
쁠	-11.8706
인시디어스	-11.8706
챔피언	-11.8706
쾅	-11.8706
SBS	-11.8706
▁GOOD	-11.8706
▁bgm	-11.8706
▁꾸밈없	-11.8706
▁부끄러워	-11.8706
▁싱거운	-11.8706
▁싱크로율	-11.8706
▁왤캐	-11.8706
▁요근래	-11.8706
▁존쿠삭	-11.8706
▁짜맞춘	-11.8706
▁타임머신	-11.8706
▁흘렸다	-11.8706
딧	-11.8706
멧	-11.8706
첸	-11.8706
▁김창완	-11.8706
▁오다기리	-11.8706
꺾	-11.8706
잘어울림	-11.8706
▁밍밍	-11.8706
▁숭고한	-11.8706
▁오컬트	-11.8706
▁케서방	-11.8706
▁마모루	-11.8706
▁허니잼	-11.8706
꿰	-11.8706
▁김민준	-11.8706
▁김윤진	-11.8706
▁박진희	-11.8706
▁서커스	-11.8706
블러드	-11.8706
테일러	-11.8706
합니당	-11.8706
▁별론데	-11.8706
▁서정적인	-11.8706
오광록	-11.8706
>.<	-11.8706
▁빡침	-11.8706
▁오묘한	-11.8706
▁갇혀	-11.8707
▁탱크	-11.8707
▁깜짝깜짝	-11.8707
▁태어났	-11.8707
▁밑바닥	-11.8707
▁가문의	-11.8707
▁경상도	-11.8707
▁아낌없	-11.8707
▁다이빙	-11.8707
▁핑계	-11.8707
▁시사하는	-11.8707
▁뮤비	-11.8707
▁밀려온다	-11.8708
▁자연스레	-11.8708
▁연결고리	-11.8708
▁상태에서	-11.8708
▁관찰	-11.8708
▁마디로	-11.8708
▁어두워	-11.8709
▁우웩	-11.8709
▁또하나의	-11.8709
▁top	-11.8709
▁Best	-11.8709
▁부러워	-11.8709
▁개쩌는	-11.871
▁훔치	-11.871
중고딩	-11.871
▁흘러간다	-11.871
▁탱고	-11.8711
▁슬슬	-11.8711
▁1998	-11.8711
ER	-11.8712
▁배낀	-11.8712
십쇼	-11.8712
▁뭐하자는건지	-11.8713
▁무고한	-11.8714
▁변함없	-11.8715
개드림	-11.8715
▁이질감	-11.8715
▁잡탕	-11.8716
▁똥꼬	-11.8717
▁파고드	-11.8718
▁넘쳐나는	-11.8718
▁몇번을봐도	-11.8718
▁보고싶어지는	-11.8718
▁중학생때	-11.8718
▁잼있었어요	-11.8719
▁길거리	-11.8719
▁치킨	-11.8719
▁대다수	-11.8719
▁생겼다	-11.872
▁떨어질	-11.8724
▁만들던가	-11.8724
▁낚여	-11.8724
▁나옵니다	-11.8725
▁그토록	-11.8725
▁하찮	-11.8725
▁예상대로	-11.8726
▁막힌	-11.8726
▁다뤄	-11.8727
▁슬펐던	-11.8727
▁답없다	-11.8727
▁감추	-11.8727
▁간단하	-11.8728
▁전설적인	-11.8728
▁묻히	-11.8729
▁사람들에겐	-11.8732
▁쓸모	-11.8732
▁끝가지	-11.8732
▁초대박	-11.8733
▁특정	-11.8734
▁로즈	-11.8736
▁잤음	-11.8736
▁연기실력	-11.8737
싶지않다	-11.8738
주고싶지만	-11.8738
▁암유발	-11.8739
▁만점짜리	-11.8739
▁한국전쟁	-11.8742
▁말아먹었	-11.8743
뜨겁	-11.8745
▁알았어요	-11.8746
▁질리지않는	-11.8748
▁멋있어서	-11.8749
▁비슷비슷	-11.8755
▁참신하다	-11.8759
▁포스트	-11.876
▁교육용	-11.8762
▁믿으	-11.8764
▁짜장면	-11.8765
▁설계	-11.8765
▁극장판중	-11.8765
응징	-11.8767
▁아줌마들	-11.877
▁건드리	-11.8784
▁긴장되	-11.8789
하지말라	-11.8801
노릇	-11.8804
▁홀리	-11.8812
위안에	-11.8812
▁슬프면서	-11.8813
말았으면	-11.8832
섹	-11.8846
▁공허함	-11.885
▁본인들	-11.8852
▁이번편	-11.8857
▁이국적	-11.8857
▁같던데	-11.8862
▁비교되	-11.8866
보기싫어	-11.8868
킬링타임	-11.8869
손가락	-11.8873
뺏	-11.8874
임창정	-11.8874
자동차	-11.8874
커녕	-11.8874
시간가는줄	-11.8875
▁2~3	-11.8875
포르노	-11.8875
싸이코	-11.8875
리메이크	-11.8875
말도안되는	-11.8877
쓰렉	-11.8878
걱정	-11.8879
영혼	-11.8879
봣으면	-11.8879
멋짐	-11.8882
공룡	-11.8882
느낄수	-11.8883
상영관	-11.8884
호흡	-11.8884
볼땐	-11.8885
정서에	-11.8889
▁내마음	-11.8903
남긴다	-11.8905
아까울	-11.891
배경음악	-11.8915
▁게이들	-11.8943
▁웃기면서	-11.8943
▁잔혹함	-11.8953
2000	-11.8966
메이드	-11.8969
중에선	-11.8969
▁있을뿐	-11.8971
▁낭만적이	-11.898
풋풋	-11.9006
▁눈물흘리	-11.9013
되었음	-11.9021
>>	-11.9024
ell	-11.9037
별로였	-11.9042
했으며	-11.9048
▁원작만화	-11.9048
sf	-11.905
▁여성들	-11.9062
되었는지	-11.9062
▁재미없더라	-11.9068
것보단	-11.9079
▁뒤집	-11.9083
쩐	-11.909
죽을때까지	-11.9098
▁산만하	-11.912
▁과학적	-11.9123
욬ᄏᄏᄏ	-11.9125
부분들이	-11.9137
▁헷갈	-11.9138
▁군인들	-11.9146
봇	-11.9151
▁몰입할수	-11.9161
▁만드셨	-11.9161
▁살아가고	-11.9166
돈아까	-11.9174
보이네	-11.9175
숫	-11.9181
귓	-11.9182
펐	-11.9182
▁스마트폰	-11.9182
뚤	-11.9182
=_=	-11.9182
”	-11.9182
▁가물가물	-11.9182
▁거듭할수록	-11.9182
▁공상과학	-11.9182
▁드라큐라	-11.9182
▁아름다울	-11.9182
▁얄팍한	-11.9182
▁재활용	-11.9182
▁존트라볼타	-11.9182
▁코엔형제	-11.9182
▁프랭크	-11.9182
▁후레쉬맨	-11.9182
맬	-11.9182
읎	-11.9182
쪙	-11.9182
킷	-11.9182
퉷	-11.9182
훤	-11.9182
▁매혹적인	-11.9182
▁발버둥	-11.9182
▁송윤아	-11.9182
▁시퀀스	-11.9182
▁열린결말	-11.9182
▁재기발랄	-11.9182
필모그래피	-11.9182
▁에밀리	-11.9182
▁공산당	-11.9182
▁최수종	-11.9182
▁전두환	-11.9182
▁쿵푸	-11.9182
▁리브스	-11.9183
▁티라노	-11.9183
▁눈시울	-11.9183
▁여지껏	-11.9183
▁윤은혜	-11.9183
무삭제판	-11.9183
▁보너스	-11.9183
주걸륜	-11.9183
▁눈부신	-11.9183
▁모니카	-11.9183
▁팬심으로	-11.9183
▁포커스	-11.9183
▁민간인	-11.9183
▁스토커	-11.9183
▁왠만해서	-11.9183
▁앵간	-11.9183
▁견뎌	-11.9183
좋겟네요	-11.9183
신비롭고	-11.9183
▁바이블	-11.9183
▁삽질	-11.9183
▁오정세	-11.9183
▁하모니	-11.9183
log	-11.9183
▁롯데	-11.9183
▁옆집	-11.9183
:-)	-11.9183
▁시한부	-11.9183
▁싱크	-11.9183
오오오오	-11.9183
▁다운받았는데	-11.9183
▁순진한	-11.9183
▁스카이	-11.9184
▁훔쳐	-11.9184
▁화이트	-11.9184
▁아까웠음	-11.9184
홍경인	-11.9184
잠시나마	-11.9184
▁삼박자	-11.9185
▁느슨하	-11.9185
▁식겁	-11.9185
▁여럿	-11.9185
▁남아돌아	-11.9185
▁바꿨	-11.9185
공무원	-11.9185
▁훈훈해지는	-11.9185
▁꼽으라	-11.9186
▁무성영화	-11.9186
▁테마	-11.9186
▁허영심	-11.9187
▁늘어지고	-11.9187
▁우주전쟁	-11.9187
▁멍하니	-11.9187
▁초한지	-11.9188
▁1999	-11.9188
▁제이미	-11.9188
▁복싱	-11.9188
▁위협	-11.9188
▁봐야겠어요	-11.9189
▁숙제	-11.9189
▁총싸움	-11.9189
▁베껴	-11.919
▁이서진	-11.919
▁죄송하지만	-11.919
주신분들	-11.919
▁펼쳐지는	-11.919
▁유사라	-11.919
▁맘대로	-11.9191
▁복귀	-11.9191
▁고아라	-11.9192
▁전개방식	-11.9192
▁끊기는	-11.9192
▁보러갔는데	-11.9192
▁표출	-11.9192
▁싶더니	-11.9193
▁담배피	-11.9194
▁굴러	-11.9194
▁비현실적이고	-11.9195
▁추상적	-11.9195
▁두마리	-11.9195
▁무덤	-11.9196
한순간에	-11.9197
▁범작	-11.9197
▁빵터지	-11.9198
▁처절하게	-11.9199
▁놀라웠	-11.92
됐던	-11.92
▁즐거웠던	-11.9201
밧는데	-11.9201
▁따져	-11.9202
▁잼슴	-11.9202
▁문소리	-11.9202
▁온통	-11.9203
▁않으며	-11.9203
▁못보신	-11.9204
▁이외에	-11.9204
▁아파트	-11.9204
▁기본적으로	-11.9204
▁아이언	-11.9205
▁한국공포영화	-11.9206
▁울컥했다	-11.9207
▁스텝들	-11.9208
▁지루했지만	-11.9208
티켓	-11.921
새키들	-11.9212
▁무엇일까	-11.9216
빵빵터	-11.9217
▁아니었나	-11.9219
빠돌이	-11.9224
하랴	-11.9224
▁비참하	-11.9233
좋아하는사람	-11.9233
▁그녀들	-11.924
보고또봐도	-11.9246
▁면상	-11.9247
▁배신감	-11.9262
▁중반이후	-11.9265
▁일본인들	-11.9273
▁조선시대	-11.9273
하기전에	-11.9277
엌	-11.9284
▁교훈적이	-11.9297
▁빛난	-11.9305
pd	-11.9313
▁폭력적이	-11.9321
▁나이들어	-11.9331
▁감안하면	-11.9331
▁중국인들	-11.9333
한시도	-11.9337
가수들	-11.934
▁재미있겠	-11.9347
목숨	-11.9347
▁매력적이었	-11.9358
아카데미	-11.9372
맺	-11.9372
아쉬워요	-11.9374
우뢰매	-11.9374
씹	-11.9374
이소룡	-11.9375
초등학생	-11.9375
기독교	-11.9375
패러디	-11.9375
모르겠고	-11.9375
가볍게	-11.9376
블랙	-11.9376
스포츠	-11.9376
몇몇	-11.9377
청소년	-11.9377
심지어	-11.9378
스스로	-11.9379
확실히	-11.9381
갠적으로	-11.9381
▁딸아이	-11.9382
전체적으로	-11.9382
스크린	-11.9383
닥터	-11.9386
초딩때	-11.939
100%	-11.9393
못난이	-11.9406
해야할까	-11.9408
지마셈	-11.9412
▁싸울때	-11.9424
되어있다	-11.9432
무섭지도	-11.9438
액션씬	-11.9458
줄아는	-11.9461
▁촌스러	-11.9485
최상	-11.9485
때문인가	-11.9492
못본게	-11.9494
살다살다	-11.9504
만화책	-11.9552
▁we	-11.9557
베이비	-11.9568
엌ᄏᄏ	-11.9577
▁느껴보	-11.958
ᄋᄋᄋᄋ	-11.9611
▁고맙	-11.9624
충격적	-11.9652
밝혀지	-11.9652
죽이고싶	-11.966
드럽다	-11.9662
▁내용자체	-11.9664
볼게없	-11.9669
▁열받아	-11.9674
칫	-11.9679
탠	-11.968
욯	-11.9682
뭍	-11.9682
쫑	-11.9682
텨	-11.9682
핰	-11.9682
▁갑툭튀	-11.9682
▁고리타분	-11.9682
▁끝냈어야	-11.9682
▁동방불패	-11.9682
▁러셀크로우	-11.9682
▁불법체류자	-11.9682
▁섞여있	-11.9682
▁솔찍히	-11.9682
▁스나입스	-11.9682
▁스펙터클	-11.9682
▁시궁창	-11.9682
▁쌍벽을	-11.9682
▁액티비티	-11.9682
▁야마카시	-11.9682
▁업그레이드	-11.9682
▁에바그린	-11.9682
▁울부짖	-11.9682
▁조지클루니	-11.9682
▁천천히	-11.9682
▁클로즈업	-11.9682
▁페미니즘	-11.9682
갚	-11.9682
겔	-11.9682
괸	-11.9682
넴	-11.9682
댁	-11.9682
땔	-11.9682
밸	-11.9682
어드벤쳐	-11.9682
자이언트	-11.9682
쳣	-11.9682
핥	-11.9682
▁꽃미남	-11.9682
▁남녀노소	-11.9682
넉	-11.9682
▁디지털	-11.9682
▁비노쉬	-11.9682
▁You	-11.9682
▁소오름	-11.9682
▁쭈욱	-11.9682
백설공주	-11.9682
▁맴도는	-11.9682
▁초월하는	-11.9682
▁가슴찡한	-11.9683
▁김준호	-11.9683
▁땡칠이	-11.9683
▁똘끼	-11.9683
▁정경호	-11.9683
▁김소연	-11.9683
▁재조명	-11.9683
▁킹콩	-11.9683
▁파이널	-11.9683
▁강수연	-11.9683
▁에리카	-11.9683
▁박하선	-11.9683
▁NO	-11.9683
▁박용우	-11.9683
▁핀처	-11.9683
▁박한별	-11.9683
▁힛걸	-11.9683
시크릿	-11.9683
▁윤진서	-11.9683
▁브리짓	-11.9683
유투브	-11.9683
▁김청기	-11.9683
▁신성일	-11.9683
▁핫세	-11.9683
▁모호한	-11.9683
▁협박	-11.9683
▁치닫는	-11.9683
▁조한선	-11.9683
▁ok	-11.9683
▁송새벽	-11.9683
더군다나	-11.9683
▁강소라	-11.9683
▁비로소	-11.9683
▁그와중에	-11.9684
▁헨리	-11.9684
▁지금에서야	-11.9684
▁우아한	-11.9684
▁로맨틱코메디	-11.9684
명백한	-11.9684
▁이럴거면	-11.9684
▁휘둘	-11.9685
▁잘표현한	-11.9685
정준영	-11.9685
222	-11.9685
▁are	-11.9685
▁계몽	-11.9686
대박나세요	-11.9686
그렇다쳐도	-11.9686
▁빠른전개	-11.9686
▁직쏘	-11.9686
▁SM	-11.9686
▁굿닥터	-11.9686
결핍	-11.9686
▁묻힌	-11.9687
애청자	-11.9687
▁산뜻	-11.9687
▁간절히	-11.9687
▁레벨	-11.9687
▁젊은시절	-11.9688
▁손잡고	-11.9688
▁쪼금	-11.9689
▁과대평가된	-11.9689
그레이스	-11.9691
▁되도않	-11.9691
▁언제끝나	-11.9691
▁중간쯤	-11.9691
▁절규	-11.9691
▁기타노	-11.9692
도서관	-11.9692
;;;;;;;;;;;;;;;;	-11.9692
▁대만족	-11.9692
▁연기자분들	-11.9693
▁생생히	-11.9693
▁합격	-11.9693
▁빠져들었다	-11.9693
day	-11.9694
▁아무렇지	-11.9694
▁백프로	-11.9694
▁빙의	-11.9695
▁닿지	-11.9695
▁살인범	-11.9696
특별히	-11.9696
▁이해안됨	-11.9696
▁안타깝습니다	-11.9696
▁It	-11.9697
▁재밌긴한데	-11.9697
▁골든	-11.9697
▁몇년만에	-11.9698
▁배워야	-11.9698
▁가시질	-11.9698
▁영웅주의	-11.9698
▁죄악	-11.9698
▁생뚱맞	-11.9699
▁나약한	-11.9699
▁보여줬던	-11.9699
▁냉정하게	-11.97
▁샤워	-11.97
처음이자	-11.9701
▁인내력	-11.9701
눈감고	-11.9702
▁살아온	-11.9703
▁자체만으로	-11.9703
▁거창하	-11.9705
속터져	-11.9706
유태인	-11.9706
▁입맛	-11.9706
▁알았으면	-11.9707
▁고추	-11.9708
▁멍청이들	-11.9708
▁보더라도	-11.9709
▁90%	-11.9711
▁지독하	-11.9712
▁못봐주겠	-11.9713
IN	-11.9716
초롱	-11.9716
▁재미없었는데	-11.9717
▁보편적	-11.9721
▁웃었음	-11.9725
▁착한척	-11.9731
▁ᄡ같	-11.9736
식구들	-11.9739
▁웨스	-11.9743
나쁘지않	-11.9749
올립니다	-11.9752
▁끝난후	-11.9753
뭐이딴	-11.9765
▁쓸쓸함	-11.9768
▁싸가지	-11.9768
▁메이저	-11.9773
▁파격적이	-11.9775
만들다니	-11.9782
누군가에겐	-11.9783
▁이끌어내	-11.979
꺼에요	-11.9793
보고나니	-11.9793
차례	-11.9817
▁생각해본다	-11.9833
▁빠져있	-11.9839
▁줄려다	-11.9854
▁미국인들	-11.986
라이프	-11.9864
▁아련함	-11.9896
▁어쩔꺼	-11.9898
끝날때까지	-11.9899
낯	-11.9899
차승원	-11.99
볼께요	-11.99
초등학교	-11.9901
터미네이터	-11.9901
더러워	-11.9901
않았음	-11.9901
디즈니	-11.9902
도데체	-11.9902
궁금해	-11.9903
멋지다	-11.9903
맞춰	-11.9903
클라라	-11.9903
픽션	-11.9903
단순히	-11.991
유명한	-11.9911
볼거리	-11.9919
▁노출씬	-11.9924
들어와서	-11.9929
▁오래간만	-11.9935
암것도	-11.9952
▁징그럽	-11.9955
보지말것	-11.9992
▁충격먹	-12.0008
결과를	-12.0011
▁대사하나하나	-12.002
▁들어온	-12.0021
▁의미있	-12.0024
했겠지만	-12.0026
많았으면	-12.0036
셨다면	-12.0036
;;;;;;;;;	-12.0037
레이저	-12.0051
♥♥♥♥♥	-12.0065
식상해	-12.0079
bbb	-12.0082
ate	-12.0098
땜	-12.0114
살아서	-12.0187
▁당할수	-12.0193
▁권총	-12.0205
헷	-12.0209
디자이너	-12.0209
뻗	-12.0209
▁VOD	-12.0209
▁고군분투	-12.0209
▁기막힌	-12.0209
▁떨어뜨린다	-12.0209
▁류승완	-12.0209
▁말코비치	-12.0209
▁부자연스러운	-12.0209
▁순식간에	-12.0209
▁스콜세지	-12.0209
▁인디아나존스	-12.0209
▁전무후무	-12.0209
▁절묘하게	-12.0209
▁투모로우	-12.0209
▁파란만장	-12.0209
▁퍼포먼스	-12.0209
끄러움	-12.0209
륨	-12.0209
밀라요보비치	-12.0209
숴	-12.0209
스크린쿼터	-12.0209
쏜	-12.0209
잌	-12.0209
쿤	-12.0209
퀘	-12.0209
페넬로페	-12.0209
프렌즈	-12.0209
황우슬혜	-12.0209
▁껍데기	-12.0209
▁노골적으로	-12.0209
▁노골적인	-12.0209
▁매염방	-12.0209
▁우베볼	-12.0209
▁짜깁기	-12.0209
▁코넬리	-12.0209
기가막힌	-12.0209
롹	-12.0209
쒯	-12.0209
아이덴티티	-12.0209
오마이갓	-12.0209
쳇	-12.0209
▁같잖은	-12.0209
▁경각심	-12.0209
▁국가대표	-12.0209
▁브란도	-12.0209
▁공영방송	-12.0209
▁어린나이에	-12.0209
▁진솔한	-12.0209
▁무심코	-12.0209
▁묵직하	-12.0209
▁아름다우	-12.0209
툭툭	-12.0209
▁선정적인	-12.0209
▁생동감	-12.0209
특공대	-12.0209
▁쾌락	-12.0209
▁어지간하	-12.0209
▁훗날	-12.0209
으으으	-12.0209
▁모조리	-12.0209
▁미디어	-12.0209
▁미소짓게	-12.0209
▁괴리감	-12.0209
▁토요일	-12.0209
low	-12.0209
▁별두개	-12.0209
▁끊기고	-12.0209
▁가까워	-12.0209
▁스트립	-12.0209
▁닥쳐	-12.0209
▁서유기	-12.0209
▁간단한	-12.021
박시환	-12.021
▁김아중	-12.021
▁폐쇄	-12.021
▁뜨거워	-12.021
▁블랙코메디	-12.021
▁질질짜는	-12.021
▁안볼란다	-12.021
▁댄서	-12.021
▁링컨	-12.021
▁패륜	-12.021
▁숫자	-12.021
▁둔갑	-12.021
▁맑고	-12.0211
▁흥겹	-12.0211
▁옷벗	-12.0211
▁망설이	-12.0211
▁감명깊은	-12.0211
▁핵꿀잼	-12.0211
▁미루다	-12.0211
▁몽골	-12.0212
▁안보신분들	-12.0212
▁다양성	-12.0212
▁감회가	-12.0213
▁때묻지	-12.0213
▁없어져야	-12.0213
의극치	-12.0214
▁아이템	-12.0214
▁엄청나다	-12.0214
▁휴먼드라마	-12.0215
▁정신상태	-12.0215
▁상식적으로	-12.0215
▁클레이	-12.0215
▁맞춤	-12.0215
▁워스트	-12.0216
▁출품	-12.0216
▁제멋대로	-12.0216
▁죄송합니다	-12.0216
쉐프	-12.0217
▁늘어진다	-12.0217
▁5~6	-12.0218
게해준영화	-12.0219
▁기대되요	-12.022
▁낙태	-12.0221
▁재구성	-12.0223
이건아니잖아	-12.0223
▁생각해보니	-12.0223
▁이미숙	-12.0224
▁잼께	-12.0227
▁다섯번	-12.0235
▁키우는	-12.0236
같지않은	-12.0237
::	-12.024
▁짧았	-12.024
▁열받는	-12.0241
오글거리는	-12.0256
▁소박하	-12.0265
LA	-12.0269
▁인간극장	-12.0283
시키다니	-12.0286
ᅲᅲᅲᅲᅲᅲᅲᅲᅲᅲᅲᅲ	-12.0291
나본데	-12.0295
▁전투장면	-12.0302
▁창의적	-12.0303
입장에선	-12.0306
내공이	-12.0314
▁9.5	-12.0338
▁흥미있	-12.0352
▁나쁜짓	-12.0353
ine	-12.0353
▁창피하	-12.0388
강력한	-12.0396
같았던	-12.0408
▁심어주	-12.0412
▁흔해	-12.0418
억지스럽	-12.0424
됌	-12.0429
깨달았	-12.043
나올정도로	-12.0451
파이팅	-12.0455
성유리	-12.0455
스파이더맨	-12.0456
원숭이	-12.0456
누군지	-12.0456
장국영	-12.0457
양아치	-12.0457
영원히	-12.0457
깜짝	-12.0458
깔끔	-12.0458
탄탄한	-12.0458
주성치	-12.0458
스텝업	-12.0459
일주일	-12.0459
빨라서	-12.0459
제임스	-12.0461
어린시절	-12.0462
평균	-12.0462
가득한	-12.0463
아침드라마	-12.0463
받앗	-12.0464
스파이	-12.0467
▁푸하하하	-12.0474
어이가없	-12.0475
할말이없	-12.048
▁위트있	-12.0485
웃었네	-12.0489
하나도안	-12.0507
할일없	-12.0518
연인들	-12.0558
▁먹고싶	-12.0597
ᄍᄍᄍᄍ	-12.0611
감동먹었	-12.0621
[...]
